{
  "version": "1.0",
  "truncation": {
    "direction": "Right",
    "max_length": 129,
    "strategy": "LongestFirst",
    "stride": 0
  },
  "padding": {
    "strategy": {
      "Fixed": 129
    },
    "direction": "Right",
    "pad_to_multiple_of": null,
    "pad_id": 0,
    "pad_type_id": 0,
    "pad_token": "<pad>"
  },
  "added_tokens": [
    {
      "id": 0,
      "content": "<pad>",
      "single_word": false,
      "lstrip": false,
      "rstrip": false,
      "normalized": false,
      "special": true
    },
    {
      "id": 1,
      "content": "<bos>",
      "single_word": false,
      "lstrip": false,
      "rstrip": false,
      "normalized": false,
      "special": true
    },
    {
      "id": 2,
      "content": "<unk>",
      "single_word": false,
      "lstrip": false,
      "rstrip": false,
      "normalized": false,
      "special": true
    }
  ],
  "normalizer": null,
  "pre_tokenizer": {
    "type": "ByteLevel",
    "add_prefix_space": false,
    "trim_offsets": true,
    "use_regex": true
  },
  "post_processor": {
    "type": "TemplateProcessing",
    "single": [
      {
        "SpecialToken": {
          "id": "<bos>",
          "type_id": 0
        }
      },
      {
        "Sequence": {
          "id": "A",
          "type_id": 0
        }
      }
    ],
    "pair": [
      {
        "Sequence": {
          "id": "A",
          "type_id": 0
        }
      },
      {
        "Sequence": {
          "id": "B",
          "type_id": 1
        }
      }
    ],
    "special_tokens": {
      "<bos>": {
        "id": "<bos>",
        "ids": [
          1
        ],
        "tokens": [
          "<bos>"
        ]
      }
    }
  },
  "decoder": {
    "type": "ByteLevel",
    "add_prefix_space": true,
    "trim_offsets": true,
    "use_regex": true
  },
  "model": {
    "type": "BPE",
    "dropout": null,
    "unk_token": "<unk>",
    "continuing_subword_prefix": null,
    "end_of_word_suffix": null,
    "fuse_unk": false,
    "byte_fallback": false,
    "vocab": {
      "<pad>": 0,
      "<bos>": 1,
      "<unk>": 2,
      "!": 3,
      "\"": 4,
      "#": 5,
      "$": 6,
      "%": 7,
      "&": 8,
      "'": 9,
      "(": 10,
      ")": 11,
      "*": 12,
      "+": 13,
      ",": 14,
      "-": 15,
      ".": 16,
      "/": 17,
      "0": 18,
      "1": 19,
      "2": 20,
      "3": 21,
      "4": 22,
      "5": 23,
      "6": 24,
      "7": 25,
      "8": 26,
      "9": 27,
      ":": 28,
      ";": 29,
      "<": 30,
      "=": 31,
      ">": 32,
      "?": 33,
      "@": 34,
      "A": 35,
      "B": 36,
      "C": 37,
      "D": 38,
      "E": 39,
      "F": 40,
      "G": 41,
      "H": 42,
      "I": 43,
      "J": 44,
      "K": 45,
      "L": 46,
      "M": 47,
      "N": 48,
      "O": 49,
      "P": 50,
      "Q": 51,
      "R": 52,
      "S": 53,
      "T": 54,
      "U": 55,
      "V": 56,
      "W": 57,
      "X": 58,
      "Y": 59,
      "Z": 60,
      "[": 61,
      "\\": 62,
      "]": 63,
      "^": 64,
      "`": 65,
      "a": 66,
      "b": 67,
      "c": 68,
      "d": 69,
      "e": 70,
      "f": 71,
      "g": 72,
      "h": 73,
      "i": 74,
      "j": 75,
      "k": 76,
      "l": 77,
      "m": 78,
      "n": 79,
      "o": 80,
      "p": 81,
      "q": 82,
      "r": 83,
      "s": 84,
      "t": 85,
      "u": 86,
      "v": 87,
      "w": 88,
      "x": 89,
      "y": 90,
      "z": 91,
      "|": 92,
      "~": 93,
      "¡": 94,
      "¢": 95,
      "£": 96,
      "¤": 97,
      "¥": 98,
      "¦": 99,
      "§": 100,
      "¨": 101,
      "©": 102,
      "ª": 103,
      "«": 104,
      "¬": 105,
      "®": 106,
      "¯": 107,
      "°": 108,
      "±": 109,
      "²": 110,
      "³": 111,
      "´": 112,
      "µ": 113,
      "¶": 114,
      "·": 115,
      "¸": 116,
      "¹": 117,
      "º": 118,
      "»": 119,
      "¼": 120,
      "½": 121,
      "¾": 122,
      "¿": 123,
      "Â": 124,
      "Ã": 125,
      "Ä": 126,
      "Å": 127,
      "Æ": 128,
      "Ê": 129,
      "Ì": 130,
      "Î": 131,
      "Ð": 132,
      "Ñ": 133,
      "Ø": 134,
      "Ù": 135,
      "à": 136,
      "á": 137,
      "â": 138,
      "ã": 139,
      "å": 140,
      "æ": 141,
      "ç": 142,
      "é": 143,
      "ï": 144,
      "Ċ": 145,
      "Ġ": 146,
      "Ģ": 147,
      "ģ": 148,
      "Ĥ": 149,
      "ĥ": 150,
      "Ħ": 151,
      "ħ": 152,
      "Ĩ": 153,
      "ĩ": 154,
      "Ī": 155,
      "ī": 156,
      "Ĭ": 157,
      "ĭ": 158,
      "Į": 159,
      "į": 160,
      "İ": 161,
      "ı": 162,
      "Ĳ": 163,
      "ĳ": 164,
      "Ĵ": 165,
      "ĵ": 166,
      "Ķ": 167,
      "ķ": 168,
      "ĸ": 169,
      "Ĺ": 170,
      "ĺ": 171,
      "Ļ": 172,
      "ļ": 173,
      "Ľ": 174,
      "ľ": 175,
      "Ŀ": 176,
      "ŀ": 177,
      "Ł": 178,
      "ł": 179,
      "Ń": 180,
      "Ġt": 181,
      "he": 182,
      "Ġa": 183,
      "in": 184,
      "Ġthe": 185,
      "er": 186,
      "on": 187,
      "Ġ,": 188,
      "un": 189,
      "re": 190,
      "Ġs": 191,
      "Ġo": 192,
      "Ġw": 193,
      "ed": 194,
      "Ġ.": 195,
      "at": 196,
      "nd": 197,
      "unk": 198,
      "Ġ<": 199,
      "or": 200,
      "it": 201,
      "Ġc": 202,
      "Ġf": 203,
      "en": 204,
      "Ġof": 205,
      "is": 206,
      "Ġb": 207,
      "es": 208,
      "Ġin": 209,
      "ar": 210,
      "an": 211,
      "al": 212,
      "Ġand": 213,
      "Ġp": 214,
      "ing": 215,
      "as": 216,
      "Ġto": 217,
      "ro": 218,
      "Ġm": 219,
      "ic": 220,
      "Ġd": 221,
      "Ġh": 222,
      "ion": 223,
      "le": 224,
      "ĠT": 225,
      "Ġ=": 226,
      "Ġre": 227,
      "Ġ\"": 228,
      "ou": 229,
      "Ġth": 230,
      "ĠA": 231,
      "ent": 232,
      "Ġ1": 233,
      "il": 234,
      "ĠS": 235,
      "st": 236,
      "Ġl": 237,
      "ĠĊ": 238,
      "Ġe": 239,
      "Ġ@": 240,
      "om": 241,
      "Ġn": 242,
      "am": 243,
      "ĠC": 244,
      "ly": 245,
      "ad": 246,
      "Ġwas": 247,
      "ac": 248,
      "ĠThe": 249,
      "Ġbe": 250,
      "Ġon": 251,
      "ve": 252,
      "ur": 253,
      "ĠM": 254,
      "Ġ'": 255,
      "ĠI": 256,
      "Ġg": 257,
      "Ġfor": 258,
      "-@": 259,
      "Ġ@-@": 260,
      "ter": 261,
      "ol": 262,
      "ĠB": 263,
      "im": 264,
      "id": 265,
      "ir": 266,
      "ver": 267,
      "ct": 268,
      "ig": 269,
      "Ġas": 270,
      "th": 271,
      "ow": 272,
      "Ġst": 273,
      "Ġ2": 274,
      "ith": 275,
      "us": 276,
      "ĠH": 277,
      "el": 278,
      "ay": 279,
      "ut": 280,
      "Ġwith": 281,
      "Ġthat": 282,
      "Ġhe": 283,
      "ce": 284,
      "ot": 285,
      "ation": 286,
      "et": 287,
      "Ġis": 288,
      "Ġby": 289,
      "Ġwh": 290,
      "ch": 291,
      "ĠP": 292,
      "Ġ(": 293,
      "Ġ)": 294,
      "ĠR": 295,
      "Ġal": 296,
      "Ġcon": 297,
      "Ġat": 298,
      "ĠF": 299,
      "ĠD": 300,
      "ul": 301,
      "ĠW": 302,
      "Ġit": 303,
      "Ġ19": 304,
      "ain": 305,
      "rom": 306,
      "and": 307,
      "em": 308,
      "ri": 309,
      "ĠN": 310,
      "Ġan": 311,
      "00": 312,
      "os": 313,
      "Ġse": 314,
      "Ġde": 315,
      "her": 316,
      "ĠG": 317,
      "est": 318,
      "ĠJ": 319,
      "ĠL": 320,
      "ag": 321,
      "Ġhis": 322,
      "um": 323,
      "Ġfrom": 324,
      "ers": 325,
      "Ġcom": 326,
      "ĠO": 327,
      "od": 328,
      "Ġr": 329,
      "pe": 330,
      "und": 331,
      "ere": 332,
      "ĠE": 333,
      "ist": 334,
      "Ġpro": 335,
      "Ġwere": 336,
      "res": 337,
      "ort": 338,
      "ate": 339,
      "ld": 340,
      "ies": 341,
      "if": 342,
      "Ġsu": 343,
      "ill": 344,
      "ore": 345,
      "ĠIn": 346,
      "ap": 347,
      "Ġv": 348,
      "igh": 349,
      "ong": 350,
      "ew": 351,
      "op": 352,
      "iv": 353,
      "ich": 354,
      "all": 355,
      "art": 356,
      "ard": 357,
      "Ġor": 358,
      "ber": 359,
      "ak": 360,
      "ive": 361,
      "ity": 362,
      "gh": 363,
      "se": 364,
      "ame": 365,
      "Ġpl": 366,
      "Ġex": 367,
      "ated": 368,
      "ant": 369,
      "Ġch": 370,
      "ud": 371,
      "Ġâ": 372,
      "Ġare": 373,
      "ab": 374,
      "Ġhad": 375,
      "oc": 376,
      "qu": 377,
      "Ġk": 378,
      "ĠâĢ": 379,
      "Ġsh": 380,
      "ment": 381,
      "ack": 382,
      "ĠU": 383,
      "Ġwhich": 384,
      "ess": 385,
      "up": 386,
      "red": 387,
      "ip": 388,
      "our": 389,
      "ast": 390,
      "ge": 391,
      "ĠSt": 392,
      "ave": 393,
      "ian": 394,
      "Ġy": 395,
      "Ġnot": 396,
      "Ġle": 397,
      "rit": 398,
      "pt": 399,
      "ost": 400,
      "ial": 401,
      "ĠK": 402,
      "ear": 403,
      "ight": 404,
      "av": 405,
      "ust": 406,
      "Ġtr": 407,
      "ther": 408,
      "Ġ3": 409,
      "ord": 410,
      "oun": 411,
      "cl": 412,
      "ine": 413,
      "ish": 414,
      "ical": 415,
      "ary": 416,
      "ĠCh": 417,
      "Ġ200": 418,
      "te": 419,
      "ell": 420,
      "Ġ;": 421,
      "ia": 422,
      "pp": 423,
      "ction": 424,
      "irst": 425,
      "fter": 426,
      "Ġbut": 427,
      "Ġar": 428,
      "Ġcomp": 429,
      "Ġtheir": 430,
      "ide": 431,
      "cc": 432,
      "so": 433,
      "ure": 434,
      "ould": 435,
      "Ġits": 436,
      "Ġcont": 437,
      "Ġwhe": 438,
      "ome": 439,
      "ous": 440,
      "Ġun": 441,
      "og": 442,
      "Ġint": 443,
      "Ġfirst": 444,
      "ĠâĢĵ": 445,
      "ra": 446,
      "wo": 447,
      "Ġro": 448,
      "Ġ20": 449,
      "ition": 450,
      "ue": 451,
      "hed": 452,
      "own": 453,
      "Ġalso": 454,
      "Ġ:": 455,
      "ign": 456,
      "out": 457,
      "ater": 458,
      "Ġcl": 459,
      "ub": 460,
      "per": 461,
      "ie": 462,
      "ff": 463,
      "Ġus": 464,
      "low": 465,
      "orm": 466,
      "ĠHe": 467,
      "ork": 468,
      "age": 469,
      "Ġher": 470,
      "Ġad": 471,
      "ass": 472,
      "ĠV": 473,
      "Ġhave": 474,
      "ru": 475,
      "Ġab": 476,
      "Ġbeen": 477,
      "Ġhas": 478,
      "Ġone": 479,
      "mer": 480,
      "Ġ4": 481,
      "ire": 482,
      "ree": 483,
      "ok": 484,
      "Ġres": 485,
      ".@": 486,
      "Ġ@.@": 487,
      "ime": 488,
      "Ġtwo": 489,
      "Ġ5": 490,
      "Ġ18": 491,
      "Ġrec": 492,
      "uring": 493,
      "ond": 494,
      "ry": 495,
      "Ġper": 496,
      "ted": 497,
      "ved": 498,
      "ence": 499,
      "du": 500,
      "ough": 501,
      "Ġwho": 502,
      "ĠTh": 503,
      "Ġag": 504,
      "ugh": 505,
      "ans": 506,
      "ally": 507,
      "Ġthis": 508,
      "Ġbo": 509,
      "are": 510,
      "Ġbec": 511,
      "ile": 512,
      "ĠIt": 513,
      "pl": 514,
      "ance": 515,
      "land": 516,
      "Ġpart": 517,
      "Ġthey": 518,
      "Ġsc": 519,
      "Ġafter": 520,
      "ect": 521,
      "clud": 522,
      "Ġ201": 523,
      "Ġdes": 524,
      "Ġplay": 525,
      "ĠAl": 526,
      ",@": 527,
      "Ġ@,@": 528,
      "Ġte": 529,
      "ach": 530,
      "over": 531,
      "Ġyear": 532,
      "ory": 533,
      "Ġover": 534,
      "any": 535,
      "Ġdis": 536,
      "ade": 537,
      "ations": 538,
      "Ġj": 539,
      "Ġser": 540,
      "ric": 541,
      "ult": 542,
      "Ġoff": 543,
      "Ġother": 544,
      "Ġup": 545,
      "ace": 546,
      "ke": 547,
      "ound": 548,
      "Ġinclud": 549,
      "ice": 550,
      "urn": 551,
      "ove": 552,
      "Ġen": 553,
      "ions": 554,
      "port": 555,
      "Ġout": 556,
      "ang": 557,
      "ount": 558,
      "Ġim": 559,
      "Ġinto": 560,
      "ress": 561,
      "ite": 562,
      "ib": 563,
      "iz": 564,
      "act": 565,
      "Ġatt": 566,
      "ward": 567,
      "Ġne": 568,
      "Ġtime": 569,
      "Ġpre": 570,
      "Ġev": 571,
      "Ġ6": 572,
      "wn": 573,
      "Ġfin": 574,
      "ĠOn": 575,
      "ĠY": 576,
      "ark": 577,
      "ced": 578,
      "Ġcomm": 579,
      "rough": 580,
      "ces": 581,
      "Ġwould": 582,
      "we": 583,
      "Ġwe": 584,
      "tern": 585,
      "ens": 586,
      "Ġmore": 587,
      "Ġhim": 588,
      "ĠUn": 589,
      "ose": 590,
      "ĠSe": 591,
      "ied": 592,
      "Ġspe": 593,
      "one": 594,
      "ren": 595,
      "amp": 596,
      "Ġall": 597,
      "ail": 598,
      "ited": 599,
      "ason": 600,
      "ased": 601,
      "Ġsp": 602,
      "vers": 603,
      "Ġwork": 604,
      "oin": 605,
      "Ġcent": 606,
      "rib": 607,
      "Ġshe": 608,
      "iss": 609,
      "round": 610,
      "ĠRe": 611,
      "ase": 612,
      "Ġ7": 613,
      "vi": 614,
      "Ġrem": 615,
      "ts": 616,
      "Ġme": 617,
      "les": 618,
      "ĠAn": 619,
      "ood": 620,
      "ral": 621,
      "Ġthem": 622,
      "ates": 623,
      "orth": 624,
      "Ġ9": 625,
      "Ġduring": 626,
      "Ġear": 627,
      "Ġbet": 628,
      "ix": 629,
      "Ġsec": 630,
      "Ġwhen": 631,
      "ings": 632,
      "outh": 633,
      "gan": 634,
      "Ġfe": 635,
      "able": 636,
      "Ġkn": 637,
      "vel": 638,
      "ild": 639,
      "under": 640,
      "ents": 641,
      "old": 642,
      "form": 643,
      "att": 644,
      "Ġmost": 645,
      "Ġsong": 646,
      "ilm": 647,
      "ake": 648,
      "ubl": 649,
      "fer": 650,
      "Ġagain": 651,
      "ors": 652,
      "Ġonly": 653,
      "ollow": 654,
      "als": 655,
      "aus": 656,
      "man": 657,
      "Ġnew": 658,
      "ered": 659,
      "Ġ8": 660,
      "Ġthree": 661,
      "ĠAs": 662,
      "ath": 663,
      "way": 664,
      "Ġ199": 665,
      "oy": 666,
      "ween": 667,
      "Ġcons": 668,
      "Ġgame": 669,
      "Ġthan": 670,
      "ision": 671,
      "Ġunder": 672,
      "ĠCom": 673,
      "Ġabout": 674,
      "ug": 675,
      "ĠAr": 676,
      "ational": 677,
      "Ġ00": 678,
      "reat": 679,
      "ick": 680,
      "Ġsome": 681,
      "ons": 682,
      "Ġthrough": 683,
      "ters": 684,
      "Ġrel": 685,
      "ĠMar": 686,
      "Ġlater": 687,
      "Ġbetween": 688,
      "aw": 689,
      "fore": 690,
      "ind": 691,
      "Ġseason": 692,
      "ft": 693,
      "cted": 694,
      "meric": 695,
      "hip": 696,
      "Ġcol": 697,
      "Ġfilm": 698,
      "ĠAmeric": 699,
      "Ġpos": 700,
      "ict": 701,
      "ĠDe": 702,
      "Ġnum": 703,
      "Ġass": 704,
      "Ġwhile": 705,
      "Ġend": 706,
      "Ġcan": 707,
      "Ġap": 708,
      "ĠNew": 709,
      "Ġpe": 710,
      "ular": 711,
      "ning": 712,
      "ike": 713,
      "Ġret": 714,
      "Ġrecord": 715,
      "Ġinter": 716,
      "Ġwhere": 717,
      "Ġdef": 718,
      "ron": 719,
      "Ġmade": 720,
      "olog": 721,
      "Ġform": 722,
      "Ġprodu": 723,
      "Ġfl": 724,
      "ames": 725,
      "Ġreg": 726,
      "Ġlar": 727,
      "Ġchar": 728,
      "ĠEn": 729,
      "orld": 730,
      "Ġfollow": 731,
      "Ġrele": 732,
      "Ġwrit": 733,
      "ished": 734,
      "Ġday": 735,
      "Ġac": 736,
      "Ġapp": 737,
      "ey": 738,
      "rop": 739,
      "Ġso": 740,
      "Ġman": 741,
      "Ġsub": 742,
      "Ġam": 743,
      "ener": 744,
      "Ġfour": 745,
      "Ġspec": 746,
      "Ġbu": 747,
      "Ġact": 748,
      "ank": 749,
      "ever": 750,
      "Ġno": 751,
      "Ġ000": 752,
      "Ġused": 753,
      "ury": 754,
      "Ġsupp": 755,
      "Ġacc": 756,
      "Ġinc": 757,
      "Ġsecond": 758,
      "ĠAt": 759,
      "Ġmo": 760,
      "Ġsuch": 761,
      "bum": 762,
      "ll": 763,
      "aid": 764,
      "ual": 765,
      "Ġappe": 766,
      "Ġbefore": 767,
      "Ġgro": 768,
      "ock": 769,
      "Ġqu": 770,
      "Ġhigh": 771,
      "Ġbeing": 772,
      "Ġthere": 773,
      "ating": 774,
      "Ġmus": 775,
      "ph": 776,
      "ĠBrit": 777,
      "ĠThis": 778,
      "ss": 779,
      "Ġcall": 780,
      "ines": 781,
      "Ġind": 782,
      "Ġco": 783,
      "ily": 784,
      "Ġsever": 785,
      "Ġfound": 786,
      "ĠLe": 787,
      "Ġpubl": 788,
      "Ġ10": 789,
      "ck": 790,
      "ars": 791,
      "Ġdo": 792,
      "Ġent": 793,
      "ific": 794,
      "ember": 795,
      "Ġloc": 796,
      "orn": 797,
      "owever": 798,
      "Ġpr": 799,
      "Ġalbum": 800,
      "Ġyears": 801,
      "Ġsy": 802,
      "Ġset": 803,
      "ics": 804,
      "Ġagainst": 805,
      "Ġnumber": 806,
      "mber": 807,
      "Ġ/": 808,
      "Ġsur": 809,
      "Ġele": 810,
      "Ġ0": 811,
      "very": 812,
      "ĠAust": 813,
      "ained": 814,
      "Ġgr": 815,
      "ĠSc": 816,
      "hes": 817,
      "ince": 818,
      "ĠâĢĶ": 819,
      "Ġpo": 820,
      "ious": 821,
      "Ġ12": 822,
      "Ġseries": 823,
      "iel": 824,
      "velop": 825,
      "Ġinv": 826,
      "other": 827,
      "ane": 828,
      "ife": 829,
      "oh": 830,
      "Ġknown": 831,
      "Ġbecame": 832,
      "ative": 833,
      "Ġcap": 834,
      "Ġincluding": 835,
      "Ġdec": 836,
      "Ġep": 837,
      "Ġwell": 838,
      "ause": 839,
      "pen": 840,
      "end": 841,
      "Ġboth": 842,
      "ĠEng": 843,
      "igin": 844,
      "Ġthen": 845,
      "ten": 846,
      "Ġteam": 847,
      "Ġback": 848,
      "urch": 849,
      "Ġpres": 850,
      "ĠRo": 851,
      "ived": 852,
      "Ġadd": 853,
      "hen": 854,
      "Ġmon": 855,
      "ird": 856,
      "Ġmain": 857,
      "Ġseveral": 858,
      "its": 859,
      "ject": 860,
      "Ġperform": 861,
      "Ġdire": 862,
      "ode": 863,
      "ven": 864,
      "Ġ198": 865,
      "overn": 866,
      "ĠAfter": 867,
      "ities": 868,
      "Ġtrans": 869,
      "ĠUnited": 870,
      "though": 871,
      "Ġ194": 872,
      "Ġrece": 873,
      "ident": 874,
      "Ġem": 875,
      "ures": 876,
      "ton": 877,
      "Ġlong": 878,
      "Ġship": 879,
      "Ġmany": 880,
      "ised": 881,
      "Ġepis": 882,
      "io": 883,
      "Ġdesc": 884,
      "Ġsing": 885,
      "ute": 886,
      "aj": 887,
      "ower": 888,
      "Ġest": 889,
      "Ġcharac": 890,
      "Ġpop": 891,
      "Ġstud": 892,
      "ments": 893,
      "son": 894,
      "Ġdevelop": 895,
      "ale": 896,
      "ĠGer": 897,
      "Ġcity": 898,
      "pr": 899,
      "ĠBritish": 900,
      "Ġ16": 901,
      "Ġbegan": 902,
      "ĠSh": 903,
      "til": 904,
      "Ġbl": 905,
      "Ġ11": 906,
      "Ġorigin": 907,
      "Ġ197": 908,
      "Ġdep": 909,
      "Ġcomple": 910,
      "Ġcontin": 911,
      "ĠAmerican": 912,
      "ful": 913,
      "elf": 914,
      "ared": 915,
      "Ġlike": 916,
      "ĠAustral": 917,
      "led": 918,
      "ather": 919,
      "Ġ17": 920,
      "ann": 921,
      "Ġmin": 922,
      "Ġmill": 923,
      "ise": 924,
      "Ġ15": 925,
      "ek": 926,
      "Ġgo": 927,
      "ĠMay": 928,
      "une": 929,
      "Ġearly": 930,
      "ired": 931,
      "Ġalong": 932,
      "ĠJoh": 933,
      "iver": 934,
      "ĠInd": 935,
      "Ġ196": 936,
      "ross": 937,
      "ield": 938,
      "air": 939,
      "Ġshow": 940,
      "Ġcould": 941,
      "ert": 942,
      "ĠWar": 943,
      "Ġsign": 944,
      "ern": 945,
      "ains": 946,
      "Ġcar": 947,
      "ob": 948,
      "Ġpol": 949,
      "ool": 950,
      "Ġmil": 951,
      "ĠShe": 952,
      "uch": 953,
      "Ġlead": 954,
      "Ġart": 955,
      "Ġter": 956,
      "Ġthese": 957,
      "Ġcre": 958,
      "Ġcentury": 959,
      "Ġsm": 960,
      "ram": 961,
      "Ġdid": 962,
      "emb": 963,
      "Ġkm": 964,
      "ually": 965,
      "Ġcalled": 966,
      "Ġob": 967,
      "Ġlarge": 968,
      "ued": 969,
      "Ġdown": 970,
      "Ġnear": 971,
      "Ġoper": 972,
      "Ġdif": 973,
      "ĠBr": 974,
      "ĠJohn": 975,
      "ier": 976,
      "der": 977,
      "Ġair": 978,
      "Ġhist": 979,
      "Ġwar": 980,
      "Ġbr": 981,
      "Ġbro": 982,
      "Ġmay": 983,
      "ient": 984,
      "cept": 985,
      "Ġrun": 986,
      "ccess": 987,
      "Ġuntil": 988,
      "Ġdesign": 989,
      "Ġfeat": 990,
      "ĠAug": 991,
      "Ġhead": 992,
      "ople": 993,
      "Ġattack": 994,
      "ĠAugust": 995,
      "stru": 996,
      "Ġland": 997,
      "Ġcrit": 998,
      "Ġinf": 999,
      "Ġmat": 1000,
      "Ġarea": 1001,
      "Ġepisode": 1002,
      "ange": 1003,
      "aking": 1004,
      "imes": 1005,
      "Ġdescrib": 1006,
      "ivers": 1007,
      "ting": 1008,
      "Ġreturn": 1009,
      "view": 1010,
      "anc": 1011,
      "ĠSept": 1012,
      "Ġstart": 1013,
      "Ġdisc": 1014,
      "Ġsaid": 1015,
      "Ġdist": 1016,
      "ially": 1017,
      "tend": 1018,
      "ĠSeptember": 1019,
      "ured": 1020,
      "Ġprov": 1021,
      "ins": 1022,
      "Ġany": 1023,
      "gest": 1024,
      "ĠUS": 1025,
      "my": 1026,
      "Ġthough": 1027,
      "iam": 1028,
      "ĠIs": 1029,
      "Ġgovern": 1030,
      "az": 1031,
      "ull": 1032,
      "Ġsupport": 1033,
      "ĠBe": 1034,
      "Ġoffic": 1035,
      "ided": 1036,
      "ĠZ": 1037,
      "ized": 1038,
      "ajor": 1039,
      "Ġgroup": 1040,
      "ped": 1041,
      "Ġsame": 1042,
      "ep": 1043,
      "Ġnorth": 1044,
      "ĠComm": 1045,
      "Ġpass": 1046,
      "ĠWh": 1047,
      "erson": 1048,
      "oot": 1049,
      "amed": 1050,
      "Ġrep": 1051,
      "Ġaround": 1052,
      "Ġmusic": 1053,
      "Ġmet": 1054,
      "ĠThey": 1055,
      "Ġown": 1056,
      "Ġuse": 1057,
      "ĠNorth": 1058,
      "Ġreleased": 1059,
      "Ġeff": 1060,
      "xt": 1061,
      "iet": 1062,
      "Ġbecause": 1063,
      "Ġopen": 1064,
      "ĠChr": 1065,
      "stem": 1066,
      "ĠWorld": 1067,
      "Ġsuccess": 1068,
      "Ġocc": 1069,
      "ley": 1070,
      "osed": 1071,
      "Ġimp": 1072,
      "Ġmillion": 1073,
      "ty": 1074,
      "ook": 1075,
      "hy": 1076,
      "Ġgener": 1077,
      "Ġfam": 1078,
      "Ġstr": 1079,
      "ible": 1080,
      "Ġfollowing": 1081,
      "Ġdam": 1082,
      "Ġsix": 1083,
      "ĠCon": 1084,
      "wards": 1085,
      "aced": 1086,
      "Ġpeople": 1087,
      "ĠJu": 1088,
      "ĠAll": 1089,
      "chool": 1090,
      "Ġadv": 1091,
      "ink": 1092,
      "Ġcount": 1093,
      "Ġsim": 1094,
      "Ġsmall": 1095,
      "ĠJune": 1096,
      "rap": 1097,
      "Ġinst": 1098,
      "enn": 1099,
      "Ġeach": 1100,
      "Ġgu": 1101,
      "ĠOct": 1102,
      "ivision": 1103,
      "Ġbatt": 1104,
      "ĠFr": 1105,
      "Ġ13": 1106,
      "ĠHowever": 1107,
      "ving": 1108,
      "Ġsouth": 1109,
      "Ġpoin": 1110,
      "ah": 1111,
      "ution": 1112,
      "ropical": 1113,
      "ĠCol": 1114,
      "Ġins": 1115,
      "ĠSouth": 1116,
      "aining": 1117,
      "oman": 1118,
      "ĠMe": 1119,
      "ober": 1120,
      "ists": 1121,
      "ĠOctober": 1122,
      "Ġfive": 1123,
      "Ġbel": 1124,
      "Ġ191": 1125,
      "Ġvi": 1126,
      "ues": 1127,
      "ology": 1128,
      "ĠBl": 1129,
      "Ġcontro": 1130,
      "Ġ195": 1131,
      "ets": 1132,
      "ves": 1133,
      "Ġconsid": 1134,
      "ilt": 1135,
      "els": 1136,
      "Ġmod": 1137,
      "Ġexp": 1138,
      "Ġreport": 1139,
      "Ġlife": 1140,
      "ording": 1141,
      "oss": 1142,
      "ms": 1143,
      "ĠCl": 1144,
      "Ġed": 1145,
      "Ġcharacter": 1146,
      "Ġsince": 1147,
      "Ġconc": 1148,
      "Ġvar": 1149,
      "ouse": 1150,
      "ĠCar": 1151,
      "ĠStates": 1152,
      "Ġgun": 1153,
      "ĠFor": 1154,
      "Ġtook": 1155,
      "ately": 1156,
      "ĠTe": 1157,
      "Ġwin": 1158,
      "avy": 1159,
      "Ġ14": 1160,
      "Ġann": 1161,
      "Ġstate": 1162,
      "ĠPl": 1163,
      "Ġname": 1164,
      "Ġ193": 1165,
      "med": 1166,
      "uc": 1167,
      "ement": 1168,
      "yl": 1169,
      "ales": 1170,
      "rote": 1171,
      "Ġ$": 1172,
      "ĠII": 1173,
      "ctor": 1174,
      "Ġtit": 1175,
      "ash": 1176,
      "Ġmajor": 1177,
      "ission": 1178,
      "Ġprom": 1179,
      "Ġext": 1180,
      "ony": 1181,
      "aving": 1182,
      "Ġclass": 1183,
      "Ġsystem": 1184,
      "Ġreceived": 1185,
      "lish": 1186,
      "Ġfinal": 1187,
      "ium": 1188,
      "tle": 1189,
      "ĠJuly": 1190,
      "ural": 1191,
      "ĠAd": 1192,
      "empt": 1193,
      "ĠJan": 1194,
      "vious": 1195,
      "uth": 1196,
      "Ġwhat": 1197,
      "Ġ[": 1198,
      "Ġ]": 1199,
      "row": 1200,
      "ague": 1201,
      "ĠChrist": 1202,
      "Ġhel": 1203,
      "vent": 1204,
      "min": 1205,
      "Ġwill": 1206,
      "Ġplayed": 1207,
      "ĠFe": 1208,
      "Ġappear": 1209,
      "Ġjust": 1210,
      "pect": 1211,
      "Ġcare": 1212,
      "ified": 1213,
      "Ġposition": 1214,
      "uary": 1215,
      "Ġpartic": 1216,
      "Ġnow": 1217,
      "Ġlast": 1218,
      "Ġweek": 1219,
      "ats": 1220,
      "ians": 1221,
      "Ġlate": 1222,
      "Ġline": 1223,
      "ple": 1224,
      "Ġport": 1225,
      "Ġ%": 1226,
      "aged": 1227,
      "Ġstru": 1228,
      "ĠHer": 1229,
      "Ġpublic": 1230,
      "Ġcamp": 1231,
      "ional": 1232,
      "ored": 1233,
      "Ġwon": 1234,
      "Ġdue": 1235,
      "ĠEu": 1236,
      "ĠDuring": 1237,
      "Ġty": 1238,
      "Ġbuild": 1239,
      "Ġgovernment": 1240,
      "Ġ..": 1241,
      "Ġallow": 1242,
      "cess": 1243,
      "Ġtri": 1244,
      "Ġgiv": 1245,
      "Ġ25": 1246,
      "Ġleft": 1247,
      "Ġincre": 1248,
      "Ġ30": 1249,
      "ery": 1250,
      "Ġwithin": 1251,
      "Ġri": 1252,
      "ball": 1253,
      "Ġstorm": 1254,
      "Ġdescribed": 1255,
      "Ġ...": 1256,
      "ically": 1257,
      "ideo": 1258,
      "ĠGu": 1259,
      "ody": 1260,
      "ĠMan": 1261,
      "Ġincluded": 1262,
      "aim": 1263,
      "dom": 1264,
      "Ġmuch": 1265,
      "Ġattempt": 1266,
      "Ġrest": 1267,
      "Ġwrote": 1268,
      "ĠYork": 1269,
      "Ġmen": 1270,
      "ctions": 1271,
      "ĠNove": 1272,
      "ĠJap": 1273,
      "Ġappro": 1274,
      "ĠGerman": 1275,
      "ĠJapan": 1276,
      "Ġdeath": 1277,
      "ble": 1278,
      "ility": 1279,
      "ĠCan": 1280,
      "Ġanother": 1281,
      "Ġresp": 1282,
      "ĠJanuary": 1283,
      "gin": 1284,
      "Ġmar": 1285,
      "Ġalthough": 1286,
      "iod": 1287,
      "ages": 1288,
      "ants": 1289,
      "Ġplace": 1290,
      "Ġresult": 1291,
      "Ġturn": 1292,
      "Ġsingle": 1293,
      "Ġnamed": 1294,
      "Ġold": 1295,
      "Ġvers": 1296,
      "erv": 1297,
      "Ġtop": 1298,
      "urther": 1299,
      "Ġbook": 1300,
      "Ġeven": 1301,
      "ĠNovember": 1302,
      "iversity": 1303,
      "ĠTr": 1304,
      "Ġprevious": 1305,
      "ina": 1306,
      "ĠThere": 1307,
      "ently": 1308,
      "Ġbased": 1309,
      "Ġestab": 1310,
      "ital": 1311,
      "ĠNational": 1312,
      "Ġref": 1313,
      "ĠBatt": 1314,
      "Ġposs": 1315,
      "Ġhome": 1316,
      "Ġorgan": 1317,
      "ĠMarch": 1318,
      "by": 1319,
      "omin": 1320,
      "Ġconstru": 1321,
      "ĠKing": 1322,
      "Ġpower": 1323,
      "ĠApr": 1324,
      "Ġprog": 1325,
      "Ġbuilt": 1326,
      "Ġdiffer": 1327,
      "ĠApril": 1328,
      "Ġway": 1329,
      "Ġspecies": 1330,
      "Ġif": 1331,
      "Ġconf": 1332,
      "Ġkill": 1333,
      "Ġcommand": 1334,
      "Ġevent": 1335,
      "Ġworld": 1336,
      "ling": 1337,
      "itary": 1338,
      "raft": 1339,
      "ole": 1340,
      "akes": 1341,
      "Ġshort": 1342,
      "ner": 1343,
      "rench": 1344,
      "get": 1345,
      "Ġperson": 1346,
      "cember": 1347,
      "ĠDecember": 1348,
      "ax": 1349,
      "Ġvery": 1350,
      "ĠPro": 1351,
      "ops": 1352,
      "Ġchild": 1353,
      "ĠEuro": 1354,
      "Ġrequ": 1355,
      "Ġlit": 1356,
      "Ġthose": 1357,
      "ĠCity": 1358,
      "Ġgames": 1359,
      "Ġstar": 1360,
      "ĠGr": 1361,
      "ience": 1362,
      "ances": 1363,
      "Ġthird": 1364,
      "Ġperiod": 1365,
      "ĠPh": 1366,
      "Ġfamily": 1367,
      "ached": 1368,
      "Ġ192": 1369,
      "Ġmoved": 1370,
      "ched": 1371,
      "ides": 1372,
      "Ġsl": 1373,
      "ĠBy": 1374,
      "ĠRiver": 1375,
      "ĠFrench": 1376,
      "Ġeng": 1377,
      "ĠEngland": 1378,
      "ism": 1379,
      "Ġ100": 1380,
      "Ġvideo": 1381,
      "Ġexpl": 1382,
      "Ġtrack": 1383,
      "Ġbelie": 1384,
      "Ġcame": 1385,
      "Ġhand": 1386,
      "ĠNo": 1387,
      "hel": 1388,
      "ret": 1389,
      "Ġschool": 1390,
      "Ġcour": 1391,
      "ĠMus": 1392,
      "Ġvis": 1393,
      "ature": 1394,
      "ards": 1395,
      "ript": 1396,
      "Ġfew": 1397,
      "ĠHis": 1398,
      "ĠWhen": 1399,
      "Ġnext": 1400,
      "Ġpar": 1401,
      "ulation": 1402,
      "Ġcolle": 1403,
      "oci": 1404,
      "Ġhal": 1405,
      "Ġmonth": 1406,
      "Ġwater": 1407,
      "Ġdest": 1408,
      "Ġhum": 1409,
      "Ġlist": 1410,
      "hest": 1411,
      "eder": 1412,
      "Ġbest": 1413,
      "ilar": 1414,
      "idge": 1415,
      "ĠEurope": 1416,
      "Ġmed": 1417,
      "Ġrepl": 1418,
      "Ġ2009": 1419,
      "Ġlocal": 1420,
      "Ġaddition": 1421,
      "ĠQ": 1422,
      "Ã©": 1423,
      "Ġsent": 1424,
      "ene": 1425,
      "ĠAnd": 1426,
      "aken": 1427,
      "Ġcapt": 1428,
      "ĠÂ": 1429,
      "Ġside": 1430,
      "Ġprote": 1431,
      "Ġpri": 1432,
      "Ġled": 1433,
      "Ġview": 1434,
      "Ġsold": 1435,
      "Ġreview": 1436,
      "uss": 1437,
      "por": 1438,
      "val": 1439,
      "Ġopp": 1440,
      "Ġwind": 1441,
      "pend": 1442,
      "ives": 1443,
      "Ġroad": 1444,
      "Ġiss": 1445,
      "ĠChurch": 1446,
      "self": 1447,
      "ense": 1448,
      "ĠPar": 1449,
      "ĠGe": 1450,
      "Ġcr": 1451,
      "ĠSp": 1452,
      "Ġ2008": 1453,
      "ison": 1454,
      "Ġ2010": 1455,
      "read": 1456,
      "astern": 1457,
      "Ġmake": 1458,
      "Ġrole": 1459,
      "ger": 1460,
      "Ġpresent": 1461,
      "Ġstand": 1462,
      "Ġtown": 1463,
      "Ġoriginal": 1464,
      "Ġdem": 1465,
      "Ġformer": 1466,
      "ese": 1467,
      "ograp": 1468,
      "Ġauth": 1469,
      "Ġmemb": 1470,
      "Ġcontinued": 1471,
      "Ġcaus": 1472,
      "ences": 1473,
      "Ġmark": 1474,
      "aff": 1475,
      "urric": 1476,
      "Ġstill": 1477,
      "ĠDivision": 1478,
      "side": 1479,
      "Ġwest": 1480,
      "Ġeast": 1481,
      "Ġeffect": 1482,
      "Ġtro": 1483,
      "Ġclaim": 1484,
      "ĠWill": 1485,
      "ont": 1486,
      "Ġfurther": 1487,
      "Ġhistory": 1488,
      "ories": 1489,
      "ĠBo": 1490,
      "Ġright": 1491,
      "Ġleg": 1492,
      "Ġbas": 1493,
      "Ġmid": 1494,
      "Ġgreat": 1495,
      "Ġheld": 1496,
      "ĠWe": 1497,
      "Ġstory": 1498,
      "uted": 1499,
      "Ġdefe": 1500,
      "ged": 1501,
      "ined": 1502,
      "Ġoften": 1503,
      "Ġforces": 1504,
      "ensive": 1505,
      "lev": 1506,
      "Ġexper": 1507,
      "Ġamong": 1508,
      "Ġmove": 1509,
      "Ġsug": 1510,
      "Ġstrong": 1511,
      "ĠState": 1512,
      "ĠComp": 1513,
      "aur": 1514,
      "ĠEar": 1515,
      "rew": 1516,
      "aster": 1517,
      "roy": 1518,
      "Ġ2007": 1519,
      "gy": 1520,
      "ik": 1521,
      "Ġrefer": 1522,
      "Ġdays": 1523,
      "Ġcover": 1524,
      "ĠWith": 1525,
      "Ġclub": 1526,
      "Ġinfl": 1527,
      "Ġmy": 1528,
      "elt": 1529,
      "Ġtropical": 1530,
      "Ġarch": 1531,
      "Ġcareer": 1532,
      "Ġplayer": 1533,
      "Ġconsidered": 1534,
      "ĠGener": 1535,
      "Ġtake": 1536,
      "Ġ21": 1537,
      "Ġinit": 1538,
      "Ġ23": 1539,
      "Ġdeb": 1540,
      "Ġyou": 1541,
      "Ġimport": 1542,
      "Ġbre": 1543,
      "Ġnort": 1544,
      "amb": 1545,
      "iment": 1546,
      "ott": 1547,
      "ront": 1548,
      "Ġmilitary": 1549,
      "ternational": 1550,
      "Ġcontr": 1551,
      "Ġjoin": 1552,
      "tended": 1553,
      "Ġreal": 1554,
      "ĠOr": 1555,
      "bru": 1556,
      "Ġwithout": 1557,
      "ampions": 1558,
      "par": 1559,
      "Ġsay": 1560,
      "Ġtrad": 1561,
      "Ġmembers": 1562,
      "Ġsuggest": 1563,
      "arr": 1564,
      "let": 1565,
      "Ġ24": 1566,
      "ĠPe": 1567,
      "ead": 1568,
      "atter": 1569,
      "Ġcompany": 1570,
      "Ġcommun": 1571,
      "Ġmatch": 1572,
      "Ġhalf": 1573,
      "Ġtem": 1574,
      "estern": 1575,
      "ĠAcc": 1576,
      "ham": 1577,
      "ior": 1578,
      "Ġband": 1579,
      "Ġtot": 1580,
      "Ġevery": 1581,
      "que": 1582,
      "Ġ2011": 1583,
      "Ġinvol": 1584,
      "alion": 1585,
      "Ġserv": 1586,
      "Ġships": 1587,
      "Ġ2012": 1588,
      "Ġsimilar": 1589,
      "ĠFebru": 1590,
      "ĠFebruary": 1591,
      "Ġplan": 1592,
      "Ġbeh": 1593,
      "Ġrecorded": 1594,
      "Ġes": 1595,
      "Ġfire": 1596,
      "ĠMc": 1597,
      "Ġorder": 1598,
      "ness": 1599,
      "ried": 1600,
      "Ġlevel": 1601,
      "ls": 1602,
      "ae": 1603,
      "Ġtitle": 1604,
      "ps": 1605,
      "Ġft": 1606,
      "Ġfind": 1607,
      "Ġpolit": 1608,
      "Ġdifferent": 1609,
      "pite": 1610,
      "Ġtw": 1611,
      "Ġph": 1612,
      "ĠOne": 1613,
      "alk": 1614,
      "Ġ22": 1615,
      "ĠChar": 1616,
      "ĠEnglish": 1617,
      "ler": 1618,
      "Ġhowever": 1619,
      "ĠFl": 1620,
      "riend": 1621,
      "ĠSte": 1622,
      "urricane": 1623,
      "ĠAccording": 1624,
      "Ġ2006": 1625,
      "ression": 1626,
      "thing": 1627,
      "ĠGeneral": 1628,
      "Ġsit": 1629,
      "itar": 1630,
      "Ġpost": 1631,
      "ĠPr": 1632,
      "ister": 1633,
      "ĠEd": 1634,
      "resent": 1635,
      "bert": 1636,
      "ĠAlthough": 1637,
      "ĠUniversity": 1638,
      "Ġsongs": 1639,
      "Ġlow": 1640,
      "ĠAf": 1641,
      "Ġant": 1642,
      "Ġpublished": 1643,
      "Ġfr": 1644,
      "outher": 1645,
      "outhern": 1646,
      "Ġcommon": 1647,
      "Ġprop": 1648,
      "ung": 1649,
      "Ġfield": 1650,
      "mp": 1651,
      "ument": 1652,
      "Ġwritten": 1653,
      "me": 1654,
      "hern": 1655,
      "Ġ26": 1656,
      "Ġvict": 1657,
      "Ġarri": 1658,
      "Ġpat": 1659,
      "ĠAustralian": 1660,
      "ĠAustralia": 1661,
      "ne": 1662,
      "eng": 1663,
      "Ġla": 1664,
      "Ġlost": 1665,
      "ĠBro": 1666,
      "ailed": 1667,
      "ention": 1668,
      "ĠCount": 1669,
      "Ġversion": 1670,
      "oon": 1671,
      "yle": 1672,
      "Ġ!": 1673,
      "Ġcur": 1674,
      "rodu": 1675,
      "Ġdecl": 1676,
      "Ġbecome": 1677,
      "Ġproduced": 1678,
      "ĠRoman": 1679,
      "ches": 1680,
      "Ġfore": 1681,
      "Ġfoot": 1682,
      "Ġdel": 1683,
      "Ġord": 1684,
      "ĠAng": 1685,
      "reen": 1686,
      "Ġrelease": 1687,
      "bs": 1688,
      "Ġmag": 1689,
      "lear": 1690,
      "Ġtimes": 1691,
      "Ġav": 1692,
      "Ġgave": 1693,
      "levision": 1694,
      "ĠPort": 1695,
      "be": 1696,
      "Ġstat": 1697,
      "Ġcompet": 1698,
      "ai": 1699,
      "Ġhour": 1700,
      "Ġinflu": 1701,
      "Ġsignific": 1702,
      "ots": 1703,
      "quad": 1704,
      "Ġreturned": 1705,
      "Ġparticular": 1706,
      "ĠMin": 1707,
      "Ġreported": 1708,
      "ĠCanad": 1709,
      "craft": 1710,
      "Ġsite": 1711,
      "sequ": 1712,
      "Ġdirect": 1713,
      "arch": 1714,
      "aly": 1715,
      "Ġcomb": 1716,
      "Ġauthor": 1717,
      "reet": 1718,
      "Ġproject": 1719,
      "Ġless": 1720,
      "itions": 1721,
      "Ġdestroy": 1722,
      "Ġtotal": 1723,
      "ĠAir": 1724,
      "Ġ27": 1725,
      "ĠRich": 1726,
      "Ġpoint": 1727,
      "aul": 1728,
      "Ġmaking": 1729,
      "Ġinclude": 1730,
      "Ġgiven": 1731,
      "Ġhaving": 1732,
      "Ġchang": 1733,
      "Ġarm": 1734,
      "ĠWilliam": 1735,
      "ering": 1736,
      "ones": 1737,
      "Ġwant": 1738,
      "iety": 1739,
      "ĠAfric": 1740,
      "ĠThese": 1741,
      "urs": 1742,
      "Ġhistor": 1743,
      "stit": 1744,
      "omet": 1745,
      "ov": 1746,
      "Ġnight": 1747,
      "Ġseen": 1748,
      "Ġcountry": 1749,
      "ĠCent": 1750,
      "pec": 1751,
      "fic": 1752,
      "ĠMich": 1753,
      "osp": 1754,
      "Ġproduction": 1755,
      "Ġcontrol": 1756,
      "rest": 1757,
      "ream": 1758,
      "Ġ28": 1759,
      "Ġpress": 1760,
      "Ġground": 1761,
      "Ġyoun": 1762,
      "Ġnever": 1763,
      "ĠLeague": 1764,
      "ampionship": 1765,
      "Ġchurch": 1766,
      "rent": 1767,
      "Ġstruct": 1768,
      "arn": 1769,
      "ĠSong": 1770,
      "ĠRoad": 1771,
      "Ġlight": 1772,
      "ĠDes": 1773,
      "Ġacross": 1774,
      "Ġdeveloped": 1775,
      "Ġmiles": 1776,
      "Ġobs": 1777,
      "ape": 1778,
      "enc": 1779,
      "Ġdr": 1780,
      "Ġpopular": 1781,
      "ĠGeor": 1782,
      "Ġdet": 1783,
      "aces": 1784,
      "ĠPark": 1785,
      "Ġprof": 1786,
      "ively": 1787,
      "Ġfre": 1788,
      "ĠX": 1789,
      "ploy": 1790,
      "Ġequ": 1791,
      "ĠAmerica": 1792,
      "Ġrepresent": 1793,
      "line": 1794,
      "ices": 1795,
      "chn": 1796,
      "ĠPer": 1797,
      "ĠMiss": 1798,
      "ĠScient": 1799,
      "Ġread": 1800,
      "Ġeight": 1801,
      "aign": 1802,
      "Ġaff": 1803,
      "used": 1804,
      "Ġreached": 1805,
      "ĠSim": 1806,
      "ably": 1807,
      "Ġ2013": 1808,
      "ize": 1809,
      "ĠAb": 1810,
      "Ġusing": 1811,
      "ĠWhile": 1812,
      "Ġ&": 1813,
      "ivil": 1814,
      "Ġhimself": 1815,
      "lished": 1816,
      "sh": 1817,
      "Ġforce": 1818,
      "iving": 1819,
      "Ġshould": 1820,
      "Ġsignificant": 1821,
      "Ġfar": 1822,
      "ĠWest": 1823,
      "Ġearl": 1824,
      "ĠAm": 1825,
      "reek": 1826,
      "Ġprogram": 1827,
      "Ġsol": 1828,
      "antry": 1829,
      "Ġcritic": 1830,
      "ground": 1831,
      "Ġsound": 1832,
      "Ġbody": 1833,
      "Ġ50": 1834,
      "ĠAss": 1835,
      "ĠJapanese": 1836,
      "Ġpain": 1837,
      "Ġisland": 1838,
      "most": 1839,
      "Ġcross": 1840,
      "ĠJack": 1841,
      "inc": 1842,
      "Ġtoo": 1843,
      "play": 1844,
      "ask": 1845,
      "Ġstated": 1846,
      "aves": 1847,
      "Ġestablished": 1848,
      "raw": 1849,
      "Ġformed": 1850,
      "Ġguns": 1851,
      "Ġchildren": 1852,
      "na": 1853,
      "iron": 1854,
      "Ġactiv": 1855,
      "Ġlim": 1856,
      "Ġareas": 1857,
      "Ġpopulation": 1858,
      "ither": 1859,
      "Ġfact": 1860,
      "Ġ190": 1861,
      "Ġdiscover": 1862,
      "Ġmm": 1863,
      "augh": 1864,
      "Ġfront": 1865,
      "Ġthroughout": 1866,
      "Ġsuccessful": 1867,
      "Ġaway": 1868,
      "imately": 1869,
      "Ġintrodu": 1870,
      "Ġannoun": 1871,
      "ĠRoy": 1872,
      "Ġmodern": 1873,
      "Ġcast": 1874,
      "Ġfull": 1875,
      "ising": 1876,
      "ĠBar": 1877,
      "Ġ29": 1878,
      "ĠPol": 1879,
      "ĠLond": 1880,
      "Ġlocated": 1881,
      "Ġdevelopment": 1882,
      "ĠLondon": 1883,
      "Ġlaw": 1884,
      "Ġsuff": 1885,
      "Ġbattle": 1886,
      "ĠReg": 1887,
      "atic": 1888,
      "Ġseven": 1889,
      "Ġdiv": 1890,
      "ration": 1891,
      "Ġwent": 1892,
      "Ġdied": 1893,
      "Ġnoted": 1894,
      "Ġclose": 1895,
      "ological": 1896,
      "Ġentire": 1897,
      "Ġthought": 1898,
      "Ġhig": 1899,
      "con": 1900,
      "ox": 1901,
      "Ġide": 1902,
      "Ġste": 1903,
      "isted": 1904,
      "Ġmanag": 1905,
      "Ġsk": 1906,
      "Ġhow": 1907,
      "Ġnove": 1908,
      "utes": 1909,
      "Ġsee": 1910,
      "Ġpoem": 1911,
      "Ġgen": 1912,
      "ĠHigh": 1913,
      "ĠOld": 1914,
      "Ġtelevision": 1915,
      "ublic": 1916,
      "Ġwriting": 1917,
      "iers": 1918,
      "Ġcy": 1919,
      "Ġconstruction": 1920,
      "Ġhuman": 1921,
      "Ġimportant": 1922,
      "omb": 1923,
      "rick": 1924,
      "ĠArmy": 1925,
      "Ġsurv": 1926,
      "alth": 1927,
      "Ġofficial": 1928,
      "ges": 1929,
      "Ġmix": 1930,
      "Ġinterest": 1931,
      "nt": 1932,
      "Ġcult": 1933,
      "Ġel": 1934,
      "omen": 1935,
      "Ġgood": 1936,
      "idence": 1937,
      "Ġrange": 1938,
      "Ġprim": 1939,
      "Ġwat": 1940,
      "Ġfight": 1941,
      "ĠCare": 1942,
      "ope": 1943,
      "Ġfriend": 1944,
      "Ġpit": 1945,
      "Ġlook": 1946,
      "Ġstarted": 1947,
      "ico": 1948,
      "ĠDav": 1949,
      "ief": 1950,
      "Ġfeet": 1951,
      "Ġperformed": 1952,
      "ĠCompany": 1953,
      "Ġstyle": 1954,
      "Ġneed": 1955,
      "Ġcampaign": 1956,
      "ĠNe": 1957,
      "Ġchart": 1958,
      "Ġtroops": 1959,
      "ĠDyl": 1960,
      "Ġvarious": 1961,
      "Ġkilled": 1962,
      "ĠDylan": 1963,
      "Ġwide": 1964,
      "Ġcomplete": 1965,
      "ĠCounty": 1966,
      "ec": 1967,
      "ades": 1968,
      "Ġperformance": 1969,
      "Ġstri": 1970,
      "Ġrad": 1971,
      "Ġregion": 1972,
      "ĠPhil": 1973,
      "Ġfather": 1974,
      "isc": 1975,
      "tain": 1976,
      "Ġtour": 1977,
      "ĠJames": 1978,
      "ords": 1979,
      "Ġcaused": 1980,
      "Ġten": 1981,
      "Ġage": 1982,
      "Ġroute": 1983,
      "Ġtyp": 1984,
      "Ġbuilding": 1985,
      "ying": 1986,
      "reland": 1987,
      "itted": 1988,
      "Ġfelt": 1989,
      "Ġhouse": 1990,
      "ĠIreland": 1991,
      "ination": 1992,
      "Ġke": 1993,
      "Ġ31": 1994,
      "Ġplayers": 1995,
      "itive": 1996,
      "Ġcat": 1997,
      "Ġpra": 1998,
      "ĠSup": 1999,
      "Ġheavy": 2000,
      "Ġevents": 2001,
      "Ġpeak": 2002,
      "Ġput": 2003,
      "Ġ2005": 2004,
      "Ġhighway": 2005,
      "Ġrelig": 2006,
      "Ġdri": 2007,
      "ĠYou": 2008,
      "br": 2009,
      "fall": 2010,
      "asing": 2011,
      "Ġnational": 2012,
      "igade": 2013,
      "ĠFeder": 2014,
      "Ġfollowed": 2015,
      "Ġcoast": 2016,
      "Ġdoes": 2017,
      "af": 2018,
      "ĠSec": 2019,
      "work": 2020,
      "Ġtechn": 2021,
      "ĠTo": 2022,
      "ster": 2023,
      "ĠRou": 2024,
      "ĠIsland": 2025,
      "ĠBlack": 2026,
      "ush": 2027,
      "Ġwhite": 2028,
      "Ġmeet": 2029,
      "ĠScientology": 2030,
      "Ġcor": 2031,
      "Ġfem": 2032,
      "ĠHist": 2033,
      "Ġ189": 2034,
      "ressed": 2035,
      "ĠAtl": 2036,
      "Ġcompleted": 2037,
      "Ġdamage": 2038,
      "Ġable": 2039,
      "Ġdiffic": 2040,
      "Ġdifficult": 2041,
      "iness": 2042,
      "acy": 2043,
      "Ġbegin": 2044,
      "Ġget": 2045,
      "Ġvill": 2046,
      "ogn": 2047,
      "Ġassoci": 2048,
      "Ġmonths": 2049,
      "Ġleast": 2050,
      "ought": 2051,
      "Ġothers": 2052,
      "reg": 2053,
      "ator": 2054,
      "Ġeastern": 2055,
      "ĠBattalion": 2056,
      "Ġtre": 2057,
      "enced": 2058,
      "Ġball": 2059,
      "Ġlo": 2060,
      "irc": 2061,
      "ĠâĢĻ": 2062,
      "Ġ2003": 2063,
      "Ġagre": 2064,
      "lo": 2065,
      "Ġche": 2066,
      "Ġserved": 2067,
      "Ġremained": 2068,
      "ping": 2069,
      "Ġsoc": 2070,
      "Ġsouthern": 2071,
      "ĠEl": 2072,
      "ivid": 2073,
      "ourn": 2074,
      "Ġtrave": 2075,
      "leet": 2076,
      "ĠSome": 2077,
      "rought": 2078,
      "Ġcou": 2079,
      "Ġfav": 2080,
      "Ġmi": 2081,
      "ĠCor": 2082,
      "antic": 2083,
      "ring": 2084,
      "yn": 2085,
      "Ġbar": 2086,
      "Ġonce": 2087,
      "Ġprot": 2088,
      "abor": 2089,
      "Ġestim": 2090,
      "uck": 2091,
      "Ġve": 2092,
      "Ġcas": 2093,
      "Ġfac": 2094,
      "Ġprocess": 2095,
      "Ġappeared": 2096,
      "Ġpromot": 2097,
      "Ġfig": 2098,
      "ald": 2099,
      "Ġworks": 2100,
      "Ġbehind": 2101,
      "Ġrank": 2102,
      "Ġrelations": 2103,
      "Ġcreated": 2104,
      "Ġcert": 2105,
      "Ġblack": 2106,
      "Ġaircraft": 2107,
      "Ġredu": 2108,
      "Ġloss": 2109,
      "Ġ40": 2110,
      "Ġadded": 2111,
      "Ġpolitical": 2112,
      "Ġhold": 2113,
      "Ġred": 2114,
      "Ġbecom": 2115,
      "ected": 2116,
      "ization": 2117,
      "Ġoriginally": 2118,
      "epend": 2119,
      "Ġgod": 2120,
      "ries": 2121,
      "Ġknow": 2122,
      "Ġer": 2123,
      "Ġcoun": 2124,
      "Ġbase": 2125,
      "ĠTown": 2126,
      "ament": 2127,
      "Ġcharacters": 2128,
      "ĠRoute": 2129,
      "ĠHa": 2130,
      "ĠKe": 2131,
      "Ġbroad": 2132,
      "ĠMex": 2133,
      "ĠMor": 2134,
      "Ġ2004": 2135,
      "ample": 2136,
      "Ġoccur": 2137,
      "bo": 2138,
      "ique": 2139,
      "Ġcond": 2140,
      "ipp": 2141,
      "Ġ188": 2142,
      "Ġspecial": 2143,
      "Ġlittle": 2144,
      "ĠRoyal": 2145,
      "ford": 2146,
      "ĠGl": 2147,
      "Ġson": 2148,
      "Ġfif": 2149,
      "Ġlet": 2150,
      "Ġ2015": 2151,
      "heast": 2152,
      "Ġborn": 2153,
      "ĠBut": 2154,
      "ael": 2155,
      "Ġbus": 2156,
      "Ġpred": 2157,
      "Ġappoin": 2158,
      "oice": 2159,
      "Ġident": 2160,
      "here": 2161,
      "Ġsaw": 2162,
      "ĠTwo": 2163,
      "rie": 2164,
      "ĠEx": 2165,
      "Ġrock": 2166,
      "Ġfeatures": 2167,
      "Ġinstead": 2168,
      "ĠCarey": 2169,
      "Ġaver": 2170,
      "ĠSan": 2171,
      "ota": 2172,
      "Ġcomment": 2173,
      "ĠCal": 2174,
      "Ġcritics": 2175,
      "Ġalmost": 2176,
      "emy": 2177,
      "Ġnovel": 2178,
      "Ġtradition": 2179,
      "Ġaction": 2180,
      "Ġaward": 2181,
      "Ġsum": 2182,
      "iting": 2183,
      "Ġmor": 2184,
      "Ġlive": 2185,
      "ĠOther": 2186,
      "Ġproduc": 2187,
      "day": 2188,
      "Ġtaken": 2189,
      "Ġsepar": 2190,
      "Ġround": 2191,
      "Ġfourth": 2192,
      "Ġdecided": 2193,
      "Ġrecogn": 2194,
      "Ġgrow": 2195,
      "Ġannounced": 2196,
      "ĠSy": 2197,
      "ĠCo": 2198,
      "ĠPal": 2199,
      "ĠEast": 2200,
      "aching": 2201,
      "ountain": 2202,
      "ĠRec": 2203,
      "Ġoperations": 2204,
      "Äģ": 2205,
      "Ġwall": 2206,
      "Ġlaun": 2207,
      "ray": 2208,
      "lect": 2209,
      "Ġlack": 2210,
      "ĠHam": 2211,
      "Ġcommer": 2212,
      "Ġvoc": 2213,
      "Ġservice": 2214,
      "gr": 2215,
      "ĠSom": 2216,
      "ĠWales": 2217,
      "Ġ186": 2218,
      "Ġindivid": 2219,
      "medi": 2220,
      "ĠKingdom": 2221,
      "au": 2222,
      "dle": 2223,
      "Ġaud": 2224,
      "Ġgl": 2225,
      "quadron": 2226,
      "Ġwife": 2227,
      "ĠMag": 2228,
      "olution": 2229,
      "ĠStreet": 2230,
      "ĠRep": 2231,
      "Ġtest": 2232,
      "Ġfun": 2233,
      "Ġbird": 2234,
      "Ġrev": 2235,
      "Ġstage": 2236,
      "Ġproble": 2237,
      "igned": 2238,
      "Ġtowards": 2239,
      "Ġmember": 2240,
      "Ġfort": 2241,
      "angu": 2242,
      "Ġeventually": 2243,
      "Ġcirc": 2244,
      "Ġmass": 2245,
      "ĠCro": 2246,
      "ĠMon": 2247,
      "ival": 2248,
      "Ġ185": 2249,
      "Ġriver": 2250,
      "field": 2251,
      "mar": 2252,
      "west": 2253,
      "ality": 2254,
      "Ġreb": 2255,
      "urb": 2256,
      "Ġfinished": 2257,
      "azine": 2258,
      "ĠDavid": 2259,
      "ned": 2260,
      "Ġsw": 2261,
      "Ġmiss": 2262,
      "Ġstars": 2263,
      "illa": 2264,
      "rict": 2265,
      "Ġsubsequ": 2266,
      "Ġnorthern": 2267,
      "ĠHar": 2268,
      "Ġaccom": 2269,
      "Ġfeatured": 2270,
      "ĠMusic": 2271,
      "Ġmother": 2272,
      "ĠSo": 2273,
      "Ġarg": 2274,
      "Ġmetres": 2275,
      "Ġprofess": 2276,
      "cil": 2277,
      "int": 2278,
      "Ġbrought": 2279,
      "Ġask": 2280,
      "Ġval": 2281,
      "ĠChampionship": 2282,
      "Ġrespons": 2283,
      "Ġcase": 2284,
      "Ġfall": 2285,
      "Ġhurricane": 2286,
      "ille": 2287,
      "Ġeither": 2288,
      "aper": 2289,
      "artment": 2290,
      "Ġrespect": 2291,
      "Ġlargest": 2292,
      "ĠFrance": 2293,
      "Ġhours": 2294,
      "inal": 2295,
      "orse": 2296,
      "Ġhit": 2297,
      "ceed": 2298,
      "Ġexc": 2299,
      "Ġaccept": 2300,
      "Ġcrew": 2301,
      "Ġhelp": 2302,
      "Ġyoung": 2303,
      "ency": 2304,
      "Ġce": 2305,
      "Ġhost": 2306,
      "ĠPres": 2307,
      "Ġanim": 2308,
      "Ġsuper": 2309,
      "Ġplaced": 2310,
      "Ġcentral": 2311,
      "Ġregular": 2312,
      "Ġweeks": 2313,
      "Ġcurrent": 2314,
      "Ġdou": 2315,
      "ĠSw": 2316,
      "ĠHill": 2317,
      "ĠDay": 2318,
      "Ġsex": 2319,
      "Ġscored": 2320,
      "Ġindic": 2321,
      "cial": 2322,
      "eal": 2323,
      "Ġmater": 2324,
      "ĠMer": 2325,
      "ĠBill": 2326,
      "ĠFrom": 2327,
      "Ġupon": 2328,
      "ĠGerm": 2329,
      "Ġgoal": 2330,
      "Ġeffort": 2331,
      "hys": 2332,
      "off": 2333,
      "Ġburn": 2334,
      "ĠCup": 2335,
      "ĠPaul": 2336,
      "ĠFollow": 2337,
      "ĠNavy": 2338,
      "osaur": 2339,
      "Ġrather": 2340,
      "ĠSer": 2341,
      "osing": 2342,
      "Ġprob": 2343,
      "ĠRobert": 2344,
      "Ġprovided": 2345,
      "ĠCommand": 2346,
      "Ġimpro": 2347,
      "ĠFollowing": 2348,
      "cher": 2349,
      "Ã¡": 2350,
      "Ġcost": 2351,
      "ington": 2352,
      "Ġwinds": 2353,
      "conom": 2354,
      "Ġrelationship": 2355,
      "Ġtoget": 2356,
      "Ġnon": 2357,
      "ully": 2358,
      "Ġallowed": 2359,
      "Ġtogether": 2360,
      "Ġver": 2361,
      "Ġcut": 2362,
      "asion": 2363,
      "stant": 2364,
      "ĠMad": 2365,
      "odes": 2366,
      "Ġvol": 2367,
      "Ġenc": 2368,
      "ception": 2369,
      "Ġappearance": 2370,
      "uation": 2371,
      "Ġnuc": 2372,
      "Ġbeg": 2373,
      "ĠInternational": 2374,
      "Ġplaying": 2375,
      "Ġremo": 2376,
      "Ġelements": 2377,
      "anned": 2378,
      "ĠGrand": 2379,
      "ĠDu": 2380,
      "Ġexample": 2381,
      "Ġ35": 2382,
      "Ġinvest": 2383,
      "Ġdirected": 2384,
      "ĠIndian": 2385,
      "ĠBest": 2386,
      "Ġcoll": 2387,
      "Ġindust": 2388,
      "Ġleading": 2389,
      "Ġopened": 2390,
      "Ġpoints": 2391,
      "mb": 2392,
      "Ġcreat": 2393,
      "Ġbur": 2394,
      "Ġstren": 2395,
      "ways": 2396,
      "Ġdefend": 2397,
      "Ġcourt": 2398,
      "Ġinvolved": 2399,
      "ĠBer": 2400,
      "ĠJew": 2401,
      "Ġra": 2402,
      "Ġrul": 2403,
      "Ġking": 2404,
      "Ġshot": 2405,
      "Ġ500": 2406,
      "hic": 2407,
      "ĠLove": 2408,
      "Ġgeneral": 2409,
      "Ġpreviously": 2410,
      "Ġreplaced": 2411,
      "cast": 2412,
      "Ġfree": 2413,
      "Ġreve": 2414,
      "chie": 2415,
      "Ġpoet": 2416,
      "Ġbelieved": 2417,
      "Ġwomen": 2418,
      "Ġcell": 2419,
      "Ġlangu": 2420,
      "Ġcondu": 2421,
      "ĠFirst": 2422,
      "ĠOl": 2423,
      "ĠOff": 2424,
      "Ġintens": 2425,
      "Ġpract": 2426,
      "Ġelect": 2427,
      "Ġstreng": 2428,
      "arter": 2429,
      "Ġmph": 2430,
      "oll": 2431,
      "Ġsequ": 2432,
      "Ġdeter": 2433,
      "ĠGod": 2434,
      "Ġremains": 2435,
      "Ġmeas": 2436,
      "Ġopening": 2437,
      "Ġunits": 2438,
      "ĠHen": 2439,
      "Ġcondom": 2440,
      "Ġoutside": 2441,
      "Ġevidence": 2442,
      "Ġdirector": 2443,
      "Ġavail": 2444,
      "Ġwanted": 2445,
      "Ġearlier": 2446,
      "ius": 2447,
      "Ġmot": 2448,
      "Ġ2014": 2449,
      "ĠDep": 2450,
      "eum": 2451,
      "ÃŃ": 2452,
      "Ġiron": 2453,
      "Ġconv": 2454,
      "ĠInf": 2455,
      "Ġcivil": 2456,
      "Ġseem": 2457,
      "ĠGame": 2458,
      "ude": 2459,
      "Ġ2001": 2460,
      "Ġworked": 2461,
      "iction": 2462,
      "Ġdesigned": 2463,
      "ĠBattle": 2464,
      "ĠAngel": 2465,
      "Ġey": 2466,
      "Ġever": 2467,
      "ĠMed": 2468,
      "aval": 2469,
      "action": 2470,
      "Ġworking": 2471,
      "ĠChristian": 2472,
      "Ġvictory": 2473,
      "Ġparticularly": 2474,
      "ĠGeorge": 2475,
      "liam": 2476,
      "Ġhon": 2477,
      "ĠHouse": 2478,
      "ishing": 2479,
      "Ġtransfer": 2480,
      "Ġgenerally": 2481,
      "ĠMexico": 2482,
      "thod": 2483,
      "ĠPart": 2484,
      "Ġnews": 2485,
      "Ġ1970": 2486,
      "rang": 2487,
      "Ġsour": 2488,
      "Ġinform": 2489,
      "ĠLater": 2490,
      "aps": 2491,
      "ĠChines": 2492,
      "ĠViet": 2493,
      "ĠThom": 2494,
      "Ġscene": 2495,
      "ography": 2496,
      "ĠChinese": 2497,
      "Ġthink": 2498,
      "ports": 2499,
      "ĠBritain": 2500,
      "Ġpossible": 2501,
      "Ġwood": 2502,
      "nder": 2503,
      "ights": 2504,
      "Ġmean": 2505,
      "Ġemb": 2506,
      "ĠEuropean": 2507,
      "ĠÂ°": 2508,
      "Ġordered": 2509,
      "cript": 2510,
      "Ġachie": 2511,
      "ĠCr": 2512,
      "Ġquick": 2513,
      "Ġarrived": 2514,
      "liament": 2515,
      "com": 2516,
      "uel": 2517,
      "erous": 2518,
      "ĠMost": 2519,
      "ĠHall": 2520,
      "ĠEv": 2521,
      "Ġneg": 2522,
      "Ġterrit": 2523,
      "ĠAtlantic": 2524,
      "Ġestimated": 2525,
      "Ġmaterial": 2526,
      "Ġslow": 2527,
      "ania": 2528,
      "Ġhy": 2529,
      "osition": 2530,
      "Ġcenter": 2531,
      "Ġjoined": 2532,
      "ĠRepublic": 2533,
      "iber": 2534,
      "rated": 2535,
      "ule": 2536,
      "Ġclear": 2537,
      "ential": 2538,
      "Ġnine": 2539,
      "Ġnomin": 2540,
      "ĠCap": 2541,
      "Ġstation": 2542,
      "Ġyards": 2543,
      "clus": 2544,
      "Ġflood": 2545,
      "Ġemploy": 2546,
      "ĠBrigade": 2547,
      "ĠPresident": 2548,
      "cent": 2549,
      "Ġface": 2550,
      "ĠAct": 2551,
      "ĠMark": 2552,
      "ida": 2553,
      "ĠPac": 2554,
      "Ġexist": 2555,
      "ption": 2556,
      "Ġabove": 2557,
      "Ġengine": 2558,
      "ĠFlor": 2559,
      "Ġcycl": 2560,
      "nes": 2561,
      "Ġill": 2562,
      "head": 2563,
      "atin": 2564,
      "ators": 2565,
      "Ġpers": 2566,
      "Ġreason": 2567,
      "ĠAward": 2568,
      "ays": 2569,
      "umb": 2570,
      "board": 2571,
      "for": 2572,
      "ming": 2573,
      "oid": 2574,
      "Ġtreat": 2575,
      "erved": 2576,
      "oring": 2577,
      "ĠSm": 2578,
      "Ġleng": 2579,
      "ĠRock": 2580,
      "ĠWal": 2581,
      "Ġ2000": 2582,
      "ĠPlay": 2583,
      "ĠHero": 2584,
      "nel": 2585,
      "ĠRuss": 2586,
      "ellow": 2587,
      "Ġsurf": 2588,
      "Ġstudio": 2589,
      "Ġincreased": 2590,
      "Ġrequired": 2591,
      "ĠRichard": 2592,
      "Ġbusiness": 2593,
      "aut": 2594,
      "sel": 2595,
      "iter": 2596,
      "Ġfoc": 2597,
      "Ġpast": 2598,
      "Ġthreat": 2599,
      "ĠCreek": 2600,
      "Ġchange": 2601,
      "Ġdepression": 2602,
      "Ġfootball": 2603,
      "Ġavailable": 2604,
      "Ġtrib": 2605,
      "Ġfund": 2606,
      "anch": 2607,
      "emor": 2608,
      "ributed": 2609,
      "Ġsoon": 2610,
      "Ġsaying": 2611,
      "ault": 2612,
      "ze": 2613,
      "Ġcop": 2614,
      "Ġinj": 2615,
      "ĠIr": 2616,
      "app": 2617,
      "Ġ1990": 2618,
      "Ġstudy": 2619,
      "ĠEarly": 2620,
      "ĠDespite": 2621,
      "to": 2622,
      "ston": 2623,
      "Ġforced": 2624,
      "ĠBay": 2625,
      "aint": 2626,
      "Ġdeal": 2627,
      "Ġ187": 2628,
      "ĠScott": 2629,
      "ĠZeal": 2630,
      "Ġesc": 2631,
      "ĠZealand": 2632,
      "ĠIm": 2633,
      "Ġwhom": 2634,
      "elling": 2635,
      "ĠPacific": 2636,
      "ores": 2637,
      "ino": 2638,
      "Ġpie": 2639,
      "Ġdi": 2640,
      "etwork": 2641,
      "ĠEgy": 2642,
      "ĠVal": 2643,
      "Ġsigned": 2644,
      "Ġturned": 2645,
      "Ġmanager": 2646,
      "ĠFederer": 2647,
      "Ġcommercial": 2648,
      "Ġlength": 2649,
      "ĠEgypt": 2650,
      "AA": 2651,
      "tar": 2652,
      "Ġbill": 2653,
      "Ġlines": 2654,
      "ĠBus": 2655,
      "ĠKore": 2656,
      "Ġ45": 2657,
      "Ġimmedi": 2658,
      "Ġregard": 2659,
      "Ġinsp": 2660,
      "Ġcontract": 2661,
      "Ġaverage": 2662,
      "den": 2663,
      "uter": 2664,
      "ened": 2665,
      "Ġitself": 2666,
      "Ġclaimed": 2667,
      "Ġhighest": 2668,
      "ĠSchool": 2669,
      "Ġeconom": 2670,
      "ĠMy": 2671,
      "ĠRed": 2672,
      "Ġcome": 2673,
      "Ġexec": 2674,
      "ibility": 2675,
      "Ġprevent": 2676,
      "Ġdamaged": 2677,
      "ready": 2678,
      "Ġdefeated": 2679,
      "ximately": 2680,
      "atural": 2681,
      "Ġly": 2682,
      "ĠFort": 2683,
      "Ġdev": 2684,
      "Ġparts": 2685,
      "Ġ60": 2686,
      "ĠYear": 2687,
      "Ġassist": 2688,
      "ĠWhite": 2689,
      "Ġparticip": 2690,
      "ĠMichael": 2691,
      "Ġfemale": 2692,
      "oo": 2693,
      "ties": 2694,
      "wh": 2695,
      "ĠGreat": 2696,
      "ĠGovern": 2697,
      "Ġyard": 2698,
      "Ġdespite": 2699,
      "Ġtransport": 2700,
      "Ġestablish": 2701,
      "Ġstructure": 2702,
      "Ġappointed": 2703,
      "ĠFlorida": 2704,
      "Ġnames": 2705,
      "ama": 2706,
      "Ġheav": 2707,
      "Ġrain": 2708,
      "Ġpoor": 2709,
      "less": 2710,
      "Ġfailed": 2711,
      "Ġhard": 2712,
      "Ġren": 2713,
      "Ġ2002": 2714,
      "ĠUnion": 2715,
      "Ġaccount": 2716,
      "Ġincreasing": 2717,
      "porary": 2718,
      "Ġpraised": 2719,
      "Ġreligious": 2720,
      "Ġprobably": 2721,
      "ĠInfantry": 2722,
      "Ġpur": 2723,
      "Ġmach": 2724,
      "Ġdraw": 2725,
      "lected": 2726,
      "Ġlove": 2727,
      "Ġlatter": 2728,
      "Ġgive": 2729,
      "Ġforward": 2730,
      "ĠLa": 2731,
      "ĠEm": 2732,
      "anks": 2733,
      "Ġbrother": 2734,
      "ĠÂ£": 2735,
      "ĠCanada": 2736,
      "ĠAfrica": 2737,
      "Ġmult": 2738,
      "Ġrese": 2739,
      "ouri": 2740,
      "ĠMary": 2741,
      "Ġwithd": 2742,
      "anding": 2743,
      "Ġanc": 2744,
      "ĠOper": 2745,
      "Ġinitially": 2746,
      "Ġcommunity": 2747,
      "Ġtaking": 2748,
      "ata": 2749,
      "ana": 2750,
      "utive": 2751,
      "lled": 2752,
      "Ġoccup": 2753,
      "Ġpriv": 2754,
      "lic": 2755,
      "Ġhous": 2756,
      "ĠTimes": 2757,
      "Ġstop": 2758,
      "Ġstates": 2759,
      "Ġalready": 2760,
      "ĠOd": 2761,
      "Ġrap": 2762,
      "ounted": 2763,
      "Ġarmy": 2764,
      "Ġdiscovered": 2765,
      "Ġvillage": 2766,
      "arily": 2767,
      "Ġgold": 2768,
      "pected": 2769,
      "ession": 2770,
      "Ġinterview": 2771,
      "Ġcapital": 2772,
      "ĠIndia": 2773,
      "ĠSuper": 2774,
      "ĠHenry": 2775,
      "Ġ-": 2776,
      "Ġsomet": 2777,
      "Ġinternational": 2778,
      "thlet": 2779,
      "raz": 2780,
      "Ġdecision": 2781,
      "Ġobject": 2782,
      "ĠQue": 2783,
      "onse": 2784,
      "Ġwestern": 2785,
      "irth": 2786,
      "ĠDon": 2787,
      "Ġsection": 2788,
      "ĠTech": 2789,
      "ĠMissouri": 2790,
      "aded": 2791,
      "Ġconn": 2792,
      "Ġrace": 2793,
      "Ġproper": 2794,
      "Ġdiscuss": 2795,
      "Ġsupported": 2796,
      "Ġadditional": 2797,
      "Ġsoldiers": 2798,
      "Ġdebut": 2799,
      "go": 2800,
      "Ġfly": 2801,
      "Ġpen": 2802,
      "Ġdate": 2803,
      "ails": 2804,
      "Ġsubject": 2805,
      "Ġpassed": 2806,
      "ĠThomas": 2807,
      "reme": 2808,
      "Ġbi": 2809,
      "Ġphys": 2810,
      "Ġdon": 2811,
      "ĠMo": 2812,
      "ĠNY": 2813,
      "Ġ183": 2814,
      "Ġ184": 2815,
      "Ġremaining": 2816,
      "Ġgoing": 2817,
      "Ġliter": 2818,
      "Ġissue": 2819,
      "ĠVietn": 2820,
      "gg": 2821,
      "ica": 2822,
      "Ġdro": 2823,
      "uture": 2824,
      "Ġwhose": 2825,
      "Ġkey": 2826,
      "Ġended": 2827,
      "Ġ1960": 2828,
      "Ġpolice": 2829,
      "Ġterm": 2830,
      "Ġprovide": 2831,
      "Ġapproximately": 2832,
      "ĠHistory": 2833,
      "Ġbeginning": 2834,
      "Ġdoc": 2835,
      "ĠAc": 2836,
      "iding": 2837,
      "ference": 2838,
      "Ġwriter": 2839,
      "pecially": 2840,
      "ĠRegiment": 2841,
      "Ġlanguage": 2842,
      "BC": 2843,
      "Ġintended": 2844,
      "ara": 2845,
      "anish": 2846,
      "ĠMid": 2847,
      "Ġgre": 2848,
      "ett": 2849,
      "ĠPri": 2850,
      "ordan": 2851,
      "Ġquarter": 2852,
      "Ġrunning": 2853,
      "Ġresponse": 2854,
      "Ġlimited": 2855,
      "aries": 2856,
      "arters": 2857,
      "aled": 2858,
      "urity": 2859,
      "ĠJordan": 2860,
      "ume": 2861,
      "Ġleague": 2862,
      "Ġroom": 2863,
      "ĠThat": 2864,
      "Ġscreen": 2865,
      "Ġdisplay": 2866,
      "Ġfeel": 2867,
      "ĠColle": 2868,
      "Ġespecially": 2869,
      "Ġ?": 2870,
      "Ġz": 2871,
      "acing": 2872,
      "ĠMany": 2873,
      "Ġstay": 2874,
      "eler": 2875,
      "ĠGold": 2876,
      "Ġsurround": 2877,
      "Ġsuggested": 2878,
      "Ġintroduced": 2879,
      "Ġdivision": 2880,
      "Ġdaugh": 2881,
      "ĠAg": 2882,
      "ĠCour": 2883,
      "ĠWestern": 2884,
      "istic": 2885,
      "Ġbetter": 2886,
      "Ġaccording": 2887,
      "Ġeduc": 2888,
      "Ġanti": 2889,
      "ĠGermany": 2890,
      "bit": 2891,
      "urt": 2892,
      "Ġdead": 2893,
      "ago": 2894,
      "Ġtraining": 2895,
      "Ġshows": 2896,
      "Ġmixed": 2897,
      "ĠGro": 2898,
      "Ġ36": 2899,
      "Ġlarger": 2900,
      "Ġruns": 2901,
      "hib": 2902,
      "ĠTV": 2903,
      "Ġlower": 2904,
      "Ġstaff": 2905,
      "ĠFilm": 2906,
      "illery": 2907,
      "hedral": 2908,
      "ĠIII": 2909,
      "Ġtype": 2910,
      "Ġfuture": 2911,
      "ila": 2912,
      "ĠWil": 2913,
      "abit": 2914,
      "wood": 2915,
      "Ġoffice": 2916,
      "Ġremain": 2917,
      "Ġblock": 2918,
      "Ġcaptured": 2919,
      "Ġreferred": 2920,
      "Ġchanges": 2921,
      "Ġcertain": 2922,
      "Ġmer": 2923,
      "ula": 2924,
      "rian": 2925,
      "ateg": 2926,
      "ĠStud": 2927,
      "Ġenough": 2928,
      "Ġdestroyed": 2929,
      "ĠOliv": 2930,
      "now": 2931,
      "uz": 2932,
      "isions": 2933,
      "Ġtow": 2934,
      "ĠAwards": 2935,
      "ests": 2936,
      "aker": 2937,
      "ĠChina": 2938,
      "Ġadop": 2939,
      "Ġminor": 2940,
      "Ġprior": 2941,
      "ĠPeter": 2942,
      "xas": 2943,
      "Ġsize": 2944,
      "Ġfleet": 2945,
      "Ġmust": 2946,
      "ilities": 2947,
      "Ġdeep": 2948,
      "Ġ38": 2949,
      "Ġdiss": 2950,
      "Ġmostly": 2951,
      "Ġnearly": 2952,
      "Ġarchae": 2953,
      "ĠMcC": 2954,
      "Ġfighting": 2955,
      "band": 2956,
      "vest": 2957,
      "Ġop": 2958,
      "Ġfood": 2959,
      "Ġmight": 2960,
      "ĠTor": 2961,
      "olic": 2962,
      "ishop": 2963,
      "oney": 2964,
      "Ġindepend": 2965,
      "Ġcarried": 2966,
      "Ġviol": 2967,
      "eth": 2968,
      "Ġpot": 2969,
      "Ġpair": 2970,
      "Ġtold": 2971,
      "leg": 2972,
      "ulf": 2973,
      "ulated": 2974,
      "Ġjourn": 2975,
      "Ġvisit": 2976,
      "ĠCharles": 2977,
      "Ġsometimes": 2978,
      "bor": 2979,
      "ship": 2980,
      "Ġhom": 2981,
      "ĠSing": 2982,
      "idents": 2983,
      "ĠJin": 2984,
      "Ġvot": 2985,
      "Ġexam": 2986,
      "Ġscript": 2987,
      "Ġspent": 2988,
      "Ġguitar": 2989,
      "ĠCarol": 2990,
      "ĠBrown": 2991,
      "Ġpressure": 2992,
      "ĠOldham": 2993,
      "fect": 2994,
      "Ġtons": 2995,
      "Ġbomb": 2996,
      "Ġdomin": 2997,
      "ĠVir": 2998,
      "ĠVict": 2999,
      "Ġ400": 3000,
      "Ġpositive": 3001,
      "Ġteams": 3002,
      "Ġpositions": 3003,
      "ĠAssoci": 3004,
      "Ġagreed": 3005,
      "Ġsurface": 3006,
      "mond": 3007,
      "aring": 3008,
      "Ġmale": 3009,
      "Ġmention": 3010,
      "Ġden": 3011,
      "ĠHol": 3012,
      "ĠHot": 3013,
      "change": 3014,
      "Ġdisp": 3015,
      "Ġrecording": 3016,
      "hens": 3017,
      "Ġfeature": 3018,
      "Ġgroups": 3019,
      "minist": 3020,
      "ĠGuitar": 3021,
      "uals": 3022,
      "Ġrail": 3023,
      "Ġ75": 3024,
      "Ġbreak": 3025,
      "edy": 3026,
      "enes": 3027,
      "Ġmur": 3028,
      "ĠSquadron": 3029,
      "ĠNort": 3030,
      "uments": 3031,
      "odies": 3032,
      "Ġkil": 3033,
      "peror": 3034,
      "ĠSpanish": 3035,
      "Ġdefeat": 3036,
      "Ġmagazine": 3037,
      "lymp": 3038,
      "ady": 3039,
      "acted": 3040,
      "ĠMac": 3041,
      "vert": 3042,
      "chol": 3043,
      "ĠOlymp": 3044,
      "Ġchap": 3045,
      "ples": 3046,
      "Ġmoving": 3047,
      "Ġcomplex": 3048,
      "Ġgoals": 3049,
      "Ġforest": 3050,
      "ospital": 3051,
      "rief": 3052,
      "Ġlaunched": 3053,
      "tr": 3054,
      "itect": 3055,
      "Ġlab": 3056,
      "Ġnotes": 3057,
      "Ġ80": 3058,
      "Ġminutes": 3059,
      "Ġwinning": 3060,
      "ĠIrish": 3061,
      "sc": 3062,
      "ases": 3063,
      "ĠAle": 3064,
      "ĠBack": 3065,
      "ĠRes": 3066,
      "ĠNot": 3067,
      "iforn": 3068,
      "sec": 3069,
      "Ġplanned": 3070,
      "Ġcompan": 3071,
      "ĠVar": 3072,
      "Ġincludes": 3073,
      "ĠArt": 3074,
      "ĠManila": 3075,
      "Ġconstructed": 3076,
      "ĠCanadian": 3077,
      "Ġfifth": 3078,
      "Ġsubsequently": 3079,
      "ĠÃ": 3080,
      "ĠCard": 3081,
      "ĠHel": 3082,
      "ĠPre": 3083,
      "ĠGal": 3084,
      "ĠJer": 3085,
      "quare": 3086,
      "Ġabs": 3087,
      "Ġrelative": 3088,
      "ification": 3089,
      "Ġgrad": 3090,
      "Ġconcern": 3091,
      "Ġsat": 3092,
      "Ġcal": 3093,
      "ĠTy": 3094,
      "Ġlay": 3095,
      "ĠDr": 3096,
      "ĠKh": 3097,
      "teen": 3098,
      "Ġcontains": 3099,
      "ĠArab": 3100,
      "ronic": 3101,
      "Ġmedia": 3102,
      "oor": 3103,
      "uing": 3104,
      "itte": 3105,
      "Ġreach": 3106,
      "Ġsea": 3107,
      "quarters": 3108,
      "Ġadap": 3109,
      "Ġcommission": 3110,
      "Ġ1995": 3111,
      "Ġentered": 3112,
      "Ġlonger": 3113,
      "Ġfrequ": 3114,
      "Ġequip": 3115,
      "ĠCaliforn": 3116,
      "ney": 3117,
      "Ġcru": 3118,
      "Ġbord": 3119,
      "Ġthick": 3120,
      "ĠCath": 3121,
      "ĠHurricane": 3122,
      "ands": 3123,
      "Ġlearn": 3124,
      "Ġcontem": 3125,
      "ĠCommission": 3126,
      "ĠFrank": 3127,
      "Ġreviews": 3128,
      "Ġprimary": 3129,
      "Ġbirth": 3130,
      "icted": 3131,
      "ĠTropical": 3132,
      "ĠSince": 3133,
      "cean": 3134,
      "ching": 3135,
      "Ġweap": 3136,
      "Ġsett": 3137,
      "Ġlikely": 3138,
      "Ġidea": 3139,
      "ĠSecond": 3140,
      "Ġproblems": 3141,
      "Ġremoved": 3142,
      "ĠJewish": 3143,
      "iest": 3144,
      "Ġpare": 3145,
      "ĠSun": 3146,
      "ĠSoc": 3147,
      "ĠCong": 3148,
      "ĠCoun": 3149,
      "Ġusually": 3150,
      "Ġscore": 3151,
      "Ġcolon": 3152,
      "Ġquest": 3153,
      "Ġ1980": 3154,
      "Ġcounter": 3155,
      "ĠBillboard": 3156,
      "Ġlyric": 3157,
      "rd": 3158,
      "atory": 3159,
      "ĠTom": 3160,
      "ĠTem": 3161,
      "ĠTour": 3162,
      "Ġnetwork": 3163,
      "ĠCamp": 3164,
      "andon": 3165,
      "Ġshown": 3166,
      "pped": 3167,
      "Ġfilms": 3168,
      "Ġstudents": 3169,
      "Ġminute": 3170,
      "Ġartillery": 3171,
      "Ġattacked": 3172,
      "ĠOlivier": 3173,
      "cing": 3174,
      "Ġaut": 3175,
      "Ġbrief": 3176,
      "Ġpurch": 3177,
      "asy": 3178,
      "Ġhar": 3179,
      "ĠApp": 3180,
      "Ġlink": 3181,
      "iring": 3182,
      "ĠWhe": 3183,
      "ĠUK": 3184,
      "Ġrecon": 3185,
      "Ġ2016": 3186,
      "Ġens": 3187,
      "Ġspace": 3188,
      "Ġ70": 3189,
      "Ġconsist": 3190,
      "Ġappears": 3191,
      "Ġ1940": 3192,
      "Ġ1950": 3193,
      "iation": 3194,
      "men": 3195,
      "inct": 3196,
      "Ġtouch": 3197,
      "Ġdark": 3198,
      "ĠMet": 3199,
      "ids": 3200,
      "ĠFin": 3201,
      "ĠLou": 3202,
      "Ġaccess": 3203,
      "Ġlocation": 3204,
      "Ġpresident": 3205,
      "ĠChristm": 3206,
      "Ġslight": 3207,
      "Ġexperience": 3208,
      "Ġkeep": 3209,
      "Ġranked": 3210,
      "Ġbroadcast": 3211,
      "Ġprofessional": 3212,
      "Ġinvestig": 3213,
      "ĠAssociation": 3214,
      "ĠCalifornia": 3215,
      "mitted": 3216,
      "Ġnature": 3217,
      "ĠMal": 3218,
      "Ġoverall": 3219,
      "Ġthemsel": 3220,
      "Ġ1998": 3221,
      "Ġinterse": 3222,
      "Ġamount": 3223,
      "Ġattacks": 3224,
      "ĠForce": 3225,
      "Ġsuffered": 3226,
      "Ġthemselves": 3227,
      "enth": 3228,
      "enty": 3229,
      "Ġlived": 3230,
      "ĠMr": 3231,
      "ĠPenn": 3232,
      "undred": 3233,
      "Ġleaving": 3234,
      "Ġunit": 3235,
      "Ġmovement": 3236,
      "Ġquickly": 3237,
      "co": 3238,
      "ites": 3239,
      "Ġcer": 3240,
      "Ġflow": 3241,
      "Ġfail": 3242,
      "Ġtourn": 3243,
      "omm": 3244,
      "ads": 3245,
      "ĠMil": 3246,
      "Ġconclud": 3247,
      "ĠStar": 3248,
      "Ġpercent": 3249,
      "ĠAnother": 3250,
      "Ġ1999": 3251,
      "Ġcreate": 3252,
      "hester": 3253,
      "Ġassociated": 3254,
      "Ġoccurred": 3255,
      "ĠCroat": 3256,
      "Ġcele": 3257,
      "ĠVictor": 3258,
      "ma": 3259,
      "itz": 3260,
      "Ġfans": 3261,
      "Ġinn": 3262,
      "imum": 3263,
      "ĠPat": 3264,
      "ĠOt": 3265,
      "Ġarrang": 3266,
      "Ġcompared": 3267,
      "Ġrelated": 3268,
      "Ġgrant": 3269,
      "Ġlargely": 3270,
      "Ġofficers": 3271,
      "Ġtemper": 3272,
      "ĠCentral": 3273,
      "NA": 3274,
      "Ġrein": 3275,
      "ĠServ": 3276,
      "ĠBey": 3277,
      "Ġstone": 3278,
      "ability": 3279,
      "Ġ300": 3280,
      "elled": 3281,
      "venue": 3282,
      "ĠEarth": 3283,
      "Ġfavor": 3284,
      "Ġbecoming": 3285,
      "ĠChristmas": 3286,
      "bers": 3287,
      "tained": 3288,
      "Ġsus": 3289,
      "Ġwound": 3290,
      "ĠTer": 3291,
      "ĠMos": 3292,
      "ĠMount": 3293,
      "umn": 3294,
      "Ġran": 3295,
      "ills": 3296,
      "ĠStorm": 3297,
      "Ġassigned": 3298,
      "Ġacqu": 3299,
      "Ġmajority": 3300,
      "Ġmorning": 3301,
      "Ġlyrics": 3302,
      "down": 3303,
      "uf": 3304,
      "ville": 3305,
      "Ġself": 3306,
      "Ġpay": 3307,
      "Ġalways": 3308,
      "ĠLaw": 3309,
      "Ġrare": 3310,
      "Ġ32": 3311,
      "Ġoperation": 3312,
      "Ġattempted": 3313,
      "Ġbirds": 3314,
      "tation": 3315,
      "ĠOver": 3316,
      "ĠItal": 3317,
      "Ġmethod": 3318,
      "anna": 3319,
      "stitute": 3320,
      "Ġdaughter": 3321,
      "ĠCourt": 3322,
      "gl": 3323,
      "like": 3324,
      "ror": 3325,
      "Ġsem": 3326,
      "Ġschol": 3327,
      "itor": 3328,
      "Ġmakes": 3329,
      "ĠSl": 3330,
      "str": 3331,
      "umed": 3332,
      "Ġtraff": 3333,
      "Ġimage": 3334,
      "Ġprem": 3335,
      "Ġmusical": 3336,
      "Ġsmaller": 3337,
      "Ġbegins": 3338,
      "ĠCouncil": 3339,
      "Ġtraffic": 3340,
      "gen": 3341,
      "ires": 3342,
      "Ġbad": 3343,
      "Ġmom": 3344,
      "igan": 3345,
      "ĠRose": 3346,
      "Ġdeg": 3347,
      "Ġtrade": 3348,
      "Ġunc": 3349,
      "Ġabandon": 3350,
      "Ġbound": 3351,
      "Ġforms": 3352,
      "Ġeffects": 3353,
      "Ġasked": 3354,
      "back": 3355,
      "ners": 3356,
      "Ġtakes": 3357,
      "Ġpun": 3358,
      "Ġbelow": 3359,
      "ulpt": 3360,
      "ĠJe": 3361,
      "aby": 3362,
      "Ġunable": 3363,
      "oke": 3364,
      "Ġsculpt": 3365,
      "Ġjob": 3366,
      "key": 3367,
      "Ġ90": 3368,
      "ĠBoth": 3369,
      "Ġinfluence": 3370,
      "Ġradio": 3371,
      "ĠVirgin": 3372,
      "oly": 3373,
      "Ġtar": 3374,
      "irt": 3375,
      "ĠLatin": 3376,
      "aph": 3377,
      "ocr": 3378,
      "Ġshoot": 3379,
      "Ġcentre": 3380,
      "Ġsettle": 3381,
      "Ġpresence": 3382,
      "Ġperformances": 3383,
      "ĠBrad": 3384,
      "Ġstarting": 3385,
      "Ġconsider": 3386,
      "Ġnewsp": 3387,
      "Ġprivate": 3388,
      "gar": 3389,
      "ios": 3390,
      "Ġsil": 3391,
      "Ġour": 3392,
      "Ġword": 3393,
      "Ġwoman": 3394,
      "atre": 3395,
      "Ġcm": 3396,
      "ĠIf": 3397,
      "ements": 3398,
      "ĠGo": 3399,
      "Ġclos": 3400,
      "Ġparty": 3401,
      "Ġweaken": 3402,
      "Ġending": 3403,
      "Ġmarked": 3404,
      "Ġproposed": 3405,
      "Ġcompetition": 3406,
      "Ġrapid": 3407,
      "ĠNorthern": 3408,
      "II": 3409,
      "lor": 3410,
      "uk": 3411,
      "reak": 3412,
      "edic": 3413,
      "Ġmoney": 3414,
      "Ġdone": 3415,
      "ĠTw": 3416,
      "ĠMart": 3417,
      "ĠLight": 3418,
      "Ġleave": 3419,
      "Ġclosed": 3420,
      "Ġserious": 3421,
      "Ġattr": 3422,
      "ĠSever": 3423,
      "Ġelection": 3424,
      "Ġcritical": 3425,
      "Ġbuildings": 3426,
      "Ġstatus": 3427,
      "osaurus": 3428,
      "Ġconducted": 3429,
      "ittee": 3430,
      "ita": 3431,
      "ises": 3432,
      "Ġpian": 3433,
      "urg": 3434,
      "imate": 3435,
      "Ġvoice": 3436,
      "ĠThree": 3437,
      "Ġimm": 3438,
      "Ġnumbers": 3439,
      "Ġ1930": 3440,
      "Ġpersonal": 3441,
      "Ġrequest": 3442,
      "Ġissued": 3443,
      "Ġchanged": 3444,
      "Ġfigure": 3445,
      "ĠBusch": 3446,
      "ĠWheeler": 3447,
      "ih": 3448,
      "rup": 3449,
      "Ġult": 3450,
      "ergy": 3451,
      "oul": 3452,
      "Ġstories": 3453,
      "ulted": 3454,
      "ĠJane": 3455,
      "agon": 3456,
      "ruit": 3457,
      "ĠThrough": 3458,
      "Ġmeant": 3459,
      "Ġtor": 3460,
      "onc": 3461,
      "Ġcred": 3462,
      "anced": 3463,
      "Ġder": 3464,
      "ste": 3465,
      "Ġplat": 3466,
      "Ġplans": 3467,
      "rael": 3468,
      "ĠVer": 3469,
      "Ġearned": 3470,
      "Ġ1997": 3471,
      "Ġpolic": 3472,
      "Ġterms": 3473,
      "Ġconcert": 3474,
      "onym": 3475,
      "Ġcommander": 3476,
      "Ġlisted": 3477,
      "ĠCenter": 3478,
      "gu": 3479,
      "Ġpark": 3480,
      "Ġhundred": 3481,
      "ĠTur": 3482,
      "Ġliving": 3483,
      "vey": 3484,
      "Ġgot": 3485,
      "ortun": 3486,
      "Ġspeed": 3487,
      "Ġunderst": 3488,
      "Ġpeace": 3489,
      "Ġflight": 3490,
      "ĠScot": 3491,
      "Ġarchitect": 3492,
      "Ġdirectly": 3493,
      "Ġsocial": 3494,
      "Ġawarded": 3495,
      "Ġdouble": 3496,
      "Ġstrength": 3497,
      "Ġcyclone": 3498,
      "force": 3499,
      "Ġimmediately": 3500,
      "enon": 3501,
      "ari": 3502,
      "Ġdram": 3503,
      "Ġthus": 3504,
      "Ġemer": 3505,
      "Ġhealth": 3506,
      "Ġconcept": 3507,
      "ĠWood": 3508,
      "anded": 3509,
      "aging": 3510,
      "ĠStr": 3511,
      "Ġportray": 3512,
      "Ġdemon": 3513,
      "Ġcovered": 3514,
      "ĠPhilipp": 3515,
      "Ġcommented": 3516,
      "Ġresponsible": 3517,
      "Ġmeaning": 3518,
      "Ġund": 3519,
      "hew": 3520,
      "ĠDo": 3521,
      "riage": 3522,
      "ump": 3523,
      "Ġvia": 3524,
      "aily": 3525,
      "Ġ1996": 3526,
      "Ġcoach": 3527,
      "Ġcarry": 3528,
      "Ġbring": 3529,
      "ĠClub": 3530,
      "Ġexperi": 3531,
      "Ġinitial": 3532,
      "ĠSovi": 3533,
      "Ġsout": 3534,
      "Ġbow": 3535,
      "aches": 3536,
      "ĠMont": 3537,
      "ĠBel": 3538,
      "ĠBoy": 3539,
      "cts": 3540,
      "ĠFore": 3541,
      "ria": 3542,
      "Ġanaly": 3543,
      "Ġrecords": 3544,
      "Ġamb": 3545,
      "Ġartist": 3546,
      "ĠIsrael": 3547,
      "ĠMuseum": 3548,
      "ĠStev": 3549,
      "ĠMichigan": 3550,
      "Ġindustry": 3551,
      "ĠGroup": 3552,
      "ĠAlex": 3553,
      "ĠSeveral": 3554,
      "bour": 3555,
      "Ġreally": 3556,
      "amer": 3557,
      "Ġattend": 3558,
      "alled": 3559,
      "ipal": 3560,
      "Ġ33": 3561,
      "Ġannual": 3562,
      "Ġcourse": 3563,
      "ĠAfrican": 3564,
      "Ġculture": 3565,
      "Ġseparate": 3566,
      "ĠDepartment": 3567,
      "Ġgreater": 3568,
      "ĠCatholic": 3569,
      "oir": 3570,
      "sis": 3571,
      "alt": 3572,
      "Ġdom": 3573,
      "Ġlif": 3574,
      "ander": 3575,
      "ĠLos": 3576,
      "ĠUp": 3577,
      "Ġyet": 3578,
      "ellig": 3579,
      "Ġsched": 3580,
      "Ġfinally": 3581,
      "Ġnortheast": 3582,
      "Ġsituation": 3583,
      "stitution": 3584,
      "ĠStevens": 3585,
      "ken": 3586,
      "erve": 3587,
      "Ġfell": 3588,
      "oms": 3589,
      "Ġupper": 3590,
      "Ġ1993": 3591,
      "Ġhighly": 3592,
      "Ġinfantry": 3593,
      "ylv": 3594,
      "Ġhelped": 3595,
      "Ġaccomp": 3596,
      "ĠSeries": 3597,
      "Ġdetermin": 3598,
      "ĠCollege": 3599,
      "Ġcompanies": 3600,
      "AS": 3601,
      "hou": 3602,
      "hem": 3603,
      "ĠCross": 3604,
      "ĠBob": 3605,
      "irl": 3606,
      "ĠDem": 3607,
      "ĠInter": 3608,
      "Ġuns": 3609,
      "Ġrecover": 3610,
      "ĠIts": 3611,
      "ĠSea": 3612,
      "Ġcann": 3613,
      "Ġsevere": 3614,
      "Ġstandard": 3615,
      "ĠMinnes": 3616,
      "Ġcasual": 3617,
      "Ġsummer": 3618,
      "Ġvocals": 3619,
      "Ġfocus": 3620,
      "ĠMinnesota": 3621,
      "Ġtell": 3622,
      "oud": 3623,
      "ĠMajor": 3624,
      "cend": 3625,
      "rial": 3626,
      "Ġselected": 3627,
      "anta": 3628,
      "Ġkind": 3629,
      "Ġ37": 3630,
      "Ġwhether": 3631,
      "Ġuses": 3632,
      "Ġ42": 3633,
      "Ġboats": 3634,
      "Ġdism": 3635,
      "Ġoffered": 3636,
      "Ġnecess": 3637,
      "Ġearth": 3638,
      "Ġadvance": 3639,
      "Ġallowing": 3640,
      "Ġincrease": 3641,
      "Ġconfl": 3642,
      "Ġhands": 3643,
      "Ġschools": 3644,
      "Ġmiddle": 3645,
      "Ġdrum": 3646,
      "ĠCorps": 3647,
      "Ġaudience": 3648,
      "ĠBeyonc": 3649,
      "ĠBeyoncÃ©": 3650,
      "Ġbig": 3651,
      "ĠTay": 3652,
      "olk": 3653,
      "ĠBen": 3654,
      "ushed": 3655,
      "ĠHaw": 3656,
      "ĠJust": 3657,
      "ĠLake": 3658,
      "iff": 3659,
      "Ġchall": 3660,
      "Ġcomposed": 3661,
      "lands": 3662,
      "Ġprec": 3663,
      "Ġtheme": 3664,
      "ĠArch": 3665,
      "Ġwriters": 3666,
      "Ġvariety": 3667,
      "Ġpromin": 3668,
      "Ġmarried": 3669,
      "Ġactivity": 3670,
      "Ġvehic": 3671,
      "Ġintensity": 3672,
      "Ġpurp": 3673,
      "Ġdocument": 3674,
      "itation": 3675,
      "iser": 3676,
      "Ġthings": 3677,
      "Ġlog": 3678,
      "ĠRh": 3679,
      "Ġsearch": 3680,
      "ĠLi": 3681,
      "ĠLit": 3682,
      "istics": 3683,
      "ifa": 3684,
      "Ġ39": 3685,
      "Ġprep": 3686,
      "Ġfinanc": 3687,
      "Ġnearby": 3688,
      "Ġadvant": 3689,
      "rowd": 3690,
      "Ġrefused": 3691,
      "ĠQu": 3692,
      "Ġwaters": 3693,
      "Ġconditions": 3694,
      "Ġresearch": 3695,
      "Ġmurder": 3696,
      "MS": 3697,
      "ee": 3698,
      "Ġ+": 3699,
      "atives": 3700,
      "Ġcause": 3701,
      "Ġpurs": 3702,
      "Ġdig": 3703,
      "Ġdra": 3704,
      "ĠTre": 3705,
      "ĠTenn": 3706,
      "ĠCamb": 3707,
      "achel": 3708,
      "uries": 3709,
      "ĠBig": 3710,
      "ĠForm": 3711,
      "ĠNations": 3712,
      "Ġextended": 3713,
      "ĠVilla": 3714,
      "Ġactually": 3715,
      "Ġbackground": 3716,
      "Ġmatches": 3717,
      "Ġmetal": 3718,
      "Ġbattles": 3719,
      "Ġbattalion": 3720,
      "Ġdeclared": 3721,
      "Ġcathedral": 3722,
      "Ġtraditional": 3723,
      "Ġindividual": 3724,
      "Ġinformation": 3725,
      "ky": 3726,
      "Ġintern": 3727,
      "ĠAre": 3728,
      "ĠSam": 3729,
      "ĠTheir": 3730,
      "usband": 3731,
      "ĠHow": 3732,
      "ether": 3733,
      "ĠOs": 3734,
      "Ġrule": 3735,
      "Ġwhole": 3736,
      "ibly": 3737,
      "Ġsecret": 3738,
      "Ġreduced": 3739,
      "Ġnucle": 3740,
      "Ġeducation": 3741,
      "Ġslightly": 3742,
      "stein": 3743,
      "een": 3744,
      "Ã³": 3745,
      "itude": 3746,
      "Ġcle": 3747,
      "isl": 3748,
      "ĠSur": 3749,
      "vement": 3750,
      "Ġhero": 3751,
      "ĠFoot": 3752,
      "ĠWW": 3753,
      "ĠJim": 3754,
      "ĠLive": 3755,
      "eway": 3756,
      "Ġplot": 3757,
      "Ġcompl": 3758,
      "Ġenv": 3759,
      "oint": 3760,
      "Ġactive": 3761,
      "Ġheadquarters": 3762,
      "Ġdescribes": 3763,
      "Ġgiving": 3764,
      "Ġattempts": 3765,
      "ervation": 3766,
      "ĠParliament": 3767,
      "Ġmeeting": 3768,
      "ĠHaifa": 3769,
      "Ġraised": 3770,
      "ĠService": 3771,
      "ĠTaylor": 3772,
      "ply": 3773,
      "Ġtalk": 3774,
      "Ġcoin": 3775,
      "ĠBC": 3776,
      "Ġstating": 3777,
      "Ġplant": 3778,
      "ĠUnder": 3779,
      "aven": 3780,
      "Ġscenes": 3781,
      "Ġnumerous": 3782,
      "Ġsuppl": 3783,
      "Ġentr": 3784,
      "Ġstudies": 3785,
      "embly": 3786,
      "ĠColon": 3787,
      "ĠPrince": 3788,
      "kan": 3789,
      "Ġdoll": 3790,
      "ĠSaint": 3791,
      "ĠChic": 3792,
      "ĠHead": 3793,
      "Ġadminist": 3794,
      "Ġ182": 3795,
      "Ġbox": 3796,
      "Ġjud": 3797,
      "Ġ1991": 3798,
      "Ġ1992": 3799,
      "Ġofficer": 3800,
      "Ġissues": 3801,
      "ĠJackson": 3802,
      "Ġneeded": 3803,
      "Ġpeaked": 3804,
      "Ġterritory": 3805,
      "Ġcopies": 3806,
      "Ġcontemporary": 3807,
      "ĠScotland": 3808,
      "eter": 3809,
      "lers": 3810,
      "mon": 3811,
      "Ġtask": 3812,
      "Ġnative": 3813,
      "Ġnatural": 3814,
      "ĠFI": 3815,
      "Ġsevent": 3816,
      "ĠGames": 3817,
      "ĠLes": 3818,
      "Ġresulted": 3819,
      "ĠAlice": 3820,
      "ixon": 3821,
      "ĠDef": 3822,
      "struction": 3823,
      "Ġextensive": 3824,
      "Ġactivities": 3825,
      "Ġcompletely": 3826,
      "ĠOperation": 3827,
      "Ġcelebr": 3828,
      "ĠItalian": 3829,
      "het": 3830,
      "eding": 3831,
      "Ġcrowd": 3832,
      "Ġfeder": 3833,
      "Ġbatter": 3834,
      "Ġtoward": 3835,
      "Ġhusband": 3836,
      "Ġreject": 3837,
      "Ġnorm": 3838,
      "ims": 3839,
      "imin": 3840,
      "ĠPit": 3841,
      "ĠLady": 3842,
      "Ġ180": 3843,
      "Ġsecurity": 3844,
      "Ġinches": 3845,
      "ĠChris": 3846,
      "Ġpowerful": 3847,
      "Ġconfir": 3848,
      "Ġcollection": 3849,
      "Ġservices": 3850,
      "Ġera": 3851,
      "Ġrespectively": 3852,
      "Ġheavily": 3853,
      "nts": 3854,
      "Ġsides": 3855,
      "Ġhot": 3856,
      "Ġhop": 3857,
      "ĠTime": 3858,
      "ĠSix": 3859,
      "Ġlik": 3860,
      "ĠWater": 3861,
      "ĠNor": 3862,
      "ĠNic": 3863,
      "Ġrate": 3864,
      "Ġexcept": 3865,
      "ĠThough": 3866,
      "ĠYoun": 3867,
      "Ġ76": 3868,
      "Ġepisodes": 3869,
      "Ġdistance": 3870,
      "ĠTexas": 3871,
      "Ġapproach": 3872,
      "Ġcontrast": 3873,
      "aught": 3874,
      "ĠPolish": 3875,
      "Ġgenus": 3876,
      "Ġfigures": 3877,
      "Ġgods": 3878,
      "ĠCaptain": 3879,
      "Ġancient": 3880,
      "ĠSoviet": 3881,
      "ĠLittle": 3882,
      "ĠChicago": 3883,
      "lin": 3884,
      "oration": 3885,
      "Ġbodies": 3886,
      "Ġpath": 3887,
      "Ġrear": 3888,
      "ĠCivil": 3889,
      "ĠJose": 3890,
      "ĠLong": 3891,
      "ously": 3892,
      "athan": 3893,
      "Ġspecific": 3894,
      "Ġincor": 3895,
      "Ġmole": 3896,
      "Ġcontinues": 3897,
      "annel": 3898,
      "Ġtermin": 3899,
      "Ġsixth": 3900,
      "Ġbooks": 3901,
      "Ġtracks": 3902,
      "Ġobserved": 3903,
      "ĠSomal": 3904,
      "Ġcondoms": 3905,
      "Ġtransferred": 3906,
      "emorial": 3907,
      "Ġinspired": 3908,
      "iant": 3909,
      "joy": 3910,
      "Ġess": 3911,
      "Ġtax": 3912,
      "ĠAI": 3913,
      "Ġonto": 3914,
      "ĠBow": 3915,
      "chan": 3916,
      "ĠWash": 3917,
      "Ġdise": 3918,
      "Ġenjoy": 3919,
      "pedo": 3920,
      "Ġappearances": 3921,
      "Ġstruck": 3922,
      "Ġpattern": 3923,
      "Ġinfluenced": 3924,
      "ĠGeorg": 3925,
      "Ġbecomes": 3926,
      "Ġeye": 3927,
      "ĠLouis": 3928,
      "ĠOtt": 3929,
      "Ġpiano": 3930,
      "ĠWashington": 3931,
      "cer": 3932,
      "cause": 3933,
      "ks": 3934,
      "of": 3935,
      "Ġnaval": 3936,
      "olf": 3937,
      "ĠDel": 3938,
      "Ġang": 3939,
      "ĠJo": 3940,
      "ĠOf": 3941,
      "Ġrhy": 3942,
      "iva": 3943,
      "Ġexpected": 3944,
      "Ġuniversity": 3945,
      "Ġ181": 3946,
      "Ġattention": 3947,
      "Ġ1994": 3948,
      "ologist": 3949,
      "ĠEnter": 3950,
      "Ġleaders": 3951,
      "ĠBecause": 3952,
      "Ġnorthwest": 3953,
      "Ġinside": 3954,
      "Ġcontrovers": 3955,
      "Ġprotect": 3956,
      "Ġgreatest": 3957,
      "ĠPortug": 3958,
      "Ġcombined": 3959,
      "Ġsexual": 3960,
      "Ġefforts": 3961,
      "ĠSmith": 3962,
      "veston": 3963,
      "ĠGalveston": 3964,
      "awn": 3965,
      "Ġactions": 3966,
      "anz": 3967,
      "lement": 3968,
      "ils": 3969,
      "ĠMey": 3970,
      "ĠBu": 3971,
      "imb": 3972,
      "ĠRoss": 3973,
      "ĠDire": 3974,
      "ĠNixon": 3975,
      "bery": 3976,
      "iple": 3977,
      "Ġresidents": 3978,
      "ĠAlkan": 3979,
      "Ġ65": 3980,
      "Ġshell": 3981,
      "Ġcontinue": 3982,
      "Ġlevels": 3983,
      "Ġhigher": 3984,
      "Ġmachine": 3985,
      "ylvania": 3986,
      "RA": 3987,
      "rical": 3988,
      "uated": 3989,
      "well": 3990,
      "Ġwit": 3991,
      "ols": 3992,
      "idian": 3993,
      "arts": 3994,
      "asty": 3995,
      "Ġresc": 3996,
      "Ġsomething": 3997,
      "Ġsinger": 3998,
      "Ġheads": 3999
    },
    "merges": [
      "Ġ t",
      "h e",
      "Ġ a",
      "i n",
      "Ġt he",
      "e r",
      "o n",
      "Ġ ,",
      "u n",
      "r e",
      "Ġ s",
      "Ġ o",
      "Ġ w",
      "e d",
      "Ġ .",
      "a t",
      "n d",
      "un k",
      "Ġ <",
      "o r",
      "i t",
      "Ġ c",
      "Ġ f",
      "e n",
      "Ġo f",
      "i s",
      "Ġ b",
      "e s",
      "Ġ in",
      "a r",
      "a n",
      "a l",
      "Ġa nd",
      "Ġ p",
      "in g",
      "a s",
      "Ġt o",
      "r o",
      "Ġ m",
      "i c",
      "Ġ d",
      "Ġ h",
      "i on",
      "l e",
      "Ġ T",
      "Ġ =",
      "Ġ re",
      "Ġ \"",
      "o u",
      "Ġt h",
      "Ġ A",
      "en t",
      "Ġ 1",
      "i l",
      "Ġ S",
      "s t",
      "Ġ l",
      "Ġ Ċ",
      "Ġ e",
      "Ġ @",
      "o m",
      "Ġ n",
      "a m",
      "Ġ C",
      "l y",
      "a d",
      "Ġw as",
      "a c",
      "ĠT he",
      "Ġb e",
      "Ġ on",
      "v e",
      "u r",
      "Ġ M",
      "Ġ '",
      "Ġ I",
      "Ġ g",
      "Ġf or",
      "- @",
      "Ġ@ -@",
      "t er",
      "o l",
      "Ġ B",
      "i m",
      "i d",
      "i r",
      "v er",
      "c t",
      "i g",
      "Ġa s",
      "t h",
      "o w",
      "Ġs t",
      "Ġ 2",
      "it h",
      "u s",
      "Ġ H",
      "e l",
      "a y",
      "u t",
      "Ġw ith",
      "Ġth at",
      "Ġ he",
      "c e",
      "o t",
      "at ion",
      "e t",
      "Ġ is",
      "Ġb y",
      "Ġw h",
      "c h",
      "Ġ P",
      "Ġ (",
      "Ġ )",
      "Ġ R",
      "Ġa l",
      "Ġc on",
      "Ġa t",
      "Ġ F",
      "Ġ D",
      "u l",
      "Ġ W",
      "Ġ it",
      "Ġ1 9",
      "a in",
      "ro m",
      "a nd",
      "e m",
      "r i",
      "Ġ N",
      "Ġa n",
      "0 0",
      "o s",
      "Ġs e",
      "Ġd e",
      "he r",
      "Ġ G",
      "es t",
      "Ġ J",
      "Ġ L",
      "a g",
      "Ġh is",
      "u m",
      "Ġf rom",
      "er s",
      "Ġc om",
      "Ġ O",
      "o d",
      "Ġ r",
      "p e",
      "un d",
      "er e",
      "Ġ E",
      "is t",
      "Ġp ro",
      "Ġw ere",
      "re s",
      "or t",
      "at e",
      "l d",
      "i es",
      "i f",
      "Ġs u",
      "il l",
      "o re",
      "ĠI n",
      "a p",
      "Ġ v",
      "ig h",
      "on g",
      "e w",
      "o p",
      "i v",
      "ic h",
      "al l",
      "ar t",
      "ar d",
      "Ġo r",
      "b er",
      "a k",
      "i ve",
      "it y",
      "g h",
      "s e",
      "am e",
      "Ġp l",
      "Ġe x",
      "at ed",
      "an t",
      "Ġc h",
      "u d",
      "Ġ â",
      "Ġa re",
      "a b",
      "Ġh ad",
      "o c",
      "q u",
      "Ġ k",
      "Ġâ Ģ",
      "Ġs h",
      "m ent",
      "ac k",
      "Ġ U",
      "Ġwh ich",
      "es s",
      "u p",
      "re d",
      "i p",
      "ou r",
      "as t",
      "g e",
      "ĠS t",
      "a ve",
      "i an",
      "Ġ y",
      "Ġn ot",
      "Ġ le",
      "r it",
      "p t",
      "o st",
      "i al",
      "Ġ K",
      "e ar",
      "igh t",
      "a v",
      "u st",
      "Ġt r",
      "t her",
      "Ġ 3",
      "or d",
      "o un",
      "c l",
      "in e",
      "is h",
      "ic al",
      "ar y",
      "ĠC h",
      "Ġ2 00",
      "t e",
      "el l",
      "Ġ ;",
      "i a",
      "p p",
      "ct ion",
      "ir st",
      "f ter",
      "Ġb ut",
      "Ġa r",
      "Ġcom p",
      "Ġthe ir",
      "id e",
      "c c",
      "s o",
      "u re",
      "ou ld",
      "Ġit s",
      "Ġcon t",
      "Ġw he",
      "om e",
      "ou s",
      "Ġ un",
      "o g",
      "Ġin t",
      "Ġf irst",
      "ĠâĢ ĵ",
      "r a",
      "w o",
      "Ġ ro",
      "Ġ2 0",
      "it ion",
      "u e",
      "he d",
      "ow n",
      "Ġal so",
      "Ġ :",
      "ig n",
      "ou t",
      "at er",
      "Ġc l",
      "u b",
      "p er",
      "i e",
      "f f",
      "Ġ us",
      "l ow",
      "or m",
      "ĠH e",
      "or k",
      "ag e",
      "Ġhe r",
      "Ġa d",
      "as s",
      "Ġ V",
      "Ġh ave",
      "r u",
      "Ġa b",
      "Ġbe en",
      "Ġh as",
      "Ġon e",
      "m er",
      "Ġ 4",
      "i re",
      "re e",
      "o k",
      "Ġre s",
      ". @",
      "Ġ@ .@",
      "im e",
      "Ġt wo",
      "Ġ 5",
      "Ġ1 8",
      "Ġre c",
      "ur ing",
      "on d",
      "r y",
      "Ġp er",
      "t ed",
      "v ed",
      "en ce",
      "d u",
      "ou gh",
      "Ġwh o",
      "ĠT h",
      "Ġa g",
      "u gh",
      "an s",
      "al ly",
      "Ġth is",
      "Ġb o",
      "a re",
      "Ġbe c",
      "i le",
      "ĠI t",
      "p l",
      "an ce",
      "l and",
      "Ġp art",
      "Ġthe y",
      "Ġs c",
      "Ġa fter",
      "e ct",
      "cl ud",
      "Ġ20 1",
      "Ġd es",
      "Ġpl ay",
      "ĠA l",
      ", @",
      "Ġ@ ,@",
      "Ġt e",
      "ac h",
      "o ver",
      "Ġy ear",
      "or y",
      "Ġo ver",
      "an y",
      "Ġd is",
      "ad e",
      "ation s",
      "Ġ j",
      "Ġs er",
      "r ic",
      "ul t",
      "Ġof f",
      "Ġo ther",
      "Ġ up",
      "ac e",
      "k e",
      "o und",
      "Ġin clud",
      "ic e",
      "ur n",
      "o ve",
      "Ġ en",
      "ion s",
      "p ort",
      "Ġo ut",
      "an g",
      "oun t",
      "Ġ im",
      "Ġint o",
      "res s",
      "it e",
      "i b",
      "i z",
      "ac t",
      "Ġat t",
      "w ard",
      "Ġn e",
      "Ġt ime",
      "Ġp re",
      "Ġe v",
      "Ġ 6",
      "w n",
      "Ġf in",
      "ĠO n",
      "Ġ Y",
      "ar k",
      "c ed",
      "Ġcom m",
      "ro ugh",
      "c es",
      "Ġw ould",
      "w e",
      "Ġw e",
      "ter n",
      "en s",
      "Ġm ore",
      "Ġh im",
      "ĠU n",
      "os e",
      "ĠS e",
      "i ed",
      "Ġs pe",
      "on e",
      "re n",
      "am p",
      "Ġal l",
      "a il",
      "it ed",
      "as on",
      "as ed",
      "Ġs p",
      "ver s",
      "Ġw ork",
      "o in",
      "Ġc ent",
      "ri b",
      "Ġs he",
      "is s",
      "ro und",
      "ĠR e",
      "as e",
      "Ġ 7",
      "v i",
      "Ġre m",
      "t s",
      "Ġm e",
      "l es",
      "ĠA n",
      "o od",
      "r al",
      "Ġthe m",
      "at es",
      "or th",
      "Ġ 9",
      "Ġd uring",
      "Ġe ar",
      "Ġbe t",
      "i x",
      "Ġse c",
      "Ġwhe n",
      "ing s",
      "ou th",
      "g an",
      "Ġf e",
      "ab le",
      "Ġk n",
      "ve l",
      "il d",
      "und er",
      "ent s",
      "ol d",
      "f orm",
      "at t",
      "Ġm ost",
      "Ġs ong",
      "il m",
      "ak e",
      "ub l",
      "f er",
      "Ġag ain",
      "or s",
      "Ġon ly",
      "ol low",
      "al s",
      "a us",
      "m an",
      "Ġn ew",
      "er ed",
      "Ġ 8",
      "Ġth ree",
      "ĠA s",
      "at h",
      "w ay",
      "Ġ19 9",
      "o y",
      "we en",
      "Ġcon s",
      "Ġg ame",
      "Ġth an",
      "is ion",
      "Ġ under",
      "ĠC om",
      "Ġab out",
      "u g",
      "ĠA r",
      "ation al",
      "Ġ 00",
      "re at",
      "ic k",
      "Ġs ome",
      "on s",
      "Ġth rough",
      "ter s",
      "Ġre l",
      "ĠM ar",
      "Ġl ater",
      "Ġbet ween",
      "a w",
      "f ore",
      "in d",
      "Ġse ason",
      "f t",
      "ct ed",
      "mer ic",
      "h ip",
      "Ġc ol",
      "Ġf ilm",
      "ĠA meric",
      "Ġp os",
      "ic t",
      "ĠD e",
      "Ġn um",
      "Ġas s",
      "Ġwh ile",
      "Ġe nd",
      "Ġc an",
      "Ġa p",
      "ĠN ew",
      "Ġp e",
      "ul ar",
      "n ing",
      "i ke",
      "Ġre t",
      "Ġrec ord",
      "Ġin ter",
      "Ġwhe re",
      "Ġde f",
      "r on",
      "Ġm ade",
      "ol og",
      "Ġfor m",
      "Ġpro du",
      "Ġf l",
      "am es",
      "Ġre g",
      "Ġl ar",
      "Ġch ar",
      "ĠE n",
      "or ld",
      "Ġf ollow",
      "Ġre le",
      "Ġw rit",
      "is hed",
      "Ġd ay",
      "Ġa c",
      "Ġa pp",
      "e y",
      "ro p",
      "Ġs o",
      "Ġm an",
      "Ġsu b",
      "Ġa m",
      "en er",
      "Ġf our",
      "Ġspe c",
      "Ġb u",
      "Ġa ct",
      "an k",
      "e ver",
      "Ġn o",
      "Ġ00 0",
      "Ġus ed",
      "ur y",
      "Ġsu pp",
      "Ġa cc",
      "Ġin c",
      "Ġsec ond",
      "ĠA t",
      "Ġm o",
      "Ġsu ch",
      "b um",
      "l l",
      "a id",
      "u al",
      "Ġap pe",
      "Ġbe fore",
      "Ġg ro",
      "oc k",
      "Ġ qu",
      "Ġh igh",
      "Ġbe ing",
      "Ġthe re",
      "at ing",
      "Ġm us",
      "p h",
      "ĠB rit",
      "ĠTh is",
      "s s",
      "Ġc all",
      "in es",
      "Ġin d",
      "Ġc o",
      "il y",
      "Ġse ver",
      "Ġf ound",
      "ĠL e",
      "Ġp ubl",
      "Ġ1 0",
      "c k",
      "ar s",
      "Ġd o",
      "Ġ ent",
      "if ic",
      "em ber",
      "Ġl oc",
      "or n",
      "ow ever",
      "Ġp r",
      "Ġal bum",
      "Ġyear s",
      "Ġs y",
      "Ġs et",
      "ic s",
      "Ġagain st",
      "Ġnum ber",
      "m ber",
      "Ġ /",
      "Ġs ur",
      "Ġe le",
      "Ġ 0",
      "ver y",
      "ĠA ust",
      "ain ed",
      "Ġg r",
      "ĠS c",
      "he s",
      "in ce",
      "ĠâĢ Ķ",
      "Ġp o",
      "i ous",
      "Ġ1 2",
      "Ġser ies",
      "i el",
      "vel op",
      "Ġin v",
      "ot her",
      "an e",
      "if e",
      "o h",
      "Ġkn own",
      "Ġbec ame",
      "at ive",
      "Ġc ap",
      "Ġinclud ing",
      "Ġde c",
      "Ġe p",
      "Ġw ell",
      "aus e",
      "p en",
      "e nd",
      "Ġbo th",
      "ĠEn g",
      "ig in",
      "Ġthe n",
      "t en",
      "Ġte am",
      "Ġb ack",
      "ur ch",
      "Ġp res",
      "ĠR o",
      "iv ed",
      "Ġad d",
      "he n",
      "Ġm on",
      "ir d",
      "Ġm ain",
      "Ġsever al",
      "it s",
      "j ect",
      "Ġper form",
      "Ġd ire",
      "od e",
      "v en",
      "Ġ19 8",
      "over n",
      "ĠA fter",
      "it ies",
      "Ġtr ans",
      "ĠUn ited",
      "th ough",
      "Ġ19 4",
      "Ġre ce",
      "id ent",
      "Ġe m",
      "u res",
      "t on",
      "Ġl ong",
      "Ġsh ip",
      "Ġm any",
      "is ed",
      "Ġep is",
      "i o",
      "Ġdes c",
      "Ġs ing",
      "ut e",
      "a j",
      "ow er",
      "Ġ est",
      "Ġchar ac",
      "Ġp op",
      "Ġst ud",
      "ment s",
      "s on",
      "Ġde velop",
      "al e",
      "ĠG er",
      "Ġc ity",
      "p r",
      "ĠBrit ish",
      "Ġ1 6",
      "Ġbe gan",
      "ĠS h",
      "t il",
      "Ġb l",
      "Ġ1 1",
      "Ġor igin",
      "Ġ19 7",
      "Ġde p",
      "Ġcomp le",
      "Ġcont in",
      "ĠAmeric an",
      "f ul",
      "el f",
      "a red",
      "Ġl ike",
      "ĠAust ral",
      "l ed",
      "at her",
      "Ġ1 7",
      "an n",
      "Ġm in",
      "Ġm ill",
      "is e",
      "Ġ1 5",
      "e k",
      "Ġg o",
      "ĠM ay",
      "un e",
      "Ġear ly",
      "i red",
      "Ġal ong",
      "ĠJ oh",
      "i ver",
      "ĠI nd",
      "Ġ19 6",
      "ro ss",
      "iel d",
      "a ir",
      "Ġsh ow",
      "Ġc ould",
      "er t",
      "ĠW ar",
      "Ġs ign",
      "er n",
      "ain s",
      "Ġc ar",
      "o b",
      "Ġp ol",
      "o ol",
      "Ġm il",
      "ĠS he",
      "u ch",
      "Ġle ad",
      "Ġar t",
      "Ġt er",
      "Ġthe se",
      "Ġc re",
      "Ġcent ury",
      "Ġs m",
      "r am",
      "Ġd id",
      "em b",
      "Ġk m",
      "u ally",
      "Ġcall ed",
      "Ġo b",
      "Ġlar ge",
      "u ed",
      "Ġd own",
      "Ġn ear",
      "Ġo per",
      "Ġd if",
      "ĠB r",
      "ĠJoh n",
      "i er",
      "d er",
      "Ġa ir",
      "Ġhis t",
      "Ġw ar",
      "Ġb r",
      "Ġb ro",
      "Ġm ay",
      "i ent",
      "ce pt",
      "Ġr un",
      "cc ess",
      "Ġun til",
      "Ġdes ign",
      "Ġfe at",
      "ĠA ug",
      "Ġhe ad",
      "op le",
      "Ġatt ack",
      "ĠAug ust",
      "st ru",
      "Ġl and",
      "Ġc rit",
      "Ġin f",
      "Ġm at",
      "Ġare a",
      "Ġepis ode",
      "an ge",
      "ak ing",
      "im es",
      "Ġdesc rib",
      "i vers",
      "t ing",
      "Ġret urn",
      "vi ew",
      "an c",
      "ĠSe pt",
      "Ġst art",
      "Ġdis c",
      "Ġs aid",
      "Ġd ist",
      "ial ly",
      "te nd",
      "ĠSept ember",
      "u red",
      "Ġpro v",
      "in s",
      "Ġan y",
      "g est",
      "ĠU S",
      "m y",
      "Ġth ough",
      "i am",
      "ĠI s",
      "Ġg overn",
      "a z",
      "ul l",
      "Ġsupp ort",
      "ĠB e",
      "Ġoff ic",
      "id ed",
      "Ġ Z",
      "iz ed",
      "aj or",
      "Ġgro up",
      "p ed",
      "Ġs ame",
      "e p",
      "Ġn orth",
      "ĠCom m",
      "Ġp ass",
      "ĠW h",
      "ers on",
      "o ot",
      "am ed",
      "Ġre p",
      "Ġa round",
      "Ġmus ic",
      "Ġm et",
      "ĠThe y",
      "Ġo wn",
      "Ġus e",
      "ĠN orth",
      "Ġrele ased",
      "Ġe ff",
      "x t",
      "i et",
      "Ġbec ause",
      "Ġo pen",
      "ĠCh r",
      "st em",
      "ĠW orld",
      "Ġsu ccess",
      "Ġo cc",
      "le y",
      "os ed",
      "Ġim p",
      "Ġmill ion",
      "t y",
      "o ok",
      "h y",
      "Ġg ener",
      "Ġf am",
      "Ġst r",
      "ib le",
      "Ġfollow ing",
      "Ġd am",
      "Ġs ix",
      "ĠC on",
      "ward s",
      "ac ed",
      "Ġpe ople",
      "ĠJ u",
      "ĠAl l",
      "ch ool",
      "Ġad v",
      "in k",
      "Ġc ount",
      "Ġs im",
      "Ġsm all",
      "ĠJ une",
      "r ap",
      "Ġin st",
      "en n",
      "Ġe ach",
      "Ġg u",
      "ĠO ct",
      "iv ision",
      "Ġb att",
      "ĠF r",
      "Ġ1 3",
      "ĠH owever",
      "v ing",
      "Ġs outh",
      "Ġp oin",
      "a h",
      "ut ion",
      "rop ical",
      "ĠC ol",
      "Ġin s",
      "ĠS outh",
      "ain ing",
      "om an",
      "ĠM e",
      "o ber",
      "ist s",
      "ĠOct ober",
      "Ġf ive",
      "Ġbe l",
      "Ġ19 1",
      "Ġv i",
      "u es",
      "olog y",
      "ĠB l",
      "Ġcont ro",
      "Ġ19 5",
      "et s",
      "v es",
      "Ġcons id",
      "il t",
      "el s",
      "Ġm od",
      "Ġex p",
      "Ġre port",
      "Ġl ife",
      "ord ing",
      "os s",
      "m s",
      "ĠC l",
      "Ġ ed",
      "Ġcharac ter",
      "Ġs ince",
      "Ġcon c",
      "Ġv ar",
      "ou se",
      "ĠC ar",
      "ĠSt ates",
      "Ġg un",
      "ĠF or",
      "Ġto ok",
      "ate ly",
      "ĠT e",
      "Ġw in",
      "av y",
      "Ġ1 4",
      "Ġan n",
      "Ġst ate",
      "ĠP l",
      "Ġn ame",
      "Ġ19 3",
      "m ed",
      "u c",
      "em ent",
      "y l",
      "al es",
      "ro te",
      "Ġ $",
      "ĠI I",
      "ct or",
      "Ġt it",
      "as h",
      "Ġm ajor",
      "iss ion",
      "Ġp rom",
      "Ġex t",
      "on y",
      "av ing",
      "Ġcl ass",
      "Ġsy stem",
      "Ġrece ived",
      "l ish",
      "Ġfin al",
      "i um",
      "t le",
      "ĠJu ly",
      "ur al",
      "ĠA d",
      "em pt",
      "ĠJ an",
      "vi ous",
      "u th",
      "Ġwh at",
      "Ġ [",
      "Ġ ]",
      "ro w",
      "ag ue",
      "ĠChr ist",
      "Ġhe l",
      "v ent",
      "m in",
      "Ġw ill",
      "Ġplay ed",
      "ĠF e",
      "Ġappe ar",
      "Ġj ust",
      "pe ct",
      "Ġc are",
      "if ied",
      "Ġpos ition",
      "u ary",
      "Ġpart ic",
      "Ġn ow",
      "Ġl ast",
      "Ġwe ek",
      "at s",
      "ian s",
      "Ġl ate",
      "Ġl ine",
      "p le",
      "Ġp ort",
      "Ġ %",
      "ag ed",
      "Ġst ru",
      "ĠH er",
      "Ġpubl ic",
      "Ġc amp",
      "ion al",
      "ore d",
      "Ġw on",
      "Ġd ue",
      "ĠE u",
      "ĠD uring",
      "Ġt y",
      "Ġbu ild",
      "Ġgovern ment",
      "Ġ. .",
      "Ġal low",
      "c ess",
      "Ġt ri",
      "Ġg iv",
      "Ġ2 5",
      "Ġle ft",
      "Ġinc re",
      "Ġ3 0",
      "er y",
      "Ġwith in",
      "Ġ ri",
      "b all",
      "Ġst orm",
      "Ġdescrib ed",
      "Ġ.. .",
      "ical ly",
      "ide o",
      "ĠG u",
      "od y",
      "ĠM an",
      "Ġinclud ed",
      "a im",
      "d om",
      "Ġm uch",
      "Ġatt empt",
      "Ġre st",
      "Ġw rote",
      "ĠY ork",
      "Ġm en",
      "ction s",
      "ĠN ove",
      "ĠJ ap",
      "Ġapp ro",
      "ĠGer man",
      "ĠJap an",
      "Ġde ath",
      "b le",
      "il ity",
      "ĠC an",
      "Ġan other",
      "Ġres p",
      "ĠJan uary",
      "g in",
      "Ġm ar",
      "Ġal though",
      "i od",
      "ag es",
      "ant s",
      "Ġpl ace",
      "Ġres ult",
      "Ġt urn",
      "Ġsing le",
      "Ġn amed",
      "Ġo ld",
      "Ġ vers",
      "er v",
      "Ġto p",
      "ur ther",
      "Ġbo ok",
      "Ġev en",
      "ĠNove mber",
      "ivers ity",
      "ĠT r",
      "Ġpre vious",
      "in a",
      "ĠThe re",
      "ent ly",
      "Ġb ased",
      "Ġest ab",
      "it al",
      "ĠN ational",
      "Ġre f",
      "ĠB att",
      "Ġpos s",
      "Ġh ome",
      "Ġor gan",
      "ĠMar ch",
      "b y",
      "om in",
      "Ġcon stru",
      "ĠK ing",
      "Ġp ower",
      "ĠA pr",
      "Ġpro g",
      "Ġbu ilt",
      "Ġdif fer",
      "ĠApr il",
      "Ġw ay",
      "Ġspec ies",
      "Ġ if",
      "Ġcon f",
      "Ġk ill",
      "Ġcomm and",
      "Ġev ent",
      "Ġw orld",
      "l ing",
      "it ary",
      "ra ft",
      "o le",
      "ak es",
      "Ġsh ort",
      "n er",
      "ren ch",
      "g et",
      "Ġp erson",
      "ce mber",
      "ĠDe cember",
      "a x",
      "Ġ very",
      "ĠP ro",
      "op s",
      "Ġch ild",
      "ĠEu ro",
      "Ġre qu",
      "Ġl it",
      "Ġth ose",
      "ĠC ity",
      "Ġg ames",
      "Ġst ar",
      "ĠG r",
      "i ence",
      "an ces",
      "Ġth ird",
      "Ġper iod",
      "ĠP h",
      "Ġfam ily",
      "ac hed",
      "Ġ19 2",
      "Ġmo ved",
      "c hed",
      "id es",
      "Ġs l",
      "ĠB y",
      "ĠR iver",
      "ĠF rench",
      "Ġen g",
      "ĠEng land",
      "is m",
      "Ġ1 00",
      "Ġv ideo",
      "Ġex pl",
      "Ġtr ack",
      "Ġbel ie",
      "Ġc ame",
      "Ġh and",
      "ĠN o",
      "he l",
      "re t",
      "Ġs chool",
      "Ġc our",
      "ĠM us",
      "Ġv is",
      "at ure",
      "ard s",
      "ri pt",
      "Ġf ew",
      "ĠH is",
      "ĠW hen",
      "Ġne xt",
      "Ġp ar",
      "ul ation",
      "Ġcol le",
      "oc i",
      "Ġh al",
      "Ġmon th",
      "Ġw ater",
      "Ġd est",
      "Ġh um",
      "Ġl ist",
      "he st",
      "ed er",
      "Ġb est",
      "il ar",
      "id ge",
      "ĠEuro pe",
      "Ġm ed",
      "Ġre pl",
      "Ġ200 9",
      "Ġloc al",
      "Ġadd ition",
      "Ġ Q",
      "Ã ©",
      "Ġs ent",
      "en e",
      "ĠA nd",
      "ak en",
      "Ġcap t",
      "Ġ Â",
      "Ġs ide",
      "Ġpro te",
      "Ġp ri",
      "Ġl ed",
      "Ġvi ew",
      "Ġs old",
      "Ġre view",
      "us s",
      "p or",
      "v al",
      "Ġo pp",
      "Ġw ind",
      "pe nd",
      "iv es",
      "Ġro ad",
      "Ġis s",
      "ĠCh urch",
      "s elf",
      "en se",
      "ĠP ar",
      "ĠG e",
      "Ġc r",
      "ĠS p",
      "Ġ200 8",
      "is on",
      "Ġ201 0",
      "re ad",
      "as tern",
      "Ġm ake",
      "Ġro le",
      "g er",
      "Ġpres ent",
      "Ġst and",
      "Ġto wn",
      "Ġorigin al",
      "Ġd em",
      "Ġfor mer",
      "es e",
      "og rap",
      "Ġa uth",
      "Ġm emb",
      "Ġcontin ued",
      "Ġc aus",
      "en ces",
      "Ġm ark",
      "a ff",
      "ur ric",
      "Ġst ill",
      "ĠD ivision",
      "s ide",
      "Ġw est",
      "Ġe ast",
      "Ġeff ect",
      "Ġt ro",
      "Ġcl aim",
      "ĠW ill",
      "on t",
      "Ġf urther",
      "Ġhist ory",
      "or ies",
      "ĠB o",
      "Ġr ight",
      "Ġle g",
      "Ġb as",
      "Ġm id",
      "Ġg reat",
      "Ġhe ld",
      "ĠW e",
      "Ġst ory",
      "ut ed",
      "Ġdef e",
      "g ed",
      "in ed",
      "Ġof ten",
      "Ġfor ces",
      "ens ive",
      "le v",
      "Ġex per",
      "Ġam ong",
      "Ġm ove",
      "Ġsu g",
      "Ġstr ong",
      "ĠSt ate",
      "ĠCom p",
      "a ur",
      "ĠE ar",
      "re w",
      "as ter",
      "ro y",
      "Ġ200 7",
      "g y",
      "i k",
      "Ġre fer",
      "Ġday s",
      "Ġc over",
      "ĠW ith",
      "Ġcl ub",
      "Ġinf l",
      "Ġm y",
      "el t",
      "Ġt ropical",
      "Ġar ch",
      "Ġcare er",
      "Ġplay er",
      "Ġconsid ered",
      "ĠG ener",
      "Ġt ake",
      "Ġ2 1",
      "Ġin it",
      "Ġ2 3",
      "Ġde b",
      "Ġy ou",
      "Ġim port",
      "Ġb re",
      "Ġn ort",
      "am b",
      "im ent",
      "ot t",
      "ron t",
      "Ġmil itary",
      "tern ational",
      "Ġcont r",
      "Ġj oin",
      "tend ed",
      "Ġre al",
      "ĠO r",
      "b ru",
      "Ġwith out",
      "amp ions",
      "p ar",
      "Ġs ay",
      "Ġtr ad",
      "Ġmemb ers",
      "Ġsug gest",
      "ar r",
      "le t",
      "Ġ2 4",
      "ĠP e",
      "e ad",
      "at ter",
      "Ġcomp any",
      "Ġcomm un",
      "Ġmat ch",
      "Ġhal f",
      "Ġt em",
      "es tern",
      "ĠA cc",
      "h am",
      "i or",
      "Ġb and",
      "Ġto t",
      "Ġe very",
      "qu e",
      "Ġ201 1",
      "Ġinv ol",
      "al ion",
      "Ġser v",
      "Ġship s",
      "Ġ201 2",
      "Ġsim ilar",
      "ĠFe bru",
      "ĠFebru ary",
      "Ġpl an",
      "Ġbe h",
      "Ġrecord ed",
      "Ġ es",
      "Ġf ire",
      "ĠM c",
      "Ġor der",
      "n ess",
      "ri ed",
      "Ġle vel",
      "l s",
      "a e",
      "Ġtit le",
      "p s",
      "Ġf t",
      "Ġfin d",
      "Ġpol it",
      "Ġdiffer ent",
      "p ite",
      "Ġt w",
      "Ġp h",
      "ĠOn e",
      "al k",
      "Ġ2 2",
      "ĠCh ar",
      "ĠEng lish",
      "l er",
      "Ġh owever",
      "ĠF l",
      "ri end",
      "ĠSt e",
      "urric ane",
      "ĠAcc ording",
      "Ġ200 6",
      "ress ion",
      "th ing",
      "ĠGener al",
      "Ġs it",
      "it ar",
      "Ġp ost",
      "ĠP r",
      "is ter",
      "ĠE d",
      "res ent",
      "ber t",
      "ĠAl though",
      "ĠUn iversity",
      "Ġsong s",
      "Ġl ow",
      "ĠA f",
      "Ġan t",
      "Ġpubl ished",
      "Ġf r",
      "ou ther",
      "outher n",
      "Ġcomm on",
      "Ġpro p",
      "un g",
      "Ġf ield",
      "m p",
      "um ent",
      "Ġwrit ten",
      "m e",
      "her n",
      "Ġ2 6",
      "Ġv ict",
      "Ġar ri",
      "Ġp at",
      "ĠAustral ian",
      "ĠAustral ia",
      "n e",
      "en g",
      "Ġl a",
      "Ġl ost",
      "ĠB ro",
      "ail ed",
      "ent ion",
      "ĠC ount",
      "Ġvers ion",
      "o on",
      "y le",
      "Ġ !",
      "Ġc ur",
      "ro du",
      "Ġde cl",
      "Ġbec ome",
      "Ġprodu ced",
      "ĠR oman",
      "c hes",
      "Ġf ore",
      "Ġf oot",
      "Ġd el",
      "Ġor d",
      "ĠAn g",
      "re en",
      "Ġrele ase",
      "b s",
      "Ġm ag",
      "le ar",
      "Ġt imes",
      "Ġa v",
      "Ġg ave",
      "lev ision",
      "ĠP ort",
      "b e",
      "Ġst at",
      "Ġcomp et",
      "a i",
      "Ġh our",
      "Ġinfl u",
      "Ġsign ific",
      "ot s",
      "qu ad",
      "Ġreturn ed",
      "Ġpartic ular",
      "ĠM in",
      "Ġreport ed",
      "ĠCan ad",
      "c raft",
      "Ġs ite",
      "se qu",
      "Ġdire ct",
      "ar ch",
      "al y",
      "Ġcom b",
      "Ġauth or",
      "re et",
      "Ġpro ject",
      "Ġl ess",
      "ition s",
      "Ġdest roy",
      "Ġtot al",
      "ĠA ir",
      "Ġ2 7",
      "ĠR ich",
      "Ġpoin t",
      "a ul",
      "Ġm aking",
      "Ġinclud e",
      "Ġgiv en",
      "Ġh aving",
      "Ġch ang",
      "Ġar m",
      "ĠWill iam",
      "er ing",
      "on es",
      "Ġw ant",
      "iet y",
      "ĠAf ric",
      "ĠThe se",
      "ur s",
      "Ġhist or",
      "st it",
      "om et",
      "o v",
      "Ġn ight",
      "Ġse en",
      "Ġcount ry",
      "ĠC ent",
      "pe c",
      "f ic",
      "ĠM ich",
      "os p",
      "Ġprodu ction",
      "Ġcontro l",
      "re st",
      "re am",
      "Ġ2 8",
      "Ġp ress",
      "Ġg round",
      "Ġy oun",
      "Ġne ver",
      "ĠLe ague",
      "ampions hip",
      "Ġch urch",
      "ren t",
      "Ġstru ct",
      "ar n",
      "ĠS ong",
      "ĠRo ad",
      "Ġl ight",
      "ĠD es",
      "Ġac ross",
      "Ġdevelop ed",
      "Ġmil es",
      "Ġob s",
      "a pe",
      "en c",
      "Ġd r",
      "Ġpop ular",
      "ĠGe or",
      "Ġd et",
      "ac es",
      "ĠP ark",
      "Ġpro f",
      "ive ly",
      "Ġf re",
      "Ġ X",
      "pl oy",
      "Ġe qu",
      "ĠAmeric a",
      "Ġrep resent",
      "l ine",
      "ic es",
      "ch n",
      "ĠP er",
      "ĠM iss",
      "ĠSc ient",
      "Ġre ad",
      "Ġe ight",
      "a ign",
      "Ġa ff",
      "us ed",
      "Ġre ached",
      "ĠS im",
      "ab ly",
      "Ġ201 3",
      "iz e",
      "ĠA b",
      "Ġus ing",
      "ĠWh ile",
      "Ġ &",
      "iv il",
      "Ġhim self",
      "l ished",
      "s h",
      "Ġfor ce",
      "iv ing",
      "Ġsh ould",
      "Ġsignific ant",
      "Ġf ar",
      "ĠW est",
      "Ġear l",
      "ĠA m",
      "ree k",
      "Ġprog ram",
      "Ġs ol",
      "ant ry",
      "Ġcrit ic",
      "g round",
      "Ġs ound",
      "Ġb ody",
      "Ġ5 0",
      "ĠAs s",
      "ĠJapan ese",
      "Ġp ain",
      "Ġis land",
      "m ost",
      "Ġc ross",
      "ĠJ ack",
      "in c",
      "Ġto o",
      "pl ay",
      "as k",
      "Ġst ated",
      "av es",
      "Ġestab lished",
      "ra w",
      "Ġform ed",
      "Ġgun s",
      "Ġchild ren",
      "n a",
      "ir on",
      "Ġact iv",
      "Ġl im",
      "Ġare as",
      "Ġpop ulation",
      "it her",
      "Ġf act",
      "Ġ19 0",
      "Ġdisc over",
      "Ġm m",
      "a ugh",
      "Ġf ront",
      "Ġthrough out",
      "Ġsuccess ful",
      "Ġa way",
      "im ately",
      "Ġint rodu",
      "Ġann oun",
      "ĠR oy",
      "Ġmod ern",
      "Ġc ast",
      "Ġf ull",
      "is ing",
      "ĠB ar",
      "Ġ2 9",
      "ĠP ol",
      "ĠL ond",
      "Ġloc ated",
      "Ġdevelop ment",
      "ĠLond on",
      "Ġl aw",
      "Ġsu ff",
      "Ġbatt le",
      "ĠRe g",
      "at ic",
      "Ġse ven",
      "Ġd iv",
      "r ation",
      "Ġw ent",
      "Ġd ied",
      "Ġnot ed",
      "Ġcl ose",
      "olog ical",
      "Ġent ire",
      "Ġthough t",
      "Ġh ig",
      "c on",
      "o x",
      "Ġ ide",
      "Ġst e",
      "ist ed",
      "Ġman ag",
      "Ġs k",
      "Ġh ow",
      "Ġn ove",
      "ut es",
      "Ġse e",
      "Ġpo em",
      "Ġg en",
      "ĠH igh",
      "ĠO ld",
      "Ġte levision",
      "ubl ic",
      "Ġwrit ing",
      "i ers",
      "Ġc y",
      "Ġconstru ction",
      "Ġhum an",
      "Ġimport ant",
      "om b",
      "ric k",
      "ĠAr my",
      "Ġsur v",
      "al th",
      "Ġoffic ial",
      "g es",
      "Ġm ix",
      "Ġinter est",
      "n t",
      "Ġc ult",
      "Ġe l",
      "om en",
      "Ġg ood",
      "id ence",
      "Ġr ange",
      "Ġpr im",
      "Ġw at",
      "Ġf ight",
      "ĠC are",
      "o pe",
      "Ġf riend",
      "Ġp it",
      "Ġl ook",
      "Ġstart ed",
      "ic o",
      "ĠD av",
      "ie f",
      "Ġfe et",
      "Ġperform ed",
      "ĠComp any",
      "Ġst yle",
      "Ġne ed",
      "Ġcamp aign",
      "ĠN e",
      "Ġch art",
      "Ġtro ops",
      "ĠD yl",
      "Ġvar ious",
      "Ġkill ed",
      "ĠDyl an",
      "Ġw ide",
      "Ġcomple te",
      "ĠCount y",
      "e c",
      "ad es",
      "Ġperform ance",
      "Ġst ri",
      "Ġr ad",
      "Ġreg ion",
      "ĠPh il",
      "Ġf ather",
      "is c",
      "t ain",
      "Ġto ur",
      "ĠJ ames",
      "ord s",
      "Ġcaus ed",
      "Ġt en",
      "Ġa ge",
      "Ġro ute",
      "Ġty p",
      "Ġbuild ing",
      "y ing",
      "re land",
      "it ted",
      "Ġf elt",
      "Ġh ouse",
      "ĠI reland",
      "in ation",
      "Ġk e",
      "Ġ3 1",
      "Ġplay ers",
      "it ive",
      "Ġc at",
      "Ġp ra",
      "ĠS up",
      "Ġhe avy",
      "Ġev ents",
      "Ġpe ak",
      "Ġp ut",
      "Ġ200 5",
      "Ġhigh way",
      "Ġrel ig",
      "Ġd ri",
      "ĠY ou",
      "b r",
      "f all",
      "as ing",
      "Ġn ational",
      "ig ade",
      "ĠF eder",
      "Ġfollow ed",
      "Ġco ast",
      "Ġdo es",
      "a f",
      "ĠSe c",
      "w ork",
      "Ġte chn",
      "ĠT o",
      "st er",
      "ĠR ou",
      "ĠIs land",
      "ĠBl ack",
      "us h",
      "Ġwh ite",
      "Ġme et",
      "ĠScient ology",
      "Ġc or",
      "Ġf em",
      "ĠH ist",
      "Ġ18 9",
      "ress ed",
      "ĠAt l",
      "Ġcomple ted",
      "Ġdam age",
      "Ġab le",
      "Ġdif fic",
      "Ġdiffic ult",
      "in ess",
      "ac y",
      "Ġbe gin",
      "Ġg et",
      "Ġv ill",
      "og n",
      "Ġass oci",
      "Ġmonth s",
      "Ġle ast",
      "ough t",
      "Ġother s",
      "re g",
      "at or",
      "Ġe astern",
      "ĠBatt alion",
      "Ġt re",
      "en ced",
      "Ġb all",
      "Ġl o",
      "ir c",
      "ĠâĢ Ļ",
      "Ġ200 3",
      "Ġag re",
      "l o",
      "Ġc he",
      "Ġser ved",
      "Ġrem ained",
      "p ing",
      "Ġs oc",
      "Ġs outhern",
      "ĠE l",
      "iv id",
      "our n",
      "Ġtr ave",
      "le et",
      "ĠS ome",
      "rough t",
      "Ġc ou",
      "Ġf av",
      "Ġm i",
      "ĠC or",
      "ant ic",
      "r ing",
      "y n",
      "Ġb ar",
      "Ġon ce",
      "Ġpro t",
      "ab or",
      "Ġest im",
      "u ck",
      "Ġ ve",
      "Ġc as",
      "Ġf ac",
      "Ġpro cess",
      "Ġappe ared",
      "Ġprom ot",
      "Ġf ig",
      "al d",
      "Ġwork s",
      "Ġbeh ind",
      "Ġr ank",
      "Ġrel ations",
      "Ġcre ated",
      "Ġc ert",
      "Ġbl ack",
      "Ġair craft",
      "Ġre du",
      "Ġl oss",
      "Ġ4 0",
      "Ġadd ed",
      "Ġpolit ical",
      "Ġh old",
      "Ġre d",
      "Ġbec om",
      "ect ed",
      "iz ation",
      "Ġorigin ally",
      "e pend",
      "Ġg od",
      "ri es",
      "Ġkn ow",
      "Ġ er",
      "Ġc oun",
      "Ġb ase",
      "ĠT own",
      "am ent",
      "Ġcharac ters",
      "ĠRou te",
      "ĠH a",
      "ĠK e",
      "Ġbro ad",
      "ĠMe x",
      "ĠM or",
      "Ġ200 4",
      "amp le",
      "Ġocc ur",
      "b o",
      "i que",
      "Ġcon d",
      "ip p",
      "Ġ18 8",
      "Ġspec ial",
      "Ġlit tle",
      "ĠRoy al",
      "f ord",
      "ĠG l",
      "Ġs on",
      "Ġf if",
      "Ġle t",
      "Ġ201 5",
      "he ast",
      "Ġb orn",
      "ĠB ut",
      "a el",
      "Ġb us",
      "Ġp red",
      "Ġapp oin",
      "o ice",
      "Ġ ident",
      "he re",
      "Ġs aw",
      "ĠT wo",
      "ri e",
      "ĠE x",
      "Ġro ck",
      "Ġfeat ures",
      "Ġinst ead",
      "ĠCare y",
      "Ġa ver",
      "ĠS an",
      "ot a",
      "Ġcom ment",
      "ĠC al",
      "Ġcrit ics",
      "Ġal most",
      "em y",
      "Ġnove l",
      "Ġtrad ition",
      "Ġa ction",
      "Ġa ward",
      "Ġs um",
      "it ing",
      "Ġm or",
      "Ġl ive",
      "ĠO ther",
      "Ġprodu c",
      "d ay",
      "Ġt aken",
      "Ġse par",
      "Ġro und",
      "Ġfour th",
      "Ġdec ided",
      "Ġrec ogn",
      "Ġgro w",
      "Ġannoun ced",
      "ĠS y",
      "ĠC o",
      "ĠP al",
      "ĠE ast",
      "ach ing",
      "ount ain",
      "ĠRe c",
      "Ġoper ations",
      "Ä ģ",
      "Ġw all",
      "Ġla un",
      "r ay",
      "le ct",
      "Ġl ack",
      "ĠH am",
      "Ġcom mer",
      "Ġv oc",
      "Ġserv ice",
      "g r",
      "ĠS om",
      "ĠW ales",
      "Ġ18 6",
      "Ġind ivid",
      "med i",
      "ĠKing dom",
      "a u",
      "d le",
      "Ġa ud",
      "Ġg l",
      "quad ron",
      "Ġw ife",
      "ĠM ag",
      "ol ution",
      "ĠSt reet",
      "ĠRe p",
      "Ġt est",
      "Ġf un",
      "Ġb ird",
      "Ġre v",
      "Ġst age",
      "Ġpro ble",
      "ign ed",
      "Ġto wards",
      "Ġm ember",
      "Ġfor t",
      "ang u",
      "Ġevent ually",
      "Ġc irc",
      "Ġm ass",
      "ĠC ro",
      "ĠM on",
      "iv al",
      "Ġ18 5",
      "Ġri ver",
      "f ield",
      "m ar",
      "w est",
      "al ity",
      "Ġre b",
      "ur b",
      "Ġfin ished",
      "az ine",
      "ĠDav id",
      "n ed",
      "Ġs w",
      "Ġm iss",
      "Ġst ars",
      "ill a",
      "ric t",
      "Ġsub sequ",
      "Ġnort hern",
      "ĠH ar",
      "Ġacc om",
      "Ġfeat ured",
      "ĠMus ic",
      "Ġm other",
      "ĠS o",
      "Ġar g",
      "Ġmet res",
      "Ġprof ess",
      "c il",
      "in t",
      "Ġb rought",
      "Ġas k",
      "Ġv al",
      "ĠCh ampionship",
      "Ġresp ons",
      "Ġc ase",
      "Ġf all",
      "Ġh urricane",
      "il le",
      "Ġe ither",
      "ap er",
      "art ment",
      "Ġres pect",
      "Ġlar gest",
      "ĠFr ance",
      "Ġhour s",
      "in al",
      "or se",
      "Ġh it",
      "ce ed",
      "Ġex c",
      "Ġac cept",
      "Ġcre w",
      "Ġhel p",
      "Ġyoun g",
      "enc y",
      "Ġc e",
      "Ġh ost",
      "ĠP res",
      "Ġan im",
      "Ġsu per",
      "Ġpl aced",
      "Ġcent ral",
      "Ġreg ular",
      "Ġweek s",
      "Ġcur rent",
      "Ġd ou",
      "ĠS w",
      "ĠH ill",
      "ĠD ay",
      "Ġse x",
      "Ġsc ored",
      "Ġind ic",
      "c ial",
      "e al",
      "Ġm ater",
      "ĠM er",
      "ĠB ill",
      "ĠF rom",
      "Ġup on",
      "ĠGer m",
      "Ġgo al",
      "Ġeff ort",
      "hy s",
      "o ff",
      "Ġb urn",
      "ĠC up",
      "ĠP aul",
      "ĠF ollow",
      "ĠN avy",
      "os aur",
      "Ġr ather",
      "ĠS er",
      "os ing",
      "Ġpro b",
      "ĠRo bert",
      "Ġprov ided",
      "ĠComm and",
      "Ġimp ro",
      "ĠFollow ing",
      "c her",
      "Ã ¡",
      "Ġc ost",
      "ing ton",
      "Ġwind s",
      "con om",
      "Ġrelations hip",
      "Ġto get",
      "Ġn on",
      "ul ly",
      "Ġallow ed",
      "Ġtoget her",
      "Ġ ver",
      "Ġc ut",
      "as ion",
      "st ant",
      "ĠM ad",
      "od es",
      "Ġv ol",
      "Ġen c",
      "cept ion",
      "Ġappear ance",
      "u ation",
      "Ġn uc",
      "Ġbe g",
      "ĠIn ternational",
      "Ġplay ing",
      "Ġrem o",
      "Ġele ments",
      "ann ed",
      "ĠGr and",
      "ĠD u",
      "Ġex ample",
      "Ġ3 5",
      "Ġinv est",
      "Ġdire cted",
      "ĠInd ian",
      "ĠB est",
      "Ġcol l",
      "Ġind ust",
      "Ġlead ing",
      "Ġopen ed",
      "Ġpoin ts",
      "m b",
      "Ġc reat",
      "Ġb ur",
      "Ġst ren",
      "way s",
      "Ġdef end",
      "Ġcour t",
      "Ġinvol ved",
      "ĠB er",
      "ĠJ ew",
      "Ġr a",
      "Ġr ul",
      "Ġk ing",
      "Ġsh ot",
      "Ġ5 00",
      "h ic",
      "ĠL ove",
      "Ġgener al",
      "Ġprevious ly",
      "Ġrepl aced",
      "c ast",
      "Ġf ree",
      "Ġre ve",
      "ch ie",
      "Ġpo et",
      "Ġbelie ved",
      "Ġw omen",
      "Ġc ell",
      "Ġl angu",
      "Ġcon du",
      "ĠF irst",
      "ĠO l",
      "ĠO ff",
      "Ġint ens",
      "Ġpr act",
      "Ġele ct",
      "Ġstren g",
      "ar ter",
      "Ġm ph",
      "ol l",
      "Ġse qu",
      "Ġde ter",
      "ĠG od",
      "Ġrem ains",
      "Ġme as",
      "Ġopen ing",
      "Ġun its",
      "ĠH en",
      "Ġcon dom",
      "Ġout side",
      "Ġev idence",
      "Ġdire ctor",
      "Ġav ail",
      "Ġwant ed",
      "Ġearl ier",
      "i us",
      "Ġm ot",
      "Ġ201 4",
      "ĠDe p",
      "e um",
      "Ã Ń",
      "Ġ iron",
      "Ġcon v",
      "ĠIn f",
      "Ġc ivil",
      "Ġse em",
      "ĠG ame",
      "ud e",
      "Ġ200 1",
      "Ġwork ed",
      "ict ion",
      "Ġdesign ed",
      "ĠBatt le",
      "ĠAng el",
      "Ġe y",
      "Ġe ver",
      "ĠM ed",
      "av al",
      "act ion",
      "Ġwork ing",
      "ĠChrist ian",
      "Ġvict ory",
      "Ġparticular ly",
      "ĠGeor ge",
      "l iam",
      "Ġh on",
      "ĠH ouse",
      "ish ing",
      "Ġtrans fer",
      "Ġgener ally",
      "ĠMex ico",
      "th od",
      "ĠP art",
      "Ġnew s",
      "Ġ197 0",
      "r ang",
      "Ġs our",
      "Ġin form",
      "ĠL ater",
      "ap s",
      "ĠCh ines",
      "ĠV iet",
      "ĠTh om",
      "Ġsc ene",
      "ograp hy",
      "ĠChines e",
      "Ġth ink",
      "port s",
      "ĠBrit ain",
      "Ġposs ible",
      "Ġw ood",
      "nd er",
      "ight s",
      "Ġme an",
      "Ġem b",
      "ĠEurope an",
      "ĠÂ °",
      "Ġord ered",
      "c ript",
      "Ġa chie",
      "ĠC r",
      "Ġqu ick",
      "Ġarri ved",
      "liam ent",
      "c om",
      "u el",
      "er ous",
      "ĠM ost",
      "ĠH all",
      "ĠE v",
      "Ġne g",
      "Ġter rit",
      "ĠAtl antic",
      "Ġestim ated",
      "Ġmater ial",
      "Ġs low",
      "an ia",
      "Ġh y",
      "os ition",
      "Ġcent er",
      "Ġjoin ed",
      "ĠRep ublic",
      "i ber",
      "r ated",
      "u le",
      "Ġc lear",
      "ent ial",
      "Ġn ine",
      "Ġn omin",
      "ĠC ap",
      "Ġst ation",
      "Ġy ards",
      "cl us",
      "Ġfl ood",
      "Ġem ploy",
      "ĠBr igade",
      "ĠPres ident",
      "c ent",
      "Ġf ace",
      "ĠA ct",
      "ĠM ark",
      "id a",
      "ĠP ac",
      "Ġex ist",
      "pt ion",
      "Ġab ove",
      "Ġeng ine",
      "ĠFl or",
      "Ġcy cl",
      "n es",
      "Ġ ill",
      "he ad",
      "at in",
      "at ors",
      "Ġp ers",
      "Ġre ason",
      "ĠA ward",
      "ay s",
      "um b",
      "bo ard",
      "f or",
      "m ing",
      "o id",
      "Ġt reat",
      "er ved",
      "or ing",
      "ĠS m",
      "Ġl eng",
      "ĠR ock",
      "ĠW al",
      "Ġ200 0",
      "ĠPl ay",
      "ĠHer o",
      "n el",
      "ĠR uss",
      "ell ow",
      "Ġsur f",
      "Ġstud io",
      "Ġincre ased",
      "Ġrequ ired",
      "ĠRich ard",
      "Ġbus iness",
      "a ut",
      "s el",
      "it er",
      "Ġf oc",
      "Ġp ast",
      "Ġth reat",
      "ĠC reek",
      "Ġch ange",
      "Ġdep ression",
      "Ġfoot ball",
      "Ġavail able",
      "Ġt rib",
      "Ġf und",
      "an ch",
      "em or",
      "rib uted",
      "Ġso on",
      "Ġsay ing",
      "a ult",
      "z e",
      "Ġc op",
      "Ġin j",
      "ĠI r",
      "ap p",
      "Ġ199 0",
      "Ġstud y",
      "ĠEar ly",
      "ĠDes pite",
      "t o",
      "st on",
      "Ġfor ced",
      "ĠB ay",
      "ain t",
      "Ġde al",
      "Ġ18 7",
      "ĠSc ott",
      "ĠZ eal",
      "Ġes c",
      "ĠZeal and",
      "ĠI m",
      "Ġwh om",
      "ell ing",
      "ĠPac ific",
      "o res",
      "in o",
      "Ġp ie",
      "Ġd i",
      "et work",
      "ĠE gy",
      "ĠV al",
      "Ġsign ed",
      "Ġturn ed",
      "Ġmanag er",
      "ĠFeder er",
      "Ġcommer cial",
      "Ġleng th",
      "ĠEgy pt",
      "A A",
      "t ar",
      "Ġb ill",
      "Ġl ines",
      "ĠB us",
      "ĠK ore",
      "Ġ4 5",
      "Ġim medi",
      "Ġreg ard",
      "Ġins p",
      "Ġcontr act",
      "Ġaver age",
      "d en",
      "u ter",
      "en ed",
      "Ġits elf",
      "Ġclaim ed",
      "Ġhig hest",
      "ĠS chool",
      "Ġe conom",
      "ĠM y",
      "ĠR ed",
      "Ġcom e",
      "Ġex ec",
      "ib ility",
      "Ġpre vent",
      "Ġdam aged",
      "read y",
      "Ġdefe ated",
      "x imately",
      "at ural",
      "Ġl y",
      "ĠF ort",
      "Ġde v",
      "Ġpart s",
      "Ġ6 0",
      "ĠY ear",
      "Ġass ist",
      "ĠWh ite",
      "Ġpartic ip",
      "ĠMich ael",
      "Ġfem ale",
      "o o",
      "t ies",
      "w h",
      "ĠG reat",
      "ĠG overn",
      "Ġy ard",
      "Ġdes pite",
      "Ġtrans port",
      "Ġestab lish",
      "Ġstruct ure",
      "Ġappoin ted",
      "ĠFlor ida",
      "Ġn ames",
      "am a",
      "Ġhe av",
      "Ġr ain",
      "Ġpo or",
      "l ess",
      "Ġf ailed",
      "Ġh ard",
      "Ġre n",
      "Ġ200 2",
      "ĠUn ion",
      "Ġacc ount",
      "Ġincre asing",
      "por ary",
      "Ġpra ised",
      "Ġrelig ious",
      "Ġprob ably",
      "ĠInf antry",
      "Ġp ur",
      "Ġm ach",
      "Ġd raw",
      "le cted",
      "Ġl ove",
      "Ġl atter",
      "Ġg ive",
      "Ġfor ward",
      "ĠL a",
      "ĠE m",
      "ank s",
      "Ġbro ther",
      "ĠÂ £",
      "ĠCanad a",
      "ĠAfric a",
      "Ġm ult",
      "Ġre se",
      "ou ri",
      "ĠM ary",
      "Ġwith d",
      "and ing",
      "Ġan c",
      "ĠO per",
      "Ġinit ially",
      "Ġcommun ity",
      "Ġt aking",
      "at a",
      "an a",
      "ut ive",
      "ll ed",
      "Ġocc up",
      "Ġpri v",
      "l ic",
      "Ġh ous",
      "ĠT imes",
      "Ġst op",
      "Ġst ates",
      "Ġal ready",
      "ĠO d",
      "Ġr ap",
      "oun ted",
      "Ġar my",
      "Ġdiscover ed",
      "Ġvill age",
      "ar ily",
      "Ġg old",
      "pe cted",
      "ess ion",
      "Ġinter view",
      "Ġcap ital",
      "ĠInd ia",
      "ĠSup er",
      "ĠHen ry",
      "Ġ -",
      "Ġs omet",
      "Ġin ternational",
      "th let",
      "ra z",
      "Ġdec ision",
      "Ġob ject",
      "ĠQ ue",
      "on se",
      "Ġw estern",
      "ir th",
      "ĠD on",
      "Ġse ction",
      "ĠTe ch",
      "ĠMiss ouri",
      "ad ed",
      "Ġcon n",
      "Ġr ace",
      "Ġpro per",
      "Ġdisc uss",
      "Ġsupport ed",
      "Ġaddition al",
      "Ġsold iers",
      "Ġdeb ut",
      "g o",
      "Ġf ly",
      "Ġp en",
      "Ġd ate",
      "ail s",
      "Ġsub ject",
      "Ġpass ed",
      "ĠThom as",
      "re me",
      "Ġb i",
      "Ġp hys",
      "Ġd on",
      "ĠM o",
      "ĠN Y",
      "Ġ18 3",
      "Ġ18 4",
      "Ġrem aining",
      "Ġgo ing",
      "Ġlit er",
      "Ġiss ue",
      "ĠViet n",
      "g g",
      "ic a",
      "Ġd ro",
      "ut ure",
      "Ġwh ose",
      "Ġk ey",
      "Ġend ed",
      "Ġ196 0",
      "Ġpol ice",
      "Ġter m",
      "Ġprov ide",
      "Ġappro ximately",
      "ĠHist ory",
      "Ġbegin ning",
      "Ġd oc",
      "ĠA c",
      "id ing",
      "fer ence",
      "Ġwrit er",
      "pec ially",
      "ĠReg iment",
      "Ġlangu age",
      "B C",
      "Ġin tended",
      "ar a",
      "an ish",
      "ĠM id",
      "Ġg re",
      "et t",
      "ĠP ri",
      "ord an",
      "Ġqu arter",
      "Ġrun ning",
      "Ġresp onse",
      "Ġlim ited",
      "ar ies",
      "ar ters",
      "al ed",
      "ur ity",
      "ĠJ ordan",
      "um e",
      "Ġle ague",
      "Ġro om",
      "ĠTh at",
      "Ġsc reen",
      "Ġdis play",
      "Ġfe el",
      "ĠCol le",
      "Ġes pecially",
      "Ġ ?",
      "Ġ z",
      "ac ing",
      "ĠM any",
      "Ġst ay",
      "el er",
      "ĠG old",
      "Ġsur round",
      "Ġsuggest ed",
      "Ġintrodu ced",
      "Ġd ivision",
      "Ġd augh",
      "ĠA g",
      "ĠC our",
      "ĠW estern",
      "ist ic",
      "Ġbet ter",
      "Ġacc ording",
      "Ġed uc",
      "Ġant i",
      "ĠGerm any",
      "b it",
      "ur t",
      "Ġde ad",
      "ag o",
      "Ġtr aining",
      "Ġshow s",
      "Ġmix ed",
      "ĠG ro",
      "Ġ3 6",
      "Ġlar ger",
      "Ġrun s",
      "h ib",
      "ĠT V",
      "Ġl ower",
      "Ġst aff",
      "ĠF ilm",
      "ill ery",
      "hed ral",
      "ĠII I",
      "Ġty pe",
      "Ġf uture",
      "il a",
      "ĠW il",
      "ab it",
      "wo od",
      "Ġoff ice",
      "Ġrem ain",
      "Ġbl ock",
      "Ġcapt ured",
      "Ġrefer red",
      "Ġchang es",
      "Ġcert ain",
      "Ġm er",
      "ul a",
      "ri an",
      "ate g",
      "ĠSt ud",
      "Ġen ough",
      "Ġdestroy ed",
      "ĠOl iv",
      "n ow",
      "u z",
      "is ions",
      "Ġto w",
      "ĠA wards",
      "est s",
      "ak er",
      "ĠCh ina",
      "Ġad op",
      "Ġmin or",
      "Ġpri or",
      "ĠPe ter",
      "x as",
      "Ġs ize",
      "Ġf leet",
      "Ġm ust",
      "il ities",
      "Ġde ep",
      "Ġ3 8",
      "Ġdis s",
      "Ġmost ly",
      "Ġnear ly",
      "Ġarch ae",
      "ĠMc C",
      "Ġfight ing",
      "b and",
      "v est",
      "Ġo p",
      "Ġf ood",
      "Ġm ight",
      "ĠT or",
      "ol ic",
      "ish op",
      "one y",
      "Ġind epend",
      "Ġcar ried",
      "Ġvi ol",
      "e th",
      "Ġp ot",
      "Ġp air",
      "Ġto ld",
      "le g",
      "ul f",
      "ul ated",
      "Ġj ourn",
      "Ġvis it",
      "ĠChar les",
      "Ġsomet imes",
      "b or",
      "s hip",
      "Ġh om",
      "ĠS ing",
      "id ents",
      "ĠJ in",
      "Ġv ot",
      "Ġex am",
      "Ġsc ript",
      "Ġsp ent",
      "Ġgu itar",
      "ĠCar ol",
      "ĠBro wn",
      "Ġpress ure",
      "ĠOld ham",
      "f ect",
      "Ġt ons",
      "Ġb omb",
      "Ġd omin",
      "ĠV ir",
      "ĠV ict",
      "Ġ4 00",
      "Ġpos itive",
      "Ġteam s",
      "Ġposition s",
      "ĠAss oci",
      "Ġagre ed",
      "Ġsurf ace",
      "m ond",
      "ar ing",
      "Ġm ale",
      "Ġm ention",
      "Ġd en",
      "ĠH ol",
      "ĠH ot",
      "ch ange",
      "Ġdis p",
      "Ġrecord ing",
      "hen s",
      "Ġfeat ure",
      "Ġgroup s",
      "min ist",
      "ĠGu itar",
      "u als",
      "Ġr ail",
      "Ġ7 5",
      "Ġbre ak",
      "ed y",
      "en es",
      "Ġm ur",
      "ĠS quadron",
      "ĠN ort",
      "um ents",
      "od ies",
      "Ġk il",
      "per or",
      "ĠSp anish",
      "Ġdefe at",
      "Ġmag azine",
      "ly mp",
      "ad y",
      "ac ted",
      "ĠM ac",
      "ver t",
      "ch ol",
      "ĠO lymp",
      "Ġch ap",
      "pl es",
      "Ġmo ving",
      "Ġcomple x",
      "Ġgo als",
      "Ġfore st",
      "osp ital",
      "rie f",
      "Ġlaun ched",
      "t r",
      "it ect",
      "Ġl ab",
      "Ġnot es",
      "Ġ8 0",
      "Ġmin utes",
      "Ġwin ning",
      "ĠIr ish",
      "s c",
      "as es",
      "ĠA le",
      "ĠB ack",
      "ĠR es",
      "ĠN ot",
      "if orn",
      "se c",
      "Ġpl anned",
      "Ġcomp an",
      "ĠV ar",
      "Ġinclud es",
      "ĠAr t",
      "ĠMan ila",
      "Ġconstru cted",
      "ĠCanad ian",
      "Ġfif th",
      "Ġsubsequ ently",
      "Ġ Ã",
      "ĠC ard",
      "ĠH el",
      "ĠP re",
      "ĠG al",
      "ĠJ er",
      "qu are",
      "Ġab s",
      "Ġrel ative",
      "ific ation",
      "Ġgr ad",
      "Ġconc ern",
      "Ġs at",
      "Ġc al",
      "ĠT y",
      "Ġl ay",
      "ĠD r",
      "ĠK h",
      "te en",
      "Ġcont ains",
      "ĠAr ab",
      "ron ic",
      "Ġmed ia",
      "o or",
      "u ing",
      "it te",
      "Ġre ach",
      "Ġse a",
      "qu arters",
      "Ġad ap",
      "Ġcomm ission",
      "Ġ199 5",
      "Ġent ered",
      "Ġlong er",
      "Ġfre qu",
      "Ġequ ip",
      "ĠCal iforn",
      "n ey",
      "Ġc ru",
      "Ġb ord",
      "Ġth ick",
      "ĠC ath",
      "ĠH urricane",
      "and s",
      "Ġle arn",
      "Ġcont em",
      "ĠComm ission",
      "ĠFr ank",
      "Ġreview s",
      "Ġprim ary",
      "Ġb irth",
      "ic ted",
      "ĠT ropical",
      "ĠS ince",
      "ce an",
      "ch ing",
      "Ġwe ap",
      "Ġset t",
      "Ġlike ly",
      "Ġide a",
      "ĠSec ond",
      "Ġproble ms",
      "Ġremo ved",
      "ĠJew ish",
      "i est",
      "Ġp are",
      "ĠS un",
      "ĠS oc",
      "ĠC ong",
      "ĠC oun",
      "Ġus ually",
      "Ġsc ore",
      "Ġcol on",
      "Ġqu est",
      "Ġ198 0",
      "Ġcoun ter",
      "ĠBill board",
      "Ġly ric",
      "r d",
      "at ory",
      "ĠT om",
      "ĠT em",
      "ĠT our",
      "Ġn etwork",
      "ĠC amp",
      "and on",
      "Ġsh own",
      "pp ed",
      "Ġfilm s",
      "Ġstud ents",
      "Ġmin ute",
      "Ġart illery",
      "Ġattack ed",
      "ĠOliv ier",
      "c ing",
      "Ġa ut",
      "Ġb rief",
      "Ġp urch",
      "as y",
      "Ġh ar",
      "ĠA pp",
      "Ġl ink",
      "ir ing",
      "ĠW he",
      "ĠU K",
      "Ġrec on",
      "Ġ201 6",
      "Ġen s",
      "Ġsp ace",
      "Ġ7 0",
      "Ġcons ist",
      "Ġappe ars",
      "Ġ194 0",
      "Ġ195 0",
      "i ation",
      "m en",
      "in ct",
      "Ġto uch",
      "Ġd ark",
      "ĠM et",
      "id s",
      "ĠF in",
      "ĠL ou",
      "Ġacc ess",
      "Ġloc ation",
      "Ġpres ident",
      "ĠChrist m",
      "Ġsl ight",
      "Ġexper ience",
      "Ġke ep",
      "Ġrank ed",
      "Ġbroad cast",
      "Ġprofess ional",
      "Ġinvest ig",
      "ĠAssoci ation",
      "ĠCaliforn ia",
      "m itted",
      "Ġn ature",
      "ĠM al",
      "Ġover all",
      "Ġthem sel",
      "Ġ199 8",
      "Ġinter se",
      "Ġam ount",
      "Ġattack s",
      "ĠFor ce",
      "Ġsuff ered",
      "Ġthemsel ves",
      "ent h",
      "ent y",
      "Ġl ived",
      "ĠM r",
      "ĠP enn",
      "und red",
      "Ġle aving",
      "Ġun it",
      "Ġmove ment",
      "Ġquick ly",
      "c o",
      "it es",
      "Ġc er",
      "Ġf low",
      "Ġf ail",
      "Ġto urn",
      "om m",
      "ad s",
      "ĠM il",
      "Ġcon clud",
      "ĠSt ar",
      "Ġper cent",
      "ĠAn other",
      "Ġ199 9",
      "Ġcre ate",
      "hest er",
      "Ġassoci ated",
      "Ġoccur red",
      "ĠCro at",
      "Ġce le",
      "ĠVict or",
      "m a",
      "it z",
      "Ġf ans",
      "Ġin n",
      "im um",
      "ĠP at",
      "ĠO t",
      "Ġar rang",
      "Ġcomp ared",
      "Ġrel ated",
      "Ġgr ant",
      "Ġlarge ly",
      "Ġoffic ers",
      "Ġtem per",
      "ĠCent ral",
      "N A",
      "Ġre in",
      "ĠS erv",
      "ĠB ey",
      "Ġst one",
      "ab ility",
      "Ġ3 00",
      "ell ed",
      "ven ue",
      "ĠEar th",
      "Ġfav or",
      "Ġbecom ing",
      "ĠChristm as",
      "b ers",
      "t ained",
      "Ġs us",
      "Ġw ound",
      "ĠT er",
      "ĠM os",
      "ĠM ount",
      "um n",
      "Ġr an",
      "ill s",
      "ĠSt orm",
      "Ġass igned",
      "Ġac qu",
      "Ġmajor ity",
      "Ġmor ning",
      "Ġlyric s",
      "d own",
      "u f",
      "v ille",
      "Ġs elf",
      "Ġp ay",
      "Ġal ways",
      "ĠL aw",
      "Ġr are",
      "Ġ3 2",
      "Ġoper ation",
      "Ġattempt ed",
      "Ġbird s",
      "t ation",
      "ĠO ver",
      "ĠIt al",
      "Ġme thod",
      "ann a",
      "stit ute",
      "Ġdaugh ter",
      "ĠCour t",
      "g l",
      "l ike",
      "r or",
      "Ġs em",
      "Ġs chol",
      "it or",
      "Ġm akes",
      "ĠS l",
      "st r",
      "um ed",
      "Ġtr aff",
      "Ġim age",
      "Ġpre m",
      "Ġmus ical",
      "Ġsmall er",
      "Ġbeg ins",
      "ĠCoun cil",
      "Ġtraff ic",
      "g en",
      "i res",
      "Ġb ad",
      "Ġm om",
      "ig an",
      "ĠR ose",
      "Ġde g",
      "Ġtr ade",
      "Ġun c",
      "Ġab andon",
      "Ġbo und",
      "Ġform s",
      "Ġeffect s",
      "Ġask ed",
      "b ack",
      "n ers",
      "Ġt akes",
      "Ġp un",
      "Ġbe low",
      "ul pt",
      "ĠJ e",
      "ab y",
      "Ġun able",
      "ok e",
      "Ġsc ulpt",
      "Ġj ob",
      "ke y",
      "Ġ9 0",
      "ĠBo th",
      "Ġinflu ence",
      "Ġrad io",
      "ĠVir gin",
      "o ly",
      "Ġt ar",
      "ir t",
      "ĠL atin",
      "ap h",
      "oc r",
      "Ġsh oot",
      "Ġcent re",
      "Ġset tle",
      "Ġpres ence",
      "Ġperform ances",
      "ĠBr ad",
      "Ġstart ing",
      "Ġconsid er",
      "Ġnews p",
      "Ġpriv ate",
      "g ar",
      "i os",
      "Ġs il",
      "Ġo ur",
      "Ġw ord",
      "Ġw oman",
      "at re",
      "Ġc m",
      "ĠI f",
      "em ents",
      "ĠG o",
      "Ġcl os",
      "Ġpart y",
      "Ġwe aken",
      "Ġend ing",
      "Ġmark ed",
      "Ġprop osed",
      "Ġcompet ition",
      "Ġrap id",
      "ĠNort hern",
      "I I",
      "l or",
      "u k",
      "re ak",
      "ed ic",
      "Ġm oney",
      "Ġd one",
      "ĠT w",
      "ĠM art",
      "ĠL ight",
      "Ġle ave",
      "Ġcl osed",
      "Ġser ious",
      "Ġatt r",
      "ĠSe ver",
      "Ġele ction",
      "Ġcrit ical",
      "Ġbuild ings",
      "Ġstat us",
      "osaur us",
      "Ġcondu cted",
      "itte e",
      "it a",
      "is es",
      "Ġp ian",
      "ur g",
      "im ate",
      "Ġv oice",
      "ĠTh ree",
      "Ġim m",
      "Ġnum bers",
      "Ġ193 0",
      "Ġperson al",
      "Ġrequ est",
      "Ġiss ued",
      "Ġchang ed",
      "Ġfig ure",
      "ĠBus ch",
      "ĠWhe eler",
      "i h",
      "r up",
      "Ġ ult",
      "er gy",
      "ou l",
      "Ġst ories",
      "ul ted",
      "ĠJ ane",
      "ag on",
      "ru it",
      "ĠTh rough",
      "Ġme ant",
      "Ġt or",
      "on c",
      "Ġc red",
      "an ced",
      "Ġd er",
      "st e",
      "Ġpl at",
      "Ġpl ans",
      "ra el",
      "ĠV er",
      "Ġear ned",
      "Ġ199 7",
      "Ġpol ic",
      "Ġter ms",
      "Ġconc ert",
      "ony m",
      "Ġcommand er",
      "Ġlist ed",
      "ĠCent er",
      "g u",
      "Ġp ark",
      "Ġh undred",
      "ĠT ur",
      "Ġl iving",
      "ve y",
      "Ġg ot",
      "ort un",
      "Ġspe ed",
      "Ġunder st",
      "Ġpe ace",
      "Ġfl ight",
      "ĠSc ot",
      "Ġarch itect",
      "Ġdirect ly",
      "Ġsoc ial",
      "Ġaward ed",
      "Ġdou ble",
      "Ġstreng th",
      "Ġcycl one",
      "for ce",
      "Ġimmedi ately",
      "en on",
      "ar i",
      "Ġd ram",
      "Ġth us",
      "Ġe mer",
      "Ġhe alth",
      "Ġcon cept",
      "ĠW ood",
      "and ed",
      "ag ing",
      "ĠSt r",
      "Ġport ray",
      "Ġdem on",
      "Ġcover ed",
      "ĠPhil ipp",
      "Ġcomment ed",
      "Ġrespons ible",
      "Ġmean ing",
      "Ġ und",
      "he w",
      "ĠD o",
      "ri age",
      "um p",
      "Ġv ia",
      "ail y",
      "Ġ199 6",
      "Ġco ach",
      "Ġcar ry",
      "Ġbr ing",
      "ĠCl ub",
      "Ġexper i",
      "Ġinit ial",
      "ĠSo vi",
      "Ġs out",
      "Ġb ow",
      "ac hes",
      "ĠM ont",
      "ĠB el",
      "ĠB oy",
      "ct s",
      "ĠF ore",
      "ri a",
      "Ġan aly",
      "Ġrecord s",
      "Ġam b",
      "Ġart ist",
      "ĠIs rael",
      "ĠMus eum",
      "ĠSte v",
      "ĠMich igan",
      "Ġindust ry",
      "ĠGro up",
      "ĠAle x",
      "ĠSever al",
      "b our",
      "Ġre ally",
      "am er",
      "Ġat tend",
      "all ed",
      "ip al",
      "Ġ3 3",
      "Ġann ual",
      "Ġcour se",
      "ĠAfric an",
      "Ġcult ure",
      "Ġsepar ate",
      "ĠDep artment",
      "Ġgre ater",
      "ĠCath olic",
      "o ir",
      "s is",
      "al t",
      "Ġd om",
      "Ġl if",
      "and er",
      "ĠL os",
      "ĠU p",
      "Ġy et",
      "ell ig",
      "Ġsc hed",
      "Ġfin ally",
      "Ġnort heast",
      "Ġsit uation",
      "stit ution",
      "ĠStev ens",
      "k en",
      "er ve",
      "Ġf ell",
      "om s",
      "Ġup per",
      "Ġ199 3",
      "Ġhigh ly",
      "Ġinf antry",
      "yl v",
      "Ġhel ped",
      "Ġaccom p",
      "ĠSer ies",
      "Ġdeter min",
      "ĠColle ge",
      "Ġcompan ies",
      "A S",
      "h ou",
      "he m",
      "ĠC ross",
      "ĠB ob",
      "ir l",
      "ĠD em",
      "ĠIn ter",
      "Ġun s",
      "Ġrec over",
      "ĠIt s",
      "ĠSe a",
      "Ġcan n",
      "Ġsever e",
      "Ġstand ard",
      "ĠMin nes",
      "Ġcas ual",
      "Ġsum mer",
      "Ġvoc als",
      "Ġfoc us",
      "ĠMinnes ota",
      "Ġt ell",
      "ou d",
      "ĠM ajor",
      "ce nd",
      "ri al",
      "Ġse lected",
      "ant a",
      "Ġk ind",
      "Ġ3 7",
      "Ġwhe ther",
      "Ġus es",
      "Ġ4 2",
      "Ġbo ats",
      "Ġdis m",
      "Ġoff ered",
      "Ġne cess",
      "Ġear th",
      "Ġadv ance",
      "Ġallow ing",
      "Ġincre ase",
      "Ġconf l",
      "Ġhand s",
      "Ġschool s",
      "Ġmid dle",
      "Ġdr um",
      "ĠCor ps",
      "Ġaud ience",
      "ĠBey onc",
      "ĠBeyonc Ã©",
      "Ġb ig",
      "ĠT ay",
      "ol k",
      "ĠB en",
      "us hed",
      "ĠH aw",
      "ĠJ ust",
      "ĠL ake",
      "if f",
      "Ġch all",
      "Ġcomp osed",
      "land s",
      "Ġpre c",
      "Ġthem e",
      "ĠAr ch",
      "Ġwrit ers",
      "Ġvar iety",
      "Ġprom in",
      "Ġmar ried",
      "Ġactiv ity",
      "Ġve hic",
      "Ġintens ity",
      "Ġpur p",
      "Ġdoc ument",
      "it ation",
      "is er",
      "Ġth ings",
      "Ġl og",
      "ĠR h",
      "Ġse arch",
      "ĠL i",
      "ĠL it",
      "ist ics",
      "if a",
      "Ġ3 9",
      "Ġpre p",
      "Ġfin anc",
      "Ġnear by",
      "Ġadv ant",
      "row d",
      "Ġref used",
      "ĠQ u",
      "Ġwat ers",
      "Ġcond itions",
      "Ġrese arch",
      "Ġmur der",
      "M S",
      "e e",
      "Ġ +",
      "at ives",
      "Ġc ause",
      "Ġp urs",
      "Ġd ig",
      "Ġd ra",
      "ĠT re",
      "ĠT enn",
      "ĠC amb",
      "ac hel",
      "ur ies",
      "ĠB ig",
      "ĠF orm",
      "ĠN ations",
      "Ġex tended",
      "ĠV illa",
      "Ġact ually",
      "Ġback ground",
      "Ġmat ches",
      "Ġmet al",
      "Ġbatt les",
      "Ġbatt alion",
      "Ġdecl ared",
      "Ġcat hedral",
      "Ġtradition al",
      "Ġindivid ual",
      "Ġinform ation",
      "k y",
      "Ġin tern",
      "ĠA re",
      "ĠS am",
      "ĠThe ir",
      "us band",
      "ĠH ow",
      "et her",
      "ĠO s",
      "Ġr ule",
      "Ġwho le",
      "ib ly",
      "Ġsec ret",
      "Ġredu ced",
      "Ġnuc le",
      "Ġeduc ation",
      "Ġslight ly",
      "ste in",
      "e en",
      "Ã ³",
      "it ude",
      "Ġc le",
      "is l",
      "ĠS ur",
      "ve ment",
      "Ġhe ro",
      "ĠF oot",
      "ĠW W",
      "ĠJ im",
      "ĠL ive",
      "ew ay",
      "Ġpl ot",
      "Ġcomp l",
      "Ġen v",
      "oin t",
      "Ġact ive",
      "Ġhead quarters",
      "Ġdescrib es",
      "Ġgiv ing",
      "Ġattempt s",
      "erv ation",
      "ĠPar liament",
      "Ġmeet ing",
      "ĠHa ifa",
      "Ġra ised",
      "ĠServ ice",
      "ĠTay lor",
      "p ly",
      "Ġt alk",
      "Ġc oin",
      "ĠB C",
      "Ġst ating",
      "Ġpl ant",
      "ĠU nder",
      "av en",
      "Ġsc enes",
      "Ġnum erous",
      "Ġsupp l",
      "Ġent r",
      "Ġstud ies",
      "emb ly",
      "ĠCol on",
      "ĠPr ince",
      "k an",
      "Ġd oll",
      "ĠS aint",
      "ĠCh ic",
      "ĠHe ad",
      "Ġad minist",
      "Ġ18 2",
      "Ġbo x",
      "Ġj ud",
      "Ġ199 1",
      "Ġ199 2",
      "Ġoffic er",
      "Ġiss ues",
      "ĠJack son",
      "Ġneed ed",
      "Ġpeak ed",
      "Ġterrit ory",
      "Ġcop ies",
      "Ġcontem porary",
      "ĠScot land",
      "e ter",
      "l ers",
      "m on",
      "Ġt ask",
      "Ġn ative",
      "Ġn atural",
      "ĠF I",
      "Ġse vent",
      "ĠG ames",
      "ĠL es",
      "Ġres ulted",
      "ĠAl ice",
      "ix on",
      "ĠDe f",
      "stru ction",
      "Ġext ensive",
      "Ġactiv ities",
      "Ġcomplete ly",
      "ĠOper ation",
      "Ġcele br",
      "ĠItal ian",
      "he t",
      "ed ing",
      "Ġc rowd",
      "Ġf eder",
      "Ġb atter",
      "Ġto ward",
      "Ġh usband",
      "Ġre ject",
      "Ġn orm",
      "im s",
      "im in",
      "ĠP it",
      "ĠL ady",
      "Ġ18 0",
      "Ġsec urity",
      "Ġinc hes",
      "ĠChr is",
      "Ġpower ful",
      "Ġconf ir",
      "Ġcolle ction",
      "Ġserv ices",
      "Ġer a",
      "Ġrespect ively",
      "Ġheav ily",
      "n ts",
      "Ġs ides",
      "Ġh ot",
      "Ġh op",
      "ĠT ime",
      "ĠS ix",
      "Ġl ik",
      "ĠW ater",
      "ĠN or",
      "ĠN ic",
      "Ġr ate",
      "Ġex cept",
      "ĠTh ough",
      "ĠY oun",
      "Ġ7 6",
      "Ġepis odes",
      "Ġdist ance",
      "ĠTe xas",
      "Ġappro ach",
      "Ġcontr ast",
      "augh t",
      "ĠPol ish",
      "Ġgen us",
      "Ġfig ures",
      "Ġgod s",
      "ĠCap tain",
      "Ġanc ient",
      "ĠSovi et",
      "ĠLit tle",
      "ĠChic ago",
      "l in",
      "or ation",
      "Ġb odies",
      "Ġp ath",
      "Ġre ar",
      "ĠC ivil",
      "ĠJ ose",
      "ĠL ong",
      "ous ly",
      "ath an",
      "Ġspec ific",
      "Ġinc or",
      "Ġmo le",
      "Ġcontin ues",
      "ann el",
      "Ġter min",
      "Ġsix th",
      "Ġbook s",
      "Ġtrack s",
      "Ġobs erved",
      "ĠSom al",
      "Ġcondom s",
      "Ġtransfer red",
      "emor ial",
      "Ġinsp ired",
      "i ant",
      "j oy",
      "Ġ ess",
      "Ġt ax",
      "ĠA I",
      "Ġon to",
      "ĠB ow",
      "ch an",
      "ĠW ash",
      "Ġdis e",
      "Ġen joy",
      "ped o",
      "Ġappear ances",
      "Ġstru ck",
      "Ġpat tern",
      "Ġinflu enced",
      "ĠGeor g",
      "Ġbecom es",
      "Ġey e",
      "ĠLou is",
      "ĠOt t",
      "Ġpian o",
      "ĠWash ington",
      "c er",
      "c ause",
      "k s",
      "o f",
      "Ġn aval",
      "ol f",
      "ĠD el",
      "Ġan g",
      "ĠJ o",
      "ĠO f",
      "Ġr hy",
      "iv a",
      "Ġex pected",
      "Ġun iversity",
      "Ġ18 1",
      "Ġatt ention",
      "Ġ199 4",
      "olog ist",
      "ĠEn ter",
      "Ġlead ers",
      "ĠBe cause",
      "Ġnorth west",
      "Ġins ide",
      "Ġcontro vers",
      "Ġprote ct",
      "Ġgreat est",
      "ĠPort ug",
      "Ġcomb ined",
      "Ġsex ual",
      "Ġeffort s",
      "ĠSm ith",
      "vest on",
      "ĠGal veston",
      "a wn",
      "Ġa ctions",
      "an z",
      "le ment",
      "il s",
      "ĠM ey",
      "ĠB u",
      "im b",
      "ĠR oss",
      "ĠD ire",
      "ĠN ixon",
      "ber y",
      "ip le",
      "Ġres idents",
      "ĠAl kan",
      "Ġ6 5",
      "Ġshe ll",
      "Ġcontin ue",
      "Ġlevel s",
      "Ġhig her",
      "Ġmach ine",
      "ylv ania",
      "R A",
      "r ical",
      "u ated",
      "w ell",
      "Ġw it",
      "ol s",
      "id ian",
      "art s",
      "ast y",
      "Ġres c",
      "Ġsome thing",
      "Ġsing er",
      "Ġhead s"
    ]
  }
}