{
  "version": "1.0",
  "truncation": {
    "direction": "Right",
    "max_length": 129,
    "strategy": "LongestFirst",
    "stride": 0
  },
  "padding": {
    "strategy": {
      "Fixed": 129
    },
    "direction": "Right",
    "pad_to_multiple_of": null,
    "pad_id": 0,
    "pad_type_id": 0,
    "pad_token": "<pad>"
  },
  "added_tokens": [
    {
      "id": 0,
      "content": "<pad>",
      "single_word": false,
      "lstrip": false,
      "rstrip": false,
      "normalized": false,
      "special": true
    },
    {
      "id": 1,
      "content": "<bos>",
      "single_word": false,
      "lstrip": false,
      "rstrip": false,
      "normalized": false,
      "special": true
    },
    {
      "id": 2,
      "content": "<unk>",
      "single_word": false,
      "lstrip": false,
      "rstrip": false,
      "normalized": false,
      "special": true
    }
  ],
  "normalizer": null,
  "pre_tokenizer": {
    "type": "ByteLevel",
    "add_prefix_space": false,
    "trim_offsets": true,
    "use_regex": true
  },
  "post_processor": {
    "type": "TemplateProcessing",
    "single": [
      {
        "SpecialToken": {
          "id": "<bos>",
          "type_id": 0
        }
      },
      {
        "Sequence": {
          "id": "A",
          "type_id": 0
        }
      }
    ],
    "pair": [
      {
        "Sequence": {
          "id": "A",
          "type_id": 0
        }
      },
      {
        "Sequence": {
          "id": "B",
          "type_id": 1
        }
      }
    ],
    "special_tokens": {
      "<bos>": {
        "id": "<bos>",
        "ids": [
          1
        ],
        "tokens": [
          "<bos>"
        ]
      }
    }
  },
  "decoder": {
    "type": "ByteLevel",
    "add_prefix_space": true,
    "trim_offsets": true,
    "use_regex": true
  },
  "model": {
    "type": "BPE",
    "dropout": null,
    "unk_token": "<unk>",
    "continuing_subword_prefix": null,
    "end_of_word_suffix": null,
    "fuse_unk": false,
    "byte_fallback": false,
    "vocab": {
      "<pad>": 0,
      "<bos>": 1,
      "<unk>": 2,
      "!": 3,
      "\"": 4,
      "#": 5,
      "$": 6,
      "%": 7,
      "&": 8,
      "'": 9,
      "(": 10,
      ")": 11,
      "*": 12,
      "+": 13,
      ",": 14,
      "-": 15,
      ".": 16,
      "/": 17,
      "0": 18,
      "1": 19,
      "2": 20,
      "3": 21,
      "4": 22,
      "5": 23,
      "6": 24,
      "7": 25,
      "8": 26,
      "9": 27,
      ":": 28,
      ";": 29,
      "<": 30,
      "=": 31,
      ">": 32,
      "?": 33,
      "@": 34,
      "A": 35,
      "B": 36,
      "C": 37,
      "D": 38,
      "E": 39,
      "F": 40,
      "G": 41,
      "H": 42,
      "I": 43,
      "J": 44,
      "K": 45,
      "L": 46,
      "M": 47,
      "N": 48,
      "O": 49,
      "P": 50,
      "Q": 51,
      "R": 52,
      "S": 53,
      "T": 54,
      "U": 55,
      "V": 56,
      "W": 57,
      "X": 58,
      "Y": 59,
      "Z": 60,
      "[": 61,
      "\\": 62,
      "]": 63,
      "^": 64,
      "_": 65,
      "`": 66,
      "a": 67,
      "b": 68,
      "c": 69,
      "d": 70,
      "e": 71,
      "f": 72,
      "g": 73,
      "h": 74,
      "i": 75,
      "j": 76,
      "k": 77,
      "l": 78,
      "m": 79,
      "n": 80,
      "o": 81,
      "p": 82,
      "q": 83,
      "r": 84,
      "s": 85,
      "t": 86,
      "u": 87,
      "v": 88,
      "w": 89,
      "x": 90,
      "y": 91,
      "z": 92,
      "|": 93,
      "}": 94,
      "~": 95,
      "¡": 96,
      "¢": 97,
      "£": 98,
      "¤": 99,
      "¥": 100,
      "¦": 101,
      "§": 102,
      "¨": 103,
      "©": 104,
      "ª": 105,
      "«": 106,
      "¬": 107,
      "®": 108,
      "¯": 109,
      "°": 110,
      "±": 111,
      "²": 112,
      "³": 113,
      "´": 114,
      "µ": 115,
      "¶": 116,
      "·": 117,
      "¸": 118,
      "¹": 119,
      "º": 120,
      "»": 121,
      "¼": 122,
      "½": 123,
      "¾": 124,
      "¿": 125,
      "Â": 126,
      "Ã": 127,
      "Ä": 128,
      "Å": 129,
      "Æ": 130,
      "Ç": 131,
      "È": 132,
      "É": 133,
      "Ê": 134,
      "Ë": 135,
      "Ì": 136,
      "Í": 137,
      "Î": 138,
      "Ï": 139,
      "Ð": 140,
      "Ñ": 141,
      "Ò": 142,
      "Ó": 143,
      "Ô": 144,
      "Õ": 145,
      "Ö": 146,
      "×": 147,
      "Ø": 148,
      "Ù": 149,
      "Ú": 150,
      "Û": 151,
      "Ü": 152,
      "Ý": 153,
      "Þ": 154,
      "ß": 155,
      "à": 156,
      "á": 157,
      "â": 158,
      "ã": 159,
      "ä": 160,
      "å": 161,
      "æ": 162,
      "ç": 163,
      "è": 164,
      "é": 165,
      "ê": 166,
      "ë": 167,
      "ì": 168,
      "í": 169,
      "î": 170,
      "ï": 171,
      "ð": 172,
      "ñ": 173,
      "ò": 174,
      "ó": 175,
      "ô": 176,
      "Ā": 177,
      "ā": 178,
      "Ă": 179,
      "ă": 180,
      "Ą": 181,
      "ą": 182,
      "Ć": 183,
      "ć": 184,
      "Ĉ": 185,
      "ĉ": 186,
      "Ċ": 187,
      "Ď": 188,
      "ď": 189,
      "Đ": 190,
      "đ": 191,
      "Ē": 192,
      "ē": 193,
      "Ĕ": 194,
      "ĕ": 195,
      "Ė": 196,
      "ė": 197,
      "Ę": 198,
      "ę": 199,
      "Ě": 200,
      "ě": 201,
      "ğ": 202,
      "Ġ": 203,
      "ġ": 204,
      "Ģ": 205,
      "ģ": 206,
      "Ĥ": 207,
      "ĥ": 208,
      "Ħ": 209,
      "ħ": 210,
      "Ĩ": 211,
      "ĩ": 212,
      "Ī": 213,
      "ī": 214,
      "Ĭ": 215,
      "ĭ": 216,
      "Į": 217,
      "į": 218,
      "İ": 219,
      "ı": 220,
      "Ĳ": 221,
      "ĳ": 222,
      "Ĵ": 223,
      "ĵ": 224,
      "Ķ": 225,
      "ķ": 226,
      "ĸ": 227,
      "Ĺ": 228,
      "ĺ": 229,
      "Ļ": 230,
      "ļ": 231,
      "Ľ": 232,
      "ľ": 233,
      "Ŀ": 234,
      "ŀ": 235,
      "Ł": 236,
      "ł": 237,
      "Ń": 238,
      "rs": 239,
      "di": 240,
      "lo": 241,
      "yo": 242,
      "pr": 243,
      "ut": 244,
      "ct": 245,
      "ee": 246,
      "Ġn": 247,
      "Ġyo": 248,
      "ly": 249,
      "Ġw": 250,
      "Ġyou": 251,
      "ge": 252,
      "Ġwi": 253,
      "ss": 254,
      "rt": 255,
      "ot": 256,
      "âĢ": 257,
      "tr": 258,
      "ĠI": 259,
      "un": 260,
      "ie": 261,
      "ĠT": 262,
      "Ġpr": 263,
      "nc": 264,
      "so": 265,
      "ti": 266,
      "tio": 267,
      "tion": 268,
      "ai": 269,
      "ou": 270,
      "Ġg": 271,
      "Ġc": 272,
      "ad": 273,
      "em": 274,
      "ĠS": 275,
      "ow": 276,
      "am": 277,
      "ay": 278,
      "ts": 279,
      "ke": 280,
      "vi": 281,
      "ĠC": 282,
      "ĠA": 283,
      "po": 284,
      "pa": 285,
      "sh": 286,
      "pl": 287,
      "Ġca": 288,
      "ni": 289,
      "fi": 290,
      "ation": 291,
      "Ġwh": 292,
      "Ġwit": 293,
      "Ġwith": 294,
      "ol": 295,
      "ers": 296,
      "ab": 297,
      "mo": 298,
      "gh": 299,
      "su": 300,
      "an": 301,
      "ar": 302,
      "are": 303,
      "mi": 304,
      "it": 305,
      "av": 306,
      "ess": 307,
      "ĠTh": 308,
      "âĢĻ": 309,
      "ev": 310,
      "ĠM": 311,
      "Ġwe": 312,
      "Ġu": 313,
      "Ġpro": 314,
      "fr": 315,
      "Ġso": 316,
      "Ġmo": 317,
      "nce": 318,
      "fe": 319,
      "ex": 320,
      "oo": 321,
      "Ġare": 322,
      "ĠP": 323,
      "ng": 324,
      "Ġit": 325,
      "st": 326,
      "Ġst": 327,
      "ul": 328,
      "ĠB": 329,
      "Ġfr": 330,
      "er": 331,
      "her": 332,
      "ter": 333,
      "ld": 334,
      "id": 335,
      "ck": 336,
      "out": 337,
      "ave": 338,
      "ĠW": 339,
      "Ġdi": 340,
      "ir": 341,
      "iv": 342,
      "ect": 343,
      "Ġwa": 344,
      "Ġlo": 345,
      "Ġsu": 346,
      "ap": 347,
      "op": 348,
      "do": 349,
      "Ġyour": 350,
      "Ġfi": 351,
      "im": 352,
      "Ġex": 353,
      "ci": 354,
      "ĠH": 355,
      "ĠD": 356,
      "Ġpa": 357,
      "Ġsh": 358,
      "na": 359,
      "qu": 360,
      "ĠF": 361,
      "ting": 362,
      "ĠThe": 363,
      "Ġtr": 364,
      "Ġch": 365,
      "ov": 366,
      "Ġ1": 367,
      "Ġv": 368,
      "is": 369,
      "Ġis": 370,
      "his": 371,
      "have": 372,
      "Ġhave": 373,
      "ain": 374,
      "ĠR": 375,
      "est": 376,
      "Ġfro": 377,
      "Ġf": 378,
      "Ġfo": 379,
      "Ġfor": 380,
      "ear": 381,
      "igh": 382,
      "du": 383,
      "Ġcan": 384,
      "Ġ2": 385,
      "ive": 386,
      "Ġdo": 387,
      "Ġwo": 388,
      "our": 389,
      "this": 390,
      "ey": 391,
      "by": 392,
      "Ġ(": 393,
      "per": 394,
      "Ġfrom": 395,
      "Ġthis": 396,
      "act": 397,
      "ki": 398,
      "ĠL": 399,
      "Ġwas": 400,
      "age": 401,
      "und": 402,
      "ity": 403,
      "ies": 404,
      "sc": 405,
      "str": 406,
      "Ġus": 407,
      "ĠG": 408,
      "Ġwil": 409,
      "Ġwill": 410,
      "ba": 411,
      "nt": 412,
      "ent": 413,
      "Ġby": 414,
      "ed": 415,
      "ted": 416,
      "ding": 417,
      "Ġnot": 418,
      "ĠE": 419,
      "Ġpo": 420,
      "um": 421,
      "sp": 422,
      "en": 423,
      "ls": 424,
      "ĠN": 425,
      "eg": 426,
      "ake": 427,
      "al": 428,
      "Ġal": 429,
      "bl": 430,
      "Ġpl": 431,
      "Ġan": 432,
      "abl": 433,
      "ig": 434,
      "tu": 435,
      "ant": 436,
      "Ġb": 437,
      "Ġbe": 438,
      "ew": 439,
      "ds": 440,
      "ment": 441,
      "Ġp": 442,
      "Ġen": 443,
      "ĠO": 444,
      "Ġgr": 445,
      "ould": 446,
      "ust": 447,
      "able": 448,
      "Ġmi": 449,
      "Ġwor": 450,
      "ple": 451,
      "ĠâĢ": 452,
      "ther": 453,
      "tim": 454,
      "art": 455,
      "een": 456,
      "if": 457,
      "ag": 458,
      "man": 459,
      "Ġj": 460,
      "ning": 461,
      "ever": 462,
      "ally": 463,
      "Ġab": 464,
      "int": 465,
      "own": 466,
      "Th": 467,
      "Ġad": 468,
      "Ġall": 469,
      "00": 470,
      "ous": 471,
      "Ġba": 472,
      "cc": 473,
      "tur": 474,
      "hr": 475,
      "Ġk": 476,
      "ough": 477,
      "ry": 478,
      "Ġge": 479,
      "han": 480,
      "king": 481,
      "Ġwhi": 482,
      "lu": 483,
      "over": 484,
      "port": 485,
      "ead": 486,
      "time": 487,
      "ist": 488,
      "ser": 489,
      "Ġmor": 490,
      "Ġbut": 491,
      "ĠJ": 492,
      "Ġout": 493,
      "ents": 494,
      "od": 495,
      "my": 496,
      "os": 497,
      "ty": 498,
      "ame": 499,
      "ast": 500,
      "Ġcr": 501,
      "rm": 502,
      "Ġbu": 503,
      "Ġour": 504,
      "ip": 505,
      "all": 506,
      "ĠCo": 507,
      "ite": 508,
      "ep": 509,
      "eir": 510,
      "ide": 511,
      "dr": 512,
      "inc": 513,
      "ance": 514,
      "Ġmore": 515,
      "heir": 516,
      "ue": 517,
      "their": 518,
      "Ġtheir": 519,
      "Ġup": 520,
      "The": 521,
      "fer": 522,
      "ight": 523,
      "hey": 524,
      "other": 525,
      "nal": 526,
      "they": 527,
      "ef": 528,
      "'s": 529,
      "Ġim": 530,
      "ard": 531,
      "Ġthey": 532,
      "ĠIn": 533,
      "Ġbr": 534,
      "ĠU": 535,
      "ike": 536,
      "tw": 537,
      "Ġsom": 538,
      "ated": 539,
      "Ġmy": 540,
      "cal": 541,
      "ass": 542,
      "eo": 543,
      "Ġtime": 544,
      "sti": 545,
      "Ġcl": 546,
      "low": 547,
      "Ġsp": 548,
      "te": 549,
      "ate": 550,
      "Ġte": 551,
      "orm": 552,
      "thr": 553,
      "Ġinc": 554,
      "au": 555,
      "Ġun": 556,
      "af": 557,
      "Ġman": 558,
      "Ġap": 559,
      "aw": 560,
      "ert": 561,
      "eal": 562,
      "Ġabout": 563,
      "edi": 564,
      "Ġwhic": 565,
      "Ġwhich": 566,
      "der": 567,
      "Ġsc": 568,
      "fic": 569,
      "ans": 570,
      "Ġqu": 571,
      "Ġsome": 572,
      "Ġop": 573,
      "ks": 574,
      "oun": 575,
      "Ġvi": 576,
      "hen": 577,
      "Ġthr": 578,
      "ood": 579,
      "eed": 580,
      "like": 581,
      "ĠY": 582,
      "Ġper": 583,
      "Ġalso": 584,
      "Ġher": 585,
      "01": 586,
      "hem": 587,
      "day": 588,
      "Ġint": 589,
      "ber": 590,
      "Ġser": 591,
      "ati": 592,
      "ail": 593,
      "gr": 594,
      "ĠK": 595,
      "oi": 596,
      "Ġlike": 597,
      "its": 598,
      "ary": 599,
      "Ġpre": 600,
      "mm": 601,
      "ations": 602,
      "nter": 603,
      "Ġstr": 604,
      "to": 605,
      "sed": 606,
      "Ġany": 607,
      "Ġpart": 608,
      "ving": 609,
      "sy": 610,
      "vic": 611,
      "form": 612,
      "them": 613,
      "Ġnew": 614,
      "no": 615,
      "acc": 616,
      "Ġther": 617,
      "Ġcar": 618,
      "Ġno": 619,
      "ness": 620,
      "vice": 621,
      "eci": 622,
      "Ġdr": 623,
      "ere": 624,
      "Ġget": 625,
      "ĠIt": 626,
      "Ġthem": 627,
      "ery": 628,
      "ĠV": 629,
      "Ġacc": 630,
      "th": 631,
      "the": 632,
      "Ġthe": 633,
      "tha": 634,
      "that": 635,
      "Ġthat": 636,
      "thi": 637,
      "thing": 638,
      "make": 639,
      "Ġev": 640,
      "equ": 641,
      "Ġwho": 642,
      "ten": 643,
      "âĢĿ": 644,
      "sig": 645,
      "Ġhis": 646,
      "Ġother": 647,
      "inter": 648,
      "Ġmake": 649,
      "Ġfe": 650,
      "Ġwhen": 651,
      "Ġ3": 652,
      "bi": 653,
      "ffer": 654,
      "Ġif": 655,
      "Ġwha": 656,
      "Ġwhat": 657,
      "Ġbeen": 658,
      "ars": 659,
      "rr": 660,
      "Ġkn": 661,
      "iz": 662,
      "ner": 663,
      "ĠWe": 664,
      "than": 665,
      "how": 666,
      "ort": 667,
      "ĠPr": 668,
      "ade": 669,
      "Ġ201": 670,
      "Ġar": 671,
      "Ġover": 672,
      "ble": 673,
      "see": 674,
      "ssi": 675,
      "ound": 676,
      "cti": 677,
      "Ġinter": 678,
      "lect": 679,
      "rc": 680,
      "ff": 681,
      "eve": 682,
      "Ġthere": 683,
      "ence": 684,
      "led": 685,
      "ont": 686,
      "Ġwould": 687,
      "Ġthan": 688,
      "Ġsee": 689,
      "acti": 690,
      "mu": 691,
      "Ġwer": 692,
      "ob": 693,
      "mpa": 694,
      "lp": 695,
      "lan": 696,
      "Ġpu": 697,
      "red": 698,
      "Ġits": 699,
      "Ġwere": 700,
      "ĠâĢľ": 701,
      "ned": 702,
      "had": 703,
      "Ġam": 704,
      "Ġhow": 705,
      "Ġever": 706,
      "Ġmu": 707,
      "ye": 708,
      "elp": 709,
      "ture": 710,
      "ani": 711,
      "Ġhad": 712,
      "ays": 713,
      "rst": 714,
      "ami": 715,
      "Ġinto": 716,
      "Ġwork": 717,
      "vid": 718,
      "nv": 719,
      "Ġjust": 720,
      "ntr": 721,
      "Ġbec": 722,
      "log": 723,
      "ny": 724,
      "ack": 725,
      "oth": 726,
      "ange": 727,
      "old": 728,
      "ctio": 729,
      "end": 730,
      "help": 731,
      "cr": 732,
      "Ġwel": 733,
      "Ġhelp": 734,
      "ĠThis": 735,
      "eople": 736,
      "Ġaf": 737,
      "ud": 738,
      "tt": 739,
      "nly": 740,
      "Ġ\"": 741,
      "Ġye": 742,
      "ens": 743,
      "als": 744,
      "pi": 745,
      "may": 746,
      "ĠCh": 747,
      "Ġneed": 748,
      "two": 749,
      "Ġmay": 750,
      "Ġuse": 751,
      "omm": 752,
      "ompa": 753,
      "mar": 754,
      "mer": 755,
      "ook": 756,
      "Ġ-": 757,
      "Ġgo": 758,
      "re": 759,
      "Ġre": 760,
      "Ġrec": 761,
      "ore": 762,
      "ure": 763,
      "Ġrel": 764,
      "Ġres": 765,
      "Ġag": 766,
      "Ġem": 767,
      ").": 768,
      "son": 769,
      "Ġday": 770,
      "Ġpeople": 771,
      "Ġloo": 772,
      "Ġinclu": 773,
      "Ġprodu": 774,
      "Ġmost": 775,
      "ien": 776,
      "uti": 777,
      "ction": 778,
      "cl": 779,
      "only": 780,
      "Ġknow": 781,
      "high": 782,
      "ick": 783,
      "take": 784,
      "tc": 785,
      "ating": 786,
      "essi": 787,
      "Ġbo": 788,
      "Ġthrough": 789,
      "tter": 790,
      "Ġonly": 791,
      "Ġwell": 792,
      "Ġcompa": 793,
      "Ġtake": 794,
      "ates": 795,
      "Ġhigh": 796,
      "Ġund": 797,
      "lit": 798,
      "ose": 799,
      "ib": 800,
      "Ġfirst": 801,
      "reg": 802,
      "ĠAn": 803,
      "aid": 804,
      "site": 805,
      "ĠSt": 806,
      "Ġpla": 807,
      "rd": 808,
      "mp": 809,
      "Ġthes": 810,
      "Ġfin": 811,
      "ari": 812,
      "ject": 813,
      "pon": 814,
      "nk": 815,
      "ish": 816,
      "..": 817,
      "Ġthese": 818,
      "ms": 819,
      "ĠâĢĵ": 820,
      "air": 821,
      "Ġcont": 822,
      "ked": 823,
      "dition": 824,
      "onal": 825,
      "rem": 826,
      "off": 827,
      "Ġsup": 828,
      "arge": 829,
      "Ġdu": 830,
      "fect": 831,
      "Ġ4": 832,
      "cation": 833,
      "Ġph": 834,
      "ild": 835,
      "aut": 836,
      "Ġservice": 837,
      "ience": 838,
      "Ġmar": 839,
      "Ġvery": 840,
      "Ġback": 841,
      "Ġ5": 842,
      "Ġdon": 843,
      "Ġsy": 844,
      "ors": 845,
      "enti": 846,
      "iew": 847,
      "cu": 848,
      "Ġcre": 849,
      "ĠAl": 850,
      "ied": 851,
      "esig": 852,
      "year": 853,
      "Ġreg": 854,
      "Ġprovid": 855,
      "less": 856,
      "ater": 857,
      "da": 858,
      "Ġmany": 859,
      "ory": 860,
      "side": 861,
      "tic": 862,
      "iness": 863,
      "oll": 864,
      "aus": 865,
      "Ġexp": 866,
      "ool": 867,
      "ĠYou": 868,
      "and": 869,
      "Ġfa": 870,
      "ativ": 871,
      "Ġgre": 872,
      "Ġtwo": 873,
      "Ġass": 874,
      "Ġ19": 875,
      "ife": 876,
      "ative": 877,
      "ement": 878,
      "lity": 879,
      "siness": 880,
      "'t": 881,
      "Ġway": 882,
      "then": 883,
      "ĠRe": 884,
      "down": 885,
      "Ġav": 886,
      "Ġyears": 887,
      "nform": 888,
      "sm": 889,
      "ause": 890,
      "read": 891,
      "tch": 892,
      "Ġevery": 893,
      "ful": 894,
      "rg": 895,
      "Ġrem": 896,
      "Ġshould": 897,
      "ale": 898,
      "Ġcould": 899,
      "Ġpers": 900,
      "Ġafter": 901,
      "lf": 902,
      "ia": 903,
      "ost": 904,
      "ute": 905,
      "ght": 906,
      "inform": 907,
      "ĠSo": 908,
      "Ġcal": 909,
      "ours": 910,
      "Ġbest": 911,
      "ontr": 912,
      "Ġwhere": 913,
      "Ġgood": 914,
      "Ġcomm": 915,
      "Ġthen": 916,
      "Ġoff": 917,
      "stem": 918,
      "Ġinform": 919,
      "ord": 920,
      "ecti": 921,
      "ote": 922,
      "cess": 923,
      "Ġown": 924,
      "Ġwr": 925,
      "nn": 926,
      "ular": 927,
      "Ġyear": 928,
      "eep": 929,
      "elf": 930,
      "inv": 931,
      "Ġgrea": 932,
      "Ġstart": 933,
      "Ġthi": 934,
      "aking": 935,
      "tl": 936,
      "Ġsuc": 937,
      "desig": 938,
      "evelo": 939,
      "up": 940,
      "Ġfee": 941,
      "eb": 942,
      "Ġnow": 943,
      "requ": 944,
      "Ġgreat": 945,
      "Ġsuch": 946,
      "ove": 947,
      "Ġinv": 948,
      "Ġef": 949,
      "ial": 950,
      "ĠWh": 951,
      "Ġne": 952,
      "ong": 953,
      "life": 954,
      "Ġdown": 955,
      "pli": 956,
      "ato": 957,
      "ming": 958,
      "Ġdesig": 959,
      "Ġrequ": 960,
      "utio": 961,
      "lt": 962,
      "ĠSh": 963,
      "Ġdis": 964,
      "medi": 965,
      "Ġcontr": 966,
      "right": 967,
      "ution": 968,
      "Ġmuc": 969,
      "Ġexper": 970,
      "Ġdiffer": 971,
      "sit": 972,
      "rk": 973,
      "Ġbusiness": 974,
      "Ġmuch": 975,
      "ak": 976,
      "ved": 977,
      "Ġeven": 978,
      "earc": 979,
      "Ġplac": 980,
      "Ġgive": 981,
      "iti": 982,
      "ĠHe": 983,
      "ĠIf": 984,
      "Ġshe": 985,
      "Ġpri": 986,
      "nst": 987,
      "ĠDe": 988,
      "Ġspeci": 989,
      "land": 990,
      "Ġplay": 991,
      "eng": 992,
      "earch": 993,
      "Ġthing": 994,
      "ree": 995,
      "oy": 996,
      "cle": 997,
      "ational": 998,
      "said": 999,
      "imi": 1000,
      "ature": 1001,
      "),": 1002,
      "Ġsaid": 1003,
      "elect": 1004,
      "Ġstud": 1005,
      "Ġwant": 1006,
      "ney": 1007,
      "tle": 1008,
      "tions": 1009,
      "Ġfil": 1010,
      "cial": 1011,
      "sent": 1012,
      "ĠBr": 1013,
      "az": 1014,
      "made": 1015,
      "Ġlife": 1016,
      "ĠMi": 1017,
      "Ġbecause": 1018,
      "Ġrea": 1019,
      "though": 1020,
      "sw": 1021,
      "Ġcu": 1022,
      "Ġsub": 1023,
      "Ġinformation": 1024,
      "ger": 1025,
      "ical": 1026,
      "Ġshow": 1027,
      "ded": 1028,
      "pro": 1029,
      "ean": 1030,
      "roo": 1031,
      "Ġaw": 1032,
      "Ġused": 1033,
      "develo": 1034,
      "Ġsti": 1035,
      "once": 1036,
      "ues": 1037,
      "Ġhan": 1038,
      "top": 1039,
      "sid": 1040,
      "sl": 1041,
      "Ġcoun": 1042,
      "Ġdevelo": 1043,
      "ise": 1044,
      "Ġgu": 1045,
      "Ġsystem": 1046,
      "ket": 1047,
      "usto": 1048,
      "ole": 1049,
      "Ġart": 1050,
      "rea": 1051,
      "Ġprovide": 1052,
      "ember": 1053,
      "Ġfind": 1054,
      "oc": 1055,
      "Ġmade": 1056,
      "sa": 1057,
      "Ġhere": 1058,
      "gi": 1059,
      "Ġapp": 1060,
      "ĠFo": 1061,
      "Ġ&": 1062,
      "ax": 1063,
      "Ġ6": 1064,
      "lor": 1065,
      "ouse": 1066,
      "Ġbei": 1067,
      "ffic": 1068,
      "Ġexperience": 1069,
      "ĠTr": 1070,
      "Ġdisc": 1071,
      "ext": 1072,
      "Ġproduct": 1073,
      "fore": 1074,
      "ectio": 1075,
      "ping": 1076,
      "Ġright": 1077,
      "gram": 1078,
      "Ġbeing": 1079,
      "bli": 1080,
      "nsu": 1081,
      "ection": 1082,
      "men": 1083,
      "Ġdoe": 1084,
      "Ġdoes": 1085,
      "hool": 1086,
      "bo": 1087,
      "ull": 1088,
      "urc": 1089,
      "Ġda": 1090,
      "Ġbefore": 1091,
      "Ġdid": 1092,
      "Ġti": 1093,
      "those": 1094,
      "Ġact": 1095,
      "Ġthose": 1096,
      "ealth": 1097,
      "Ġclo": 1098,
      "We": 1099,
      "Ġsm": 1100,
      "Ġplace": 1101,
      "Ġmin": 1102,
      "Ġtrans": 1103,
      "ire": 1104,
      "Ġlov": 1105,
      "ton": 1106,
      "Ġwee": 1107,
      "Ġworld": 1108,
      "Ġnum": 1109,
      "app": 1110,
      "Ġfree": 1111,
      "ren": 1112,
      "Ġarea": 1113,
      "ient": 1114,
      "hy": 1115,
      "Ġ$": 1116,
      "ug": 1117,
      "Ġwhil": 1118,
      "Ġweb": 1119,
      "kin": 1120,
      "ower": 1121,
      "efi": 1122,
      "Ġexc": 1123,
      "Ġplan": 1124,
      "Ġsupport": 1125,
      "This": 1126,
      "Ġfl": 1127,
      "Ġlove": 1128,
      "ssio": 1129,
      "Ġfami": 1130,
      "Ġpi": 1131,
      "omp": 1132,
      "Ġagain": 1133,
      "cs": 1134,
      "Ġfun": 1135,
      "ced": 1136,
      "In": 1137,
      "oing": 1138,
      "Ġwin": 1139,
      "ith": 1140,
      "Ġfol": 1141,
      "Ġchange": 1142,
      "ĠUni": 1143,
      "Ġcusto": 1144,
      "ĠGr": 1145,
      "ize": 1146,
      "ĠBe": 1147,
      "org": 1148,
      "nment": 1149,
      "tal": 1150,
      "Ġmedi": 1151,
      "ince": 1152,
      "Ġtec": 1153,
      "rder": 1154,
      "Ġdevelop": 1155,
      "eet": 1156,
      "Ġtech": 1157,
      "lls": 1158,
      "Ġwhile": 1159,
      "ount": 1160,
      "Ġbl": 1161,
      "Ġaround": 1162,
      "Ġbi": 1163,
      "main": 1164,
      "nth": 1165,
      "rn": 1166,
      "offer": 1167,
      "Ġunder": 1168,
      "Ġdifferent": 1169,
      "nti": 1170,
      "sk": 1171,
      "Ġoffer": 1172,
      "Ġlit": 1173,
      "Ġdat": 1174,
      "spa": 1175,
      "ality": 1176,
      "Ġsol": 1177,
      "Ġ200": 1178,
      "Ġreally": 1179,
      "Ġpol": 1180,
      "Ġavail": 1181,
      "real": 1182,
      "Ġaut": 1183,
      "Ġcommun": 1184,
      "rate": 1185,
      "here": 1186,
      "ĠSc": 1187,
      "pos": 1188,
      "Ġ7": 1189,
      "oup": 1190,
      "inst": 1191,
      "ier": 1192,
      "iving": 1193,
      "Ġcas": 1194,
      "Ġcomp": 1195,
      "Ġ8": 1196,
      "Ġtop": 1197,
      "ah": 1198,
      "Ġchild": 1199,
      "Ġ10": 1200,
      "ash": 1201,
      "att": 1202,
      "ently": 1203,
      "Ġ.": 1204,
      "ndi": 1205,
      "nl": 1206,
      "que": 1207,
      "Ġprogram": 1208,
      "Ġlong": 1209,
      "him": 1210,
      "ndu": 1211,
      "ĠFor": 1212,
      "last": 1213,
      "Ġsig": 1214,
      "lear": 1215,
      "tween": 1216,
      "vers": 1217,
      "Ġteam": 1218,
      "ages": 1219,
      "Ġob": 1220,
      "Ġreal": 1221,
      "Ġusi": 1222,
      "Ġusing": 1223,
      "ways": 1224,
      "Ġresu": 1225,
      "ĠFr": 1226,
      "Ġimport": 1227,
      "same": 1228,
      "large": 1229,
      "ssion": 1230,
      "Ġread": 1231,
      "iss": 1232,
      "sure": 1233,
      "run": 1234,
      "Ġboth": 1235,
      "Ġhim": 1236,
      "try": 1237,
      "nf": 1238,
      "ments": 1239,
      "Ġgame": 1240,
      "Ġsame": 1241,
      "sim": 1242,
      "Ġsur": 1243,
      "Ġlook": 1244,
      "mple": 1245,
      "Ġacti": 1246,
      "rev": 1247,
      "Ġsa": 1248,
      "Ġlast": 1249,
      "cy": 1250,
      "ĠAnd": 1251,
      "ards": 1252,
      "nstr": 1253,
      "ncy": 1254,
      "Ġthink": 1255,
      "indi": 1256,
      "Ġlarge": 1257,
      "yon": 1258,
      "ngs": 1259,
      "Ġform": 1260,
      "Ġsim": 1261,
      "Ġbetween": 1262,
      "list": 1263,
      "alo": 1264,
      "Ġinst": 1265,
      "sts": 1266,
      "Ġstil": 1267,
      "nu": 1268,
      "Ġavailable": 1269,
      "Ġdur": 1270,
      "Ġstill": 1271,
      "Ġprocess": 1272,
      "ĠTo": 1273,
      "Ġfound": 1274,
      "too": 1275,
      "ini": 1276,
      "eck": 1277,
      "nli": 1278,
      "nlin": 1279,
      "oti": 1280,
      "Ġrev": 1281,
      "ather": 1282,
      "logy": 1283,
      "ank": 1284,
      "Ġthough": 1285,
      "omple": 1286,
      "ĠPro": 1287,
      "nline": 1288,
      "Ġgoing": 1289,
      "Ġlear": 1290,
      "ru": 1291,
      "Ġindi": 1292,
      "oss": 1293,
      "Ġsto": 1294,
      "Ġcompany": 1295,
      "Ġty": 1296,
      "Ġproject": 1297,
      "ver": 1298,
      "ath": 1299,
      "Ġtoo": 1300,
      "pri": 1301,
      "ĠNew": 1302,
      "Ġval": 1303,
      "Ġparti": 1304,
      "eer": 1305,
      "Ġide": 1306,
      "aining": 1307,
      "hu": 1308,
      "Ġrun": 1309,
      "ities": 1310,
      "Ġfew": 1311,
      "Ġdata": 1312,
      "health": 1313,
      "Ġdesign": 1314,
      "Ġgener": 1315,
      "Ġfollow": 1316,
      "ĠThey": 1317,
      "amp": 1318,
      "Ġmil": 1319,
      "Ġadv": 1320,
      "essio": 1321,
      "Ġdir": 1322,
      "Ġmain": 1323,
      "Ġsite": 1324,
      "Ġcomple": 1325,
      "els": 1326,
      "oto": 1327,
      "Ġbas": 1328,
      "Ġspa": 1329,
      "hol": 1330,
      "ourse": 1331,
      "mem": 1332,
      "atur": 1333,
      "Ġwater": 1334,
      "Ġinclud": 1335,
      "Ġinclude": 1336,
      "Ġhealth": 1337,
      "Ġpar": 1338,
      "Ġorg": 1339,
      "Ġsmall": 1340,
      "live": 1341,
      "yl": 1342,
      "Ġear": 1343,
      "ĠSe": 1344,
      "Ġhand": 1345,
      "ĠBut": 1346,
      "ility": 1347,
      "Ġfeel": 1348,
      "rity": 1349,
      "Ġallow": 1350,
      "house": 1351,
      "Ġpost": 1352,
      "Ġroo": 1353,
      "leve": 1354,
      "Ġter": 1355,
      "Ġmonth": 1356,
      "sting": 1357,
      "ope": 1358,
      "Ġsl": 1359,
      "iver": 1360,
      "hed": 1361,
      "bers": 1362,
      "Ġlist": 1363,
      "scr": 1364,
      "onti": 1365,
      "Ġservices": 1366,
      "Ġalways": 1367,
      "Ġmanage": 1368,
      "Ġend": 1369,
      "ian": 1370,
      "cture": 1371,
      "Ġincluding": 1372,
      "Ġ9": 1373,
      "Ġlive": 1374,
      "blic": 1375,
      "happ": 1376,
      "Ġnumber": 1377,
      "000": 1378,
      "Ġmem": 1379,
      "Ġorgani": 1380,
      "Ġsure": 1381,
      "oday": 1382,
      "hard": 1383,
      "Ġthings": 1384,
      "fort": 1385,
      "loy": 1386,
      "Ġcurr": 1387,
      "aving": 1388,
      "order": 1389,
      "Ġcase": 1390,
      "Ġemp": 1391,
      "rth": 1392,
      "leg": 1393,
      "Ġduri": 1394,
      "Ġduring": 1395,
      "Ġmov": 1396,
      "must": 1397,
      "Ġhapp": 1398,
      "Ġfamily": 1399,
      "ges": 1400,
      "Ġthree": 1401,
      "Ġlittle": 1402,
      "pre": 1403,
      "lie": 1404,
      "Ġmust": 1405,
      "light": 1406,
      "ĠWi": 1407,
      "dep": 1408,
      "Ġwithout": 1409,
      "lead": 1410,
      "Ġiss": 1411,
      "Ġpay": 1412,
      "ition": 1413,
      "igi": 1414,
      "Ġsw": 1415,
      "yi": 1416,
      "Ġschool": 1417,
      "ody": 1418,
      "Ġque": 1419,
      "Ġbetter": 1420,
      "Wh": 1421,
      "Ġmod": 1422,
      "ĠMar": 1423,
      "Ġimportant": 1424,
      "oad": 1425,
      "blem": 1426,
      "turn": 1427,
      "Ġeffect": 1428,
      "edu": 1429,
      "Ġfact": 1430,
      "Ġrece": 1431,
      "range": 1432,
      "Ġlead": 1433,
      "online": 1434,
      "part": 1435,
      "Ġconce": 1436,
      "Ġwon": 1437,
      "onn": 1438,
      "ono": 1439,
      "anc": 1440,
      "Ġbui": 1441,
      "ying": 1442,
      "adi": 1443,
      "say": 1444,
      "cally": 1445,
      "icle": 1446,
      "erst": 1447,
      "Ġconti": 1448,
      "arm": 1449,
      "Ġpossi": 1450,
      "ĠFi": 1451,
      "Ġorder": 1452,
      "Ġfrien": 1453,
      "Ġonline": 1454,
      "Ġclass": 1455,
      "It": 1456,
      "Ġsay": 1457,
      "bal": 1458,
      "Ġrespon": 1459,
      "ample": 1460,
      "rest": 1461,
      "Ġleve": 1462,
      "mit": 1463,
      "ĠAs": 1464,
      "agi": 1465,
      "ries": 1466,
      "ys": 1467,
      "urce": 1468,
      "Ġable": 1469,
      "nsid": 1470,
      "Ġbeco": 1471,
      "ield": 1472,
      "Ġwal": 1473,
      "ĠMo": 1474,
      "eter": 1475,
      "Ġage": 1476,
      "gl": 1477,
      "meri": 1478,
      "eeds": 1479,
      "Ġlow": 1480,
      "Ġproblem": 1481,
      "If": 1482,
      "ĠDo": 1483,
      "head": 1484,
      "ĠEx": 1485,
      "ĠThere": 1486,
      "itc": 1487,
      "Ġbeg": 1488,
      "ĠHow": 1489,
      "ris": 1490,
      "can": 1491,
      "ets": 1492,
      "Ġalo": 1493,
      "Ġgroup": 1494,
      "Ġreport": 1495,
      "Ġkeep": 1496,
      "ngl": 1497,
      "ode": 1498,
      "Ġnext": 1499,
      "ital": 1500,
      "nts": 1501,
      "Ġtre": 1502,
      "Ġput": 1503,
      "asy": 1504,
      "nsider": 1505,
      "Ġwebsite": 1506,
      "Ġques": 1507,
      "Ġimpr": 1508,
      "Ġpric": 1509,
      "ĠPl": 1510,
      "Ġsomething": 1511,
      "Ġke": 1512,
      "ĠCl": 1513,
      "Ġpower": 1514,
      "Ġfull": 1515,
      "rch": 1516,
      "Ġappli": 1517,
      "test": 1518,
      "ements": 1519,
      "ential": 1520,
      "Ġwithi": 1521,
      "til": 1522,
      "Ġwithin": 1523,
      "spect": 1524,
      "Ġincrea": 1525,
      "cing": 1526,
      "ees": 1527,
      "Ġprice": 1528,
      "ession": 1529,
      "ual": 1530,
      "Ġlot": 1531,
      "min": 1532,
      "Ġanother": 1533,
      "tor": 1534,
      "ertain": 1535,
      "gu": 1536,
      "ĠAd": 1537,
      "ights": 1538,
      "hip": 1539,
      "indu": 1540,
      "Ġce": 1541,
      "ually": 1542,
      "Ġprof": 1543,
      "Ġbig": 1544,
      "ran": 1545,
      "tain": 1546,
      "since": 1547,
      "Ġcou": 1548,
      "Ġhard": 1549,
      "Ġperform": 1550,
      "Ġmight": 1551,
      "Ġquality": 1552,
      "joy": 1553,
      "shi": 1554,
      "table": 1555,
      "ork": 1556,
      "Ġeng": 1557,
      "Ġsince": 1558,
      "ĠSu": 1559,
      "ĠBu": 1560,
      "ccess": 1561,
      "ired": 1562,
      "Ġappro": 1563,
      "Ġgrow": 1564,
      "law": 1565,
      "self": 1566,
      "Ġcourse": 1567,
      "Ġspecial": 1568,
      "ĠOn": 1569,
      "Ġfu": 1570,
      "ark": 1571,
      "onsider": 1572,
      "Ġaddition": 1573,
      "enc": 1574,
      "Ġopen": 1575,
      "Ġdirect": 1576,
      "ink": 1577,
      "aj": 1578,
      "Ġname": 1579,
      "Ġoper": 1580,
      "Ġidea": 1581,
      "ply": 1582,
      "og": 1583,
      "mon": 1584,
      "yone": 1585,
      "ties": 1586,
      "onv": 1587,
      "ense": 1588,
      "Ġcol": 1589,
      "Ġshare": 1590,
      "Ġunderst": 1591,
      "sol": 1592,
      "making": 1593,
      "Ġless": 1594,
      "Ġbre": 1595,
      "ients": 1596,
      "mers": 1597,
      "ĠMan": 1598,
      "ading": 1599,
      "Ġbook": 1600,
      "stic": 1601,
      "ule": 1602,
      "Ġweek": 1603,
      "Ġequ": 1604,
      "oic": 1605,
      "Ġindu": 1606,
      "ĠAmeri": 1607,
      "Ġextr": 1608,
      "ege": 1609,
      "cated": 1610,
      "Ġpersonal": 1611,
      "Ġpos": 1612,
      "sive": 1613,
      "Ġdays": 1614,
      "oni": 1615,
      "cke": 1616,
      "Ġconsider": 1617,
      "load": 1618,
      "Ġworking": 1619,
      "Ġtyp": 1620,
      "Ġview": 1621,
      "dem": 1622,
      "teg": 1623,
      "ĠChr": 1624,
      "ship": 1625,
      "rep": 1626,
      "vis": 1627,
      "today": 1628,
      "ĠQ": 1629,
      "oor": 1630,
      "Ġhouse": 1631,
      "ĠNo": 1632,
      "ape": 1633,
      "oice": 1634,
      "ists": 1635,
      "eth": 1636,
      "Ġpop": 1637,
      "Ġtoday": 1638,
      "ski": 1639,
      "ately": 1640,
      "Ġproducts": 1641,
      "Ġ'": 1642,
      "Ġfeature": 1643,
      "Ġlocal": 1644,
      "ration": 1645,
      "Ġgot": 1646,
      "Ġnever": 1647,
      "Ġtype": 1648,
      "atch": 1649,
      "aster": 1650,
      "date": 1651,
      "Ġvisit": 1652,
      "Ġlooking": 1653,
      "Ġprot": 1654,
      "Ġ20": 1655,
      "acr": 1656,
      "Ġrest": 1657,
      "Ġelect": 1658,
      "ĠJo": 1659,
      "Ġtal": 1660,
      "Ġtea": 1661,
      "Ġbecom": 1662,
      "uth": 1663,
      "stry": 1664,
      "Ġbecome": 1665,
      "Ġhead": 1666,
      "ely": 1667,
      "Ġrep": 1668,
      "nfi": 1669,
      "lding": 1670,
      "ĠâĢĺ": 1671,
      "Ġstudents": 1672,
      "Ġconv": 1673,
      "Ġple": 1674,
      "Ġmarket": 1675,
      "Ġmaking": 1676,
      "Ġbri": 1677,
      "Ġ12": 1678,
      "ften": 1679,
      "limi": 1680,
      "eam": 1681,
      "ĠAll": 1682,
      "eans": 1683,
      "Ġjob": 1684,
      "Ġpracti": 1685,
      "Ġenjoy": 1686,
      "search": 1687,
      "!!": 1688,
      "Ġstand": 1689,
      "Ġreceive": 1690,
      "Ġresearch": 1691,
      "Ġmus": 1692,
      "arr": 1693,
      "Ġneeds": 1694,
      "gether": 1695,
      ".\"": 1696,
      "Ġplea": 1697,
      "Ġhu": 1698,
      "Ġlaw": 1699,
      "ging": 1700,
      "nstru": 1701,
      "Ġmen": 1702,
      "cular": 1703,
      "orr": 1704,
      "Ġcall": 1705,
      "Ġcomplete": 1706,
      "ĠSer": 1707,
      "Ġcare": 1708,
      "mpl": 1709,
      "You": 1710,
      "inf": 1711,
      "Ġcau": 1712,
      "Ġaccess": 1713,
      "ER": 1714,
      "easy": 1715,
      "gy": 1716,
      "Ġside": 1717,
      "ult": 1718,
      "aly": 1719,
      "loo": 1720,
      "Ġpresent": 1721,
      "ains": 1722,
      "Ġstu": 1723,
      "Ġprop": 1724,
      "ze": 1725,
      "Ġatt": 1726,
      "Ġchildren": 1727,
      "Ġmoney": 1728,
      "Ġcover": 1729,
      "ĠZ": 1730,
      "ats": 1731,
      "Ġevent": 1732,
      "Ġeasy": 1733,
      "Ġperso": 1734,
      "tiv": 1735,
      "ized": 1736,
      "sale": 1737,
      "Ġpoli": 1738,
      "Ġconn": 1739,
      "ina": 1740,
      "ffice": 1741,
      "together": 1742,
      "Ġdem": 1743,
      "Ġben": 1744,
      "sever": 1745,
      "med": 1746,
      "bu": 1747,
      "ails": 1748,
      "Ġspe": 1749,
      "Ġemploy": 1750,
      "cations": 1751,
      "Ġsever": 1752,
      "Ġpe": 1753,
      "Ġperson": 1754,
      "onsu": 1755,
      "hist": 1756,
      "iety": 1757,
      "ĠDr": 1758,
      "ably": 1759,
      "Ġ18": 1760,
      "tre": 1761,
      "iting": 1762,
      "Ġsuccess": 1763,
      "ĠInter": 1764,
      "vidu": 1765,
      "Ġchar": 1766,
      "ĠHo": 1767,
      "Ġbelie": 1768,
      "tten": 1769,
      "Ġscr": 1770,
      "ral": 1771,
      "ndition": 1772,
      "tting": 1773,
      "Ġski": 1774,
      "ible": 1775,
      "Ġpoint": 1776,
      "yle": 1777,
      "Ġsof": 1778,
      "ability": 1779,
      "ason": 1780,
      "ump": 1781,
      "ening": 1782,
      "Ġpublic": 1783,
      "ward": 1784,
      "mater": 1785,
      "often": 1786,
      "Ġcontrol": 1787,
      "pla": 1788,
      "50": 1789,
      "ict": 1790,
      "others": 1791,
      "ected": 1792,
      "actio": 1793,
      "ether": 1794,
      "Ġcollect": 1795,
      "cul": 1796,
      "action": 1797,
      "Ġtel": 1798,
      "Ġalong": 1799,
      "10": 1800,
      "dow": 1801,
      "Ġaway": 1802,
      "br": 1803,
      "aph": 1804,
      "oos": 1805,
      "ĠUS": 1806,
      "Ġoften": 1807,
      "Ġreason": 1808,
      "enter": 1809,
      ".,": 1810,
      "ĠShe": 1811,
      "serv": 1812,
      "ler": 1813,
      "eart": 1814,
      "Ġcoll": 1815,
      "Ġleg": 1816,
      "Ġmater": 1817,
      "east": 1818,
      "ĠWith": 1819,
      "Ġtogether": 1820,
      "Ġrespons": 1821,
      "Ġtechno": 1822,
      "Ġpossible": 1823,
      "Ġpain": 1824,
      "select": 1825,
      "Ġspac": 1826,
      "Ġvari": 1827,
      "ept": 1828,
      "ompl": 1829,
      "Ġpass": 1830,
      "Ġcheck": 1831,
      "azi": 1832,
      "Ġuntil": 1833,
      "Ġbeaut": 1834,
      "onfi": 1835,
      "utes": 1836,
      "ster": 1837,
      "Ġspace": 1838,
      "ref": 1839,
      "Ġincreas": 1840,
      "ock": 1841,
      "eft": 1842,
      "hal": 1843,
      "Ġconsu": 1844,
      "unc": 1845,
      "Ġroom": 1846,
      "Ġstate": 1847,
      "ask": 1848,
      "Ġselect": 1849,
      "Ġsafe": 1850,
      "Ġbased": 1851,
      "Ġlight": 1852,
      "Ġcreate": 1853,
      "Ġfood": 1854,
      "vir": 1855,
      "ix": 1856,
      "versity": 1857,
      "Ġindividu": 1858,
      "nger": 1859,
      "Ġshort": 1860,
      "Ġmill": 1861,
      "eful": 1862,
      "Ġexample": 1863,
      "ator": 1864,
      "Ġkin": 1865,
      "Ġhist": 1866,
      "atten": 1867,
      "Ġvid": 1868,
      "olo": 1869,
      "Ġclos": 1870,
      "Ġsit": 1871,
      "Ġtrea": 1872,
      "ime": 1873,
      "Ġwhy": 1874,
      "having": 1875,
      "occ": 1876,
      "Ġacr": 1877,
      "oci": 1878,
      "Ġold": 1879,
      "ĠWo": 1880,
      "Ġnon": 1881,
      "rding": 1882,
      "ording": 1883,
      "ulti": 1884,
      "Ġcommunity": 1885,
      "ĠLe": 1886,
      "tem": 1887,
      "ference": 1888,
      "An": 1889,
      "Ġsale": 1890,
      "ĠCan": 1891,
      "lv": 1892,
      "Ġhaving": 1893,
      "Ġpast": 1894,
      "ĠCom": 1895,
      "nish": 1896,
      "ĠWhen": 1897,
      "cus": 1898,
      "vil": 1899,
      "Ġcost": 1900,
      "viro": 1901,
      "gle": 1902,
      "Ġtimes": 1903,
      "Ġdep": 1904,
      "nies": 1905,
      "ished": 1906,
      "esp": 1907,
      "Ġbenefi": 1908,
      "portun": 1909,
      "Ġperfect": 1910,
      "bin": 1911,
      "Ġwan": 1912,
      "ondition": 1913,
      "urs": 1914,
      "Ġpat": 1915,
      "Ġpropert": 1916,
      "Ġresul": 1917,
      "Ġref": 1918,
      "Ġpot": 1919,
      "Ġatten": 1920,
      "rigi": 1921,
      "Ġagainst": 1922,
      "Ġgover": 1923,
      "anding": 1924,
      "Ġcontact": 1925,
      "Ġair": 1926,
      "Ġpage": 1927,
      "ĠTha": 1928,
      "Ġactivi": 1929,
      "ĠPa": 1930,
      "emi": 1931,
      "ĠCoun": 1932,
      "âĢ¦": 1933,
      ",âĢĿ": 1934,
      "cent": 1935,
      "fter": 1936,
      "essional": 1937,
      "size": 1938,
      "Ġnear": 1939,
      "Ġblo": 1940,
      "Ġinf": 1941,
      "avel": 1942,
      "cipa": 1943,
      "ĠThat": 1944,
      "tail": 1945,
      "Ġlevel": 1946,
      "oli": 1947,
      "Ġconfi": 1948,
      "Ġorganiz": 1949,
      "ings": 1950,
      "vious": 1951,
      "eti": 1952,
      "Ġ0": 1953,
      "Ġintern": 1954,
      "means": 1955,
      "hum": 1956,
      "...": 1957,
      "ped": 1958,
      "Ġinterest": 1959,
      "ei": 1960,
      "stit": 1961,
      "Ġmeans": 1962,
      "Ġopportun": 1963,
      "defi": 1964,
      "pan": 1965,
      "ĠPh": 1966,
      "Ġspecific": 1967,
      "Ġdone": 1968,
      "âĢľ": 1969,
      "avi": 1970,
      "ids": 1971,
      "Ġmakes": 1972,
      "ĠWha": 1973,
      "cked": 1974,
      "So": 1975,
      "sis": 1976,
      "ĠWhat": 1977,
      "Ġtem": 1978,
      "ajo": 1979,
      "Ġest": 1980,
      "uture": 1981,
      "ands": 1982,
      "ĠSp": 1983,
      "ĠOu": 1984,
      "pt": 1985,
      "Ġbuilding": 1986,
      "Ġdevelopment": 1987,
      "rther": 1988,
      "cum": 1989,
      "Ġteac": 1990,
      "ĠTe": 1991,
      "Ġten": 1992,
      "Ġmembers": 1993,
      "ready": 1994,
      "ĠMa": 1995,
      "left": 1996,
      "Ġcondition": 1997,
      "Ġgl": 1998,
      "Ġboo": 1999,
      "ps": 2000,
      "Ġfar": 2001,
      "Ġrange": 2002,
      "Ġreview": 2003,
      "ngle": 2004,
      "Ġau": 2005,
      "ĠOur": 2006,
      "Ġni": 2007,
      "avo": 2008,
      "ird": 2009,
      "Ġbegi": 2010,
      "ĠEv": 2011,
      "esti": 2012,
      "Ġcertain": 2013,
      "cono": 2014,
      "Ġfina": 2015,
      "Ġocc": 2016,
      "Ġsolution": 2017,
      "Ġedu": 2018,
      "Ġbody": 2019,
      "Ġvers": 2020,
      "tool": 2021,
      "Ġenough": 2022,
      "Al": 2023,
      "ĠGod": 2024,
      "Ġseveral": 2025,
      "Ġothers": 2026,
      "Ġleft": 2027,
      "ene": 2028,
      "hear": 2029,
      "IN": 2030,
      "deal": 2031,
      "way": 2032,
      "fa": 2033,
      "Ġdefi": 2034,
      "'re": 2035,
      "ĠâĢĶ": 2036,
      "Ġ15": 2037,
      "insu": 2038,
      "ĠBo": 2039,
      "eon": 2040,
      "Ġbuy": 2041,
      "Ġstep": 2042,
      "Ġid": 2043,
      "Ġenti": 2044,
      "ĠIs": 2045,
      "oming": 2046,
      "iful": 2047,
      "ingle": 2048,
      "iec": 2049,
      "Ġtreat": 2050,
      "rcha": 2051,
      "Ġalready": 2052,
      "tive": 2053,
      "Ġacross": 2054,
      "Ġmusi": 2055,
      "vironment": 2056,
      "bility": 2057,
      "ĠThes": 2058,
      "ances": 2059,
      "Ġbegin": 2060,
      "Ġhum": 2061,
      "Ġsocial": 2062,
      "ĠThese": 2063,
      "Ġhear": 2064,
      "As": 2065,
      "Ġpleas": 2066,
      "ĠUniversity": 2067,
      "Ġkey": 2068,
      "multi": 2069,
      "Ġenc": 2070,
      "Ġ30": 2071,
      "lar": 2072,
      "Ġsug": 2073,
      "cto": 2074,
      "20": 2075,
      "iece": 2076,
      "Ġtool": 2077,
      "Ġpurcha": 2078,
      "ĠAu": 2079,
      "aps": 2080,
      "Ġgetting": 2081,
      "ateg": 2082,
      "nate": 2083,
      "Ġbal": 2084,
      "Ġtry": 2085,
      "Ġmulti": 2086,
      "Ġcel": 2087,
      "Ġcountry": 2088,
      "Ġbeh": 2089,
      "Ġcap": 2090,
      "Ġmilli": 2091,
      "Ġdoi": 2092,
      "majo": 2093,
      "Ġinsu": 2094,
      "Fo": 2095,
      "Ġsize": 2096,
      "Ġuni": 2097,
      "ĠCr": 2098,
      "ending": 2099,
      "Ġbelow": 2100,
      "Ġquick": 2101,
      "âĢĶ": 2102,
      "une": 2103,
      "cks": 2104,
      "Ġfuture": 2105,
      "rance": 2106,
      "Wha": 2107,
      "Ġmajo": 2108,
      "Ġdeal": 2109,
      "What": 2110,
      "Ġhol": 2111,
      "eason": 2112,
      "oid": 2113,
      "Ġclear": 2114,
      "Ġfile": 2115,
      "Ġmode": 2116,
      "door": 2117,
      "fil": 2118,
      "eave": 2119,
      "oil": 2120,
      "Ġtra": 2121,
      "Ġcontin": 2122,
      "Ġfinal": 2123,
      "origi": 2124,
      "dl": 2125,
      "Ġris": 2126,
      "ker": 2127,
      "ury": 2128,
      "Ġphoto": 2129,
      "Ġinstall": 2130,
      "ivers": 2131,
      "pose": 2132,
      "Ġredu": 2133,
      "Ġcorr": 2134,
      "Ġlearn": 2135,
      "Ġmillio": 2136,
      "30": 2137,
      "Ġmillion": 2138,
      "ither": 2139,
      "lve": 2140,
      "Ġoffers": 2141,
      "eel": 2142,
      "Ġindustry": 2143,
      "ĠMu": 2144,
      "Ġparticular": 2145,
      "Ġtable": 2146,
      "ters": 2147,
      "avor": 2148,
      "Ġinvest": 2149,
      "Ġlimi": 2150,
      "Ġdoing": 2151,
      "ific": 2152,
      "eh": 2153,
      "ĠAp": 2154,
      "Ġsearch": 2155,
      "Ġorigi": 2156,
      "season": 2157,
      "Ġrele": 2158,
      "Ġrelea": 2159,
      "Ġport": 2160,
      "hours": 2161,
      "Ġitem": 2162,
      "Ġcity": 2163,
      "esh": 2164,
      "Ġelectr": 2165,
      "Ġnight": 2166,
      "lities": 2167,
      "Ġbit": 2168,
      "Ġcompl": 2169,
      "ained": 2170,
      "atter": 2171,
      "ĠLi": 2172,
      "Ġchoos": 2173,
      "Ġinvol": 2174,
      "Ġwid": 2175,
      "Ġreso": 2176,
      "Ġbring": 2177,
      "ged": 2178,
      "Ġcompanies": 2179,
      "Ġsta": 2180,
      "ĠIndi": 2181,
      "ĠMy": 2182,
      "Ġki": 2183,
      "meth": 2184,
      "Ġfour": 2185,
      "least": 2186,
      "ĠCar": 2187,
      "Ġhours": 2188,
      "Ġleast": 2189,
      "Ġmini": 2190,
      "Ġvalue": 2191,
      "curity": 2192,
      "aff": 2193,
      "dress": 2194,
      "ctions": 2195,
      "go": 2196,
      "visi": 2197,
      "ĠStr": 2198,
      "On": 2199,
      "Ġ11": 2200,
      "ift": 2201,
      "bil": 2202,
      "Ġidenti": 2203,
      "ental": 2204,
      "evice": 2205,
      "Ġactually": 2206,
      "ĠLo": 2207,
      "rni": 2208,
      "ĠAt": 2209,
      "Ġcalled": 2210,
      "ious": 2211,
      "Ġtechni": 2212,
      "mal": 2213,
      "Ġauth": 2214,
      "ken": 2215,
      "Ġonce": 2216,
      "ON": 2217,
      "Ġrecomm": 2218,
      "Ġstory": 2219,
      "Ġprofessional": 2220,
      "Ġprovi": 2221,
      "Ġbed": 2222,
      "device": 2223,
      "acy": 2224,
      "Ġauto": 2225,
      "die": 2226,
      "orth": 2227,
      "Ġstarted": 2228,
      "ES": 2229,
      "Ġanaly": 2230,
      "Ġdevice": 2231,
      "office": 2232,
      "Ġcolo": 2233,
      "Ġmarke": 2234,
      "isi": 2235,
      "Ġmeth": 2236,
      "mission": 2237,
      "res": 2238,
      "Ġcustomers": 2239,
      "'m": 2240,
      "don": 2241,
      "anks": 2242,
      "For": 2243,
      "Ġadd": 2244,
      "AT": 2245,
      "Ġbeautiful": 2246,
      "Ġess": 2247,
      "Ġ2018": 2248,
      "heart": 2249,
      "Ġfeatures": 2250,
      "atic": 2251,
      "Ġseason": 2252,
      "Ġmusic": 2253,
      "single": 2254,
      "Ġproc": 2255,
      "19": 2256,
      "oe": 2257,
      "Ġshop": 2258,
      "Ġresults": 2259,
      "'v": 2260,
      "'ve": 2261,
      "oin": 2262,
      "Ġoffice": 2263,
      "Ġland": 2264,
      "Ġpractic": 2265,
      "ics": 2266,
      "rai": 2267,
      "Ġvideo": 2268,
      "Ġcut": 2269,
      "escr": 2270,
      "not": 2271,
      "Ġminutes": 2272,
      "most": 2273,
      "sal": 2274,
      "ĠHowever": 2275,
      "olor": 2276,
      "plac": 2277,
      "allen": 2278,
      "Ġpractice": 2279,
      "unch": 2280,
      "Ġener": 2281,
      "Ġsingle": 2282,
      "Ġturn": 2283,
      "Ġstop": 2284,
      "Ġpho": 2285,
      "cre": 2286,
      "tax": 2287,
      "ĠMe": 2288,
      "Ġcul": 2289,
      "Ġdidn": 2290,
      "Ġtechnology": 2291,
      "Ġfac": 2292,
      "ae": 2293,
      "Ġabove": 2294,
      "Ġfield": 2295,
      "ĠEu": 2296,
      "hit": 2297,
      "deci": 2298,
      "Ġcurrent": 2299,
      "ledge": 2300,
      "There": 2301,
      "Ġdiscu": 2302,
      "tware": 2303,
      "Ġplease": 2304,
      "ester": 2305,
      "tow": 2306,
      "Ġenvironment": 2307,
      "Ġwhole": 2308,
      "Ġblog": 2309,
      "Ġcamp": 2310,
      "Ġcaus": 2311,
      "outh": 2312,
      "ners": 2313,
      "Ġcharact": 2314,
      "ought": 2315,
      "Ġbeliev": 2316,
      "Ġdoesn": 2317,
      "Ġpicture": 2318,
      "'l": 2319,
      "'ll": 2320,
      "Ġkind": 2321,
      "tot": 2322,
      "Ġstyle": 2323,
      "Ġdeci": 2324,
      "Ġcontent": 2325,
      "ncial": 2326,
      "hn": 2327,
      "intr": 2328,
      "half": 2329,
      "Ġa": 2330,
      "Ġas": 2331,
      "Ġat": 2332,
      "Ġac": 2333,
      "Ġprovides": 2334,
      "mfort": 2335,
      "gest": 2336,
      "omfort": 2337,
      "Ġeverything": 2338,
      "nsp": 2339,
      "Ġrecommend": 2340,
      "dy": 2341,
      "Ġappr": 2342,
      "road": 2343,
      "AN": 2344,
      "Ġmonths": 2345,
      "Ġbelieve": 2346,
      "Ġtest": 2347,
      "ots": 2348,
      "gs": 2349,
      "ĠPre": 2350,
      "redi": 2351,
      "nific": 2352,
      "hold": 2353,
      "Ġtow": 2354,
      "Ġfocus": 2355,
      "Ġensure": 2356,
      "lack": 2357,
      "Ġtax": 2358,
      "Ġstay": 2359,
      "fact": 2360,
      "AR": 2361,
      "dam": 2362,
      "ph": 2363,
      "Ġquestions": 2364,
      "Ġheart": 2365,
      "Ġvol": 2366,
      "ĠAss": 2367,
      "ĠX": 2368,
      "Ġunderstand": 2369,
      "aning": 2370,
      "get": 2371,
      "urces": 2372,
      "visio": 2373,
      "Ġgiven": 2374,
      "par": 2375,
      "Ġstore": 2376,
      "Ġyours": 2377,
      "econo": 2378,
      "Ġknown": 2379,
      "den": 2380,
      "Ġtot": 2381,
      "Ġdue": 2382,
      "hie": 2383,
      "Ġsuper": 2384,
      "Ġtraining": 2385,
      "Ġcame": 2386,
      "Ġtravel": 2387,
      "Ġaddress": 2388,
      "eld": 2389,
      "Ġengi": 2390,
      "Ġdistr": 2391,
      "later": 2392,
      "Ġengin": 2393,
      "Ġproperty": 2394,
      "era": 2395,
      "taking": 2396,
      "Ġearly": 2397,
      "Ġnatur": 2398,
      "ĠÂ": 2399,
      "Ġmove": 2400,
      "Ġeducation": 2401,
      "eone": 2402,
      "Ġrepre": 2403,
      "ane": 2404,
      "Ġlan": 2405,
      "Ġexpert": 2406,
      "eeting": 2407,
      "rpo": 2408,
      "urch": 2409,
      "Ġmind": 2410,
      "Ġyet": 2411,
      "ĠIntern": 2412,
      "nder": 2413,
      "Ġreac": 2414,
      "Ġz": 2415,
      "Ġactio": 2416,
      "Ġeffective": 2417,
      "Ġintr": 2418,
      "Ġpriv": 2419,
      "Ġaction": 2420,
      "Ġperi": 2421,
      "Ġsimple": 2422,
      "Ġwai": 2423,
      "lves": 2424,
      "leave": 2425,
      "Ġthought": 2426,
      "Ġmanagement": 2427,
      "Ġgovernment": 2428,
      "Ġey": 2429,
      "ecially": 2430,
      "Ġaccount": 2431,
      "abo": 2432,
      "Ġteach": 2433,
      "Ġfriend": 2434,
      "Ġlu": 2435,
      "lay": 2436,
      "hope": 2437,
      "Ġnetwo": 2438,
      "Ġ199": 2439,
      "partment": 2440,
      "ĠDis": 2441,
      "ĠEur": 2442,
      "Ġissues": 2443,
      "uly": 2444,
      "Ġworks": 2445,
      "ffi": 2446,
      "When": 2447,
      "ĠGu": 2448,
      "Ġecono": 2449,
      "Ġdrive": 2450,
      "Ġleave": 2451,
      "Ġpiece": 2452,
      "vision": 2453,
      "etting": 2454,
      "Ġvarious": 2455,
      "ouc": 2456,
      "Ġhope": 2457,
      "Ġ100": 2458,
      "Pr": 2459,
      "Ġareas": 2460,
      "Ġglo": 2461,
      "ĠSy": 2462,
      "Ġsound": 2463,
      "Ġchoice": 2464,
      "Ġvis": 2465,
      "Ġwatch": 2466,
      "Ġexten": 2467,
      "fac": 2468,
      "Ġfriends": 2469,
      "Ġrequire": 2470,
      "ĠQu": 2471,
      "liver": 2472,
      ",\"": 2473,
      "Ġstudy": 2474,
      "eni": 2475,
      "ister": 2476,
      "play": 2477,
      "ĠWor": 2478,
      "Ġphon": 2479,
      "Ġincrease": 2480,
      "took": 2481,
      "eaning": 2482,
      "ww": 2483,
      "Ġphone": 2484,
      "wh": 2485,
      "aging": 2486,
      "ub": 2487,
      "Ġtook": 2488,
      "Ġrequired": 2489,
      "Ġfollowi": 2490,
      "Ġbuild": 2491,
      "Ġfollowing": 2492,
      "Ġwrit": 2493,
      "Ġclose": 2494,
      "either": 2495,
      "Ġvar": 2496,
      "living": 2497,
      "ants": 2498,
      "we": 2499,
      "Ġpur": 2500,
      "ified": 2501,
      "face": 2502,
      "ĠOne": 2503,
      "Ġusu": 2504,
      "itical": 2505,
      "ĠService": 2506,
      "says": 2507,
      "insp": 2508,
      "edit": 2509,
      "essing": 2510,
      "Ġwhether": 2511,
      "How": 2512,
      "Ġsays": 2513,
      "mini": 2514,
      "Ġtw": 2515,
      "Ġface": 2516,
      "ĠMay": 2517,
      "tails": 2518,
      "Ġunique": 2519,
      "seen": 2520,
      "iday": 2521,
      "Ġwonder": 2522,
      "ecto": 2523,
      "Ġenergy": 2524,
      "Ġcolor": 2525,
      "Ġlater": 2526,
      "descr": 2527,
      "bile": 2528,
      "Ġ,": 2529,
      "deter": 2530,
      "Ġpurchas": 2531,
      "dle": 2532,
      "201": 2533,
      "Ġarticle": 2534,
      "ino": 2535,
      "Ġliving": 2536,
      "ials": 2537,
      "mic": 2538,
      "dies": 2539,
      "Ġdownload": 2540,
      "cious": 2541,
      "tty": 2542,
      "rge": 2543,
      "save": 2544,
      "Ġstrateg": 2545,
      "tics": 2546,
      "ĠAmerican": 2547,
      "mess": 2548,
      "Ġfund": 2549,
      "Ġtaking": 2550,
      "ufact": 2551,
      "Ġemail": 2552,
      "Ġperformance": 2553,
      "Ġchoose": 2554,
      "oa": 2555,
      "Ġfurther": 2556,
      "Ġsomeone": 2557,
      "role": 2558,
      "Ġautho": 2559,
      "shing": 2560,
      "Ġapproa": 2561,
      "Ġapproac": 2562,
      "Ġdescr": 2563,
      "Ġdeter": 2564,
      "OR": 2565,
      "especially": 2566,
      "Ġmedia": 2567,
      "Ġmess": 2568,
      "Ġsave": 2569,
      "Ġprob": 2570,
      "now": 2571,
      "Ġdecis": 2572,
      "Ġdecisi": 2573,
      "efore": 2574,
      "Ġ16": 2575,
      "Ġdecisio": 2576,
      "Ġtell": 2577,
      "ucture": 2578,
      "Ġdecision": 2579,
      "ford": 2580,
      "Ġamong": 2581,
      "ĠChrist": 2582,
      "Ġparticipa": 2583,
      "Ġphys": 2584,
      "Ġcharge": 2585,
      "Ġeye": 2586,
      "ength": 2587,
      "tour": 2588,
      "Ġpress": 2589,
      "Ġpack": 2590,
      "Ġansw": 2591,
      "onstru": 2592,
      "To": 2593,
      "Ġoriginal": 2594,
      "Ġarr": 2595,
      "fen": 2596,
      "12": 2597,
      "ĠBi": 2598,
      "itiv": 2599,
      "emo": 2600,
      "ĠSom": 2601,
      "Ġenter": 2602,
      "Ġversi": 2603,
      "Ġinsp": 2604,
      "ĠBa": 2605,
      "Ġseen": 2606,
      "Ġversio": 2607,
      "Ġeither": 2608,
      "Ġrelation": 2609,
      "Ġdesigned": 2610,
      "Ġfront": 2611,
      "press": 2612,
      "Ġclai": 2613,
      "Ġversion": 2614,
      "Ġresult": 2615,
      "Ġpercent": 2616,
      "ogni": 2617,
      "Ġflow": 2618,
      "nation": 2619,
      "Ġcomfort": 2620,
      "Ġwent": 2621,
      "uter": 2622,
      "Ġequip": 2623,
      "Ġnecess": 2624,
      "imilar": 2625,
      "Ġ14": 2626,
      "Ġamount": 2627,
      "ector": 2628,
      "sun": 2629,
      "rary": 2630,
      "Ġdam": 2631,
      "Ġdocum": 2632,
      "Ġprev": 2633,
      "Ġprovided": 2634,
      "Ġfiv": 2635,
      "Ġaudi": 2636,
      "cut": 2637,
      "Ġwomen": 2638,
      "Ġfive": 2639,
      "Ġentire": 2640,
      "Ġcustomer": 2641,
      "Ġrole": 2642,
      "Ġtour": 2643,
      "Ġneeded": 2644,
      "Ġfinish": 2645,
      "eading": 2646,
      "etc": 2647,
      "Ġquite": 2648,
      "onc": 2649,
      "ouble": 2650,
      "ily": 2651,
      "Ġcos": 2652,
      "Ġhistory": 2653,
      "lub": 2654,
      "Ġstrong": 2655,
      "ang": 2656,
      "Ġnic": 2657,
      "mmon": 2658,
      "posed": 2659,
      "Ġincludes": 2660,
      "Ġmix": 2661,
      "Ġstaff": 2662,
      "ĠAr": 2663,
      "unt": 2664,
      "Ġsimply": 2665,
      "Ġsignific": 2666,
      "Ġoptions": 2667,
      "Ġmajor": 2668,
      "Ġwar": 2669,
      "wo": 2670,
      "Ġfaci": 2671,
      "Ġespecially": 2672,
      "Ġwriting": 2673,
      "Ġcause": 2674,
      "Ġmid": 2675,
      "Ġwhite": 2676,
      "Ġsoftware": 2677,
      "ehicle": 2678,
      "ĠDi": 2679,
      "ĠUnited": 2680,
      "ecurity": 2681,
      "entr": 2682,
      "Ġquestion": 2683,
      "Ġapproach": 2684,
      "Ġclean": 2685,
      "ĠDa": 2686,
      "Ġfit": 2687,
      "nking": 2688,
      "Ġeffort": 2689,
      "Ġachie": 2690,
      "Ġtrack": 2691,
      "ĠArt": 2692,
      "Ġseries": 2693,
      "ĠSouth": 2694,
      "ĠRo": 2695,
      "esting": 2696,
      "ention": 2697,
      "Ġini": 2698,
      "Ġpoi": 2699,
      "dom": 2700,
      "point": 2701,
      "Ġassist": 2702,
      "ĠYour": 2703,
      "Ġfavor": 2704,
      "Ġyourself": 2705,
      "ommon": 2706,
      "Ġtur": 2707,
      "Ġcapa": 2708,
      "Ġregi": 2709,
      "azing": 2710,
      "Ġreturn": 2711,
      "Ġsystems": 2712,
      "Ġ24": 2713,
      "isting": 2714,
      "Ġeveryone": 2715,
      "match": 2716,
      "sident": 2717,
      "odu": 2718,
      "oom": 2719,
      "Ġchallen": 2720,
      "ett": 2721,
      "Ġai": 2722,
      "Ġbreak": 2723,
      "ĠCity": 2724,
      "oved": 2725,
      "Ġknowledge": 2726,
      "Ġnatural": 2727,
      "Ġcommuni": 2728,
      "Ġsitu": 2729,
      "itive": 2730,
      "ief": 2731,
      "Ġdig": 2732,
      "Ġcode": 2733,
      "ĠMedi": 2734,
      "Ġcop": 2735,
      "ĠSome": 2736,
      "err": 2737,
      "ED": 2738,
      "ouch": 2739,
      "Ġsumm": 2740,
      "ĠEl": 2741,
      "ĠWil": 2742,
      "Ġanti": 2743,
      "Ġhalf": 2744,
      "Ġapplication": 2745,
      "nj": 2746,
      "Ġdiffic": 2747,
      "Ġmodel": 2748,
      "meeting": 2749,
      "Ġtradition": 2750,
      "ĠSi": 2751,
      "Ġ2017": 2752,
      "Ġbar": 2753,
      "Ġevents": 2754,
      "Ġideas": 2755,
      "Ġiniti": 2756,
      "AS": 2757,
      "Ġanything": 2758,
      "Ġetc": 2759,
      "Ġproblems": 2760,
      "Ġimpa": 2761,
      "Ġways": 2762,
      "Ġmoder": 2763,
      "Ġmeeting": 2764,
      "mb": 2765,
      "Ġcard": 2766,
      "Ġsuppl": 2767,
      "cis": 2768,
      "itchen": 2769,
      "Ġpopular": 2770,
      "etails": 2771,
      "lent": 2772,
      "ign": 2773,
      "Ġcir": 2774,
      "eliver": 2775,
      "Ġ/": 2776,
      "meet": 2777,
      "ufactu": 2778,
      "Ġgames": 2779,
      "town": 2780,
      "ĠSchool": 2781,
      "Ġred": 2782,
      "Ġagree": 2783,
      "Ġclients": 2784,
      "Ġalmost": 2785,
      "ators": 2786,
      "Ġran": 2787,
      "Ġmeet": 2788,
      "loor": 2789,
      "third": 2790,
      "ĠKi": 2791,
      "security": 2792,
      "ips": 2793,
      "Ġcollecti": 2794,
      "Ġprepa": 2795,
      "Ġsoo": 2796,
      "nvi": 2797,
      "Ġcontinu": 2798,
      "ana": 2799,
      "deliver": 2800,
      "Ġlikely": 2801,
      "ĠWin": 2802,
      "ĠAfter": 2803,
      "Ġadded": 2804,
      "Ġpaper": 2805,
      "skin": 2806,
      "Ġrequir": 2807,
      "Ġhy": 2808,
      "nch": 2809,
      "âĢĵ": 2810,
      "Ġpubl": 2811,
      "zed": 2812,
      "Ġhowever": 2813,
      "times": 2814,
      "fri": 2815,
      "Ġcreated": 2816,
      "Ġdeliver": 2817,
      "details": 2818,
      "Ġfinancial": 2819,
      "Ġposition": 2820,
      "Ġyoung": 2821,
      "Ġful": 2822,
      "Ġru": 2823,
      "EN": 2824,
      "Ġ25": 2825,
      "Ġextra": 2826,
      "Ġblack": 2827,
      "Ġdetails": 2828,
      "Ġself": 2829,
      "Ġ13": 2830,
      "Ġbil": 2831,
      "inn": 2832,
      "Ġprom": 2833,
      "Ġimpl": 2834,
      "Ġ17": 2835,
      "Ġmatch": 2836,
      "ume": 2837,
      "11": 2838,
      "oods": 2839,
      "Ġvehicle": 2840,
      "late": 2841,
      "Ġuser": 2842,
      "IS": 2843,
      "Ġtaken": 2844,
      "rough": 2845,
      "cate": 2846,
      "overs": 2847,
      "aring": 2848,
      "ĠChi": 2849,
      "airs": 2850,
      "Ġclick": 2851,
      "Ġcompeti": 2852,
      "Ġsignificant": 2853,
      "Ġ50": 2854,
      "Ġthird": 2855,
      "ĠJohn": 2856,
      "fied": 2857,
      "Ġconstru": 2858,
      "fy": 2859,
      "ĠNorth": 2860,
      "Ġsecurity": 2861,
      "Ġthroughout": 2862,
      "ited": 2863,
      "itch": 2864,
      "Ġindividual": 2865,
      "Ġago": 2866,
      "orpo": 2867,
      "ĠCal": 2868,
      "Ġnoti": 2869,
      "ism": 2870,
      "similar": 2871,
      "Ġcommon": 2872,
      "Ġdraw": 2873,
      "Ġbox": 2874,
      "Ġoption": 2875,
      "ulation": 2876,
      "Ġchanges": 2877,
      "Ġroad": 2878,
      "rated": 2879,
      "Ġlearning": 2880,
      "Ġissue": 2881,
      ".âĢĿ": 2882,
      "Ġbot": 2883,
      "IT": 2884,
      "Ġrelationship": 2885,
      "Ġhuman": 2886,
      "ĠFa": 2887,
      "Ġrecord": 2888,
      "city": 2889,
      "Ġimage": 2890,
      "ĠCa": 2891,
      "Ġsimilar": 2892,
      "Ġinsurance": 2893,
      "Ġopportunity": 2894,
      "ada": 2895,
      "Ġassoci": 2896,
      "Ġfoot": 2897,
      "lation": 2898,
      "Ġready": 2899,
      "ĠVi": 2900,
      "Ġimpact": 2901,
      "Ġsubject": 2902,
      "Ġprevious": 2903,
      "ĠNe": 2904,
      "Ã©": 2905,
      "ĠAmeric": 2906,
      "Ġexce": 2907,
      "rather": 2908,
      "Ġexpect": 2909,
      "Ġguide": 2910,
      "anced": 2911,
      "Ġexcel": 2912,
      "held": 2913,
      "Ġ[": 2914,
      "cro": 2915,
      "ĠWhi": 2916,
      "ball": 2917,
      "har": 2918,
      "ports": 2919,
      "noun": 2920,
      "Ġforward": 2921,
      "Ġtreatment": 2922,
      "Ġrisk": 2923,
      "Ġpurchase": 2924,
      "Ġestabl": 2925,
      "nals": 2926,
      "Ġbad": 2927,
      "Ġskin": 2928,
      "ĠInc": 2929,
      "Ġlocated": 2930,
      "Ġwide": 2931,
      "matter": 2932,
      "deg": 2933,
      "AL": 2934,
      "tud": 2935,
      "Re": 2936,
      "llow": 2937,
      "ĠNational": 2938,
      "Ou": 2939,
      "Ġsal": 2940,
      "Ġrather": 2941,
      "ama": 2942,
      "rb": 2943,
      "Ġusers": 2944,
      "Ġhappen": 2945,
      "Ġcru": 2946,
      "Ġmatter": 2947,
      "Ġtakes": 2948,
      "Ġattr": 2949,
      "val": 2950,
      "Ġdefini": 2951,
      "ames": 2952,
      "Our": 2953,
      "Ġoil": 2954,
      "section": 2955,
      "nks": 2956,
      "sily": 2957,
      "offi": 2958,
      "Ġpick": 2959,
      "dows": 2960,
      "Ġcent": 2961,
      "graph": 2962,
      "Ġobject": 2963,
      "Ġ2019": 2964,
      "Ġskills": 2965,
      "Ġusually": 2966,
      "lled": 2967,
      "eath": 2968,
      "member": 2969,
      "Ġparty": 2970,
      "six": 2971,
      "Ġperiod": 2972,
      "urr": 2973,
      "ĠDec": 2974,
      "aft": 2975,
      "asily": 2976,
      "mean": 2977,
      "Ġsoon": 2978,
      "Ġexpl": 2979,
      "Ġprobably": 2980,
      "Ġcoming": 2981,
      "mag": 2982,
      "Ġrate": 2983,
      "Ġsuccessful": 2984,
      "uni": 2985,
      "Ġels": 2986,
      "lies": 2987,
      "smo": 2988,
      "Ġbrand": 2989,
      "otel": 2990,
      "Ġhigher": 2991,
      "Ġtrying": 2992,
      "Ġcontinue": 2993,
      "nance": 2994,
      "Ġdate": 2995,
      "Ġcurrently": 2996,
      "Ġoutside": 2997,
      "Ġ2016": 2998,
      "Ġjour": 2999,
      "Ġfast": 3000,
      "Ġmean": 3001,
      "ensi": 3002,
      "Ġhappy": 3003,
      "Ġactivities": 3004,
      "Ġreach": 3005,
      "ĠDu": 3006,
      "Ġadditional": 3007,
      "room": 3008,
      "view": 3009,
      "ete": 3010,
      "Ġbill": 3011,
      "Ġregular": 3012,
      "Ġcouple": 3013,
      "Ġedi": 3014,
      "Ġani": 3015,
      "ising": 3016,
      "Fi": 3017,
      "Ġwall": 3018,
      "spo": 3019,
      "nside": 3020,
      "Ġcontract": 3021,
      "nstit": 3022,
      "ĠYork": 3023,
      "Ġpoints": 3024,
      "Ġrecogni": 3025,
      "IC": 3026,
      "tte": 3027,
      "eral": 3028,
      "Ġpurpose": 3029,
      "inside": 3030,
      "tries": 3031,
      "Ġserv": 3032,
      "Ġnote": 3033,
      "Ġkids": 3034,
      "Ġsales": 3035,
      "place": 3036,
      "ĠPer": 3037,
      "Ġcollectio": 3038,
      "Ġcollection": 3039,
      "Ġwanted": 3040,
      "Ġitems": 3041,
      "ĠState": 3042,
      "15": 3043,
      "easily": 3044,
      "Ġsign": 3045,
      "round": 3046,
      "Ġmember": 3047,
      "Ġpotential": 3048,
      "otio": 3049,
      "tform": 3050,
      "Ġeasily": 3051,
      "Ġinside": 3052,
      "Ġisn": 3053,
      "Ġprojects": 3054,
      "AC": 3055,
      "Ġproduc": 3056,
      "Ġprivate": 3057,
      "dates": 3058,
      "Ġrepresent": 3059,
      "Ġpretty": 3060,
      "otion": 3061,
      "spr": 3062,
      "setting": 3063,
      "Ġsix": 3064,
      "gen": 3065,
      "arding": 3066,
      "atest": 3067,
      "ael": 3068,
      "Ġsun": 3069,
      "Ġdeg": 3070,
      "Ġask": 3071,
      "Ġren": 3072,
      "Ġarc": 3073,
      "Ġdemo": 3074,
      "Ġcharacter": 3075,
      "Ġreading": 3076,
      "Ġreceived": 3077,
      "kers": 3078,
      "ided": 3079,
      "etic": 3080,
      "ĠAm": 3081,
      "Ġbuilt": 3082,
      "Ġrai": 3083,
      "idge": 3084,
      "Ġvia": 3085,
      "Ġrespect": 3086,
      "Ġgrowth": 3087,
      "Ġchan": 3088,
      "ĠPart": 3089,
      "Ġrunning": 3090,
      "sist": 3091,
      "Ġaccording": 3092,
      "sequ": 3093,
      "stral": 3094,
      "Ġautom": 3095,
      "Ġlonger": 3096,
      "Ġtotal": 3097,
      "Ġcannot": 3098,
      "Ġgeneral": 3099,
      "ley": 3100,
      "ĠWorld": 3101,
      "bly": 3102,
      "Ġoffi": 3103,
      "nds": 3104,
      "ories": 3105,
      "hot": 3106,
      "Do": 3107,
      "mmit": 3108,
      "Ġsection": 3109,
      "Ġeffic": 3110,
      "ĠHigh": 3111,
      "ufactur": 3112,
      "aily": 3113,
      "olog": 3114,
      "Ġpan": 3115,
      "prise": 3116,
      "squ": 3117,
      "ules": 3118,
      "ades": 3119,
      "Ġtrue": 3120,
      "tom": 3121,
      "aged": 3122,
      "Ġvariety": 3123,
      "Ġche": 3124,
      "back": 3125,
      "Ġapply": 3126,
      "Ġimprove": 3127,
      "Ġbea": 3128,
      "Ġju": 3129,
      "Ġheld": 3130,
      "Ġprio": 3131,
      "ĠHis": 3132,
      "told": 3133,
      "oon": 3134,
      "Ġmaterial": 3135,
      "ĠRu": 3136,
      "sense": 3137,
      "Ġappear": 3138,
      "Ġresid": 3139,
      "Ġallows": 3140,
      "Ġamazing": 3141,
      "ssing": 3142,
      "adu": 3143,
      "Ġexact": 3144,
      "Ġbase": 3145,
      "Ġloss": 3146,
      "Ġmarketing": 3147,
      "Ġshows": 3148,
      "Ġfirm": 3149,
      "Ġinteg": 3150,
      "Ġground": 3151,
      "ĠPar": 3152,
      "stim": 3153,
      "Ġbehi": 3154,
      "Ġcontrib": 3155,
      "Ġsetting": 3156,
      "Ġconc": 3157,
      "Ġbehin": 3158,
      "Ġbehind": 3159,
      "arter": 3160,
      "Ġfloor": 3161,
      "Ġauthor": 3162,
      "Ġfavorite": 3163,
      "Ġcam": 3164,
      "anta": 3165,
      "Ġanswer": 3166,
      "ĠMarc": 3167,
      "Ġtold": 3168,
      "Ġneg": 3169,
      "ared": 3170,
      "ĠOr": 3171,
      "serve": 3172,
      "hair": 3173,
      "St": 3174,
      "som": 3175,
      "Ġwords": 3176,
      "pers": 3177,
      "ĠTH": 3178,
      "Ġfix": 3179,
      "Ġdiscover": 3180,
      "Ġlower": 3181,
      "ĠBar": 3182,
      "RE": 3183,
      "??": 3184,
      "Ġcool": 3185,
      "Ġcourt": 3186,
      "Ġtown": 3187,
      "Ġmag": 3188,
      "Ġwood": 3189,
      "Ġsched": 3190,
      "pril": 3191,
      "Ġcomputer": 3192,
      "Ġx": 3193,
      "sen": 3194,
      "Ġsmo": 3195,
      "Ġweeks": 3196,
      "Ġproduction": 3197,
      "oogle": 3198,
      "Ġquickly": 3199,
      "25": 3200,
      "Ġent": 3201,
      "ĠRi": 3202,
      "Ġupon": 3203,
      "Ġcredit": 3204,
      "gn": 3205,
      "cies": 3206,
      "Ġrecent": 3207,
      "Ġreleas": 3208,
      "Ġship": 3209,
      "agr": 3210,
      "Ġmaterials": 3211,
      "Ġlocation": 3212,
      "ft": 3213,
      "uck": 3214,
      "Ġincluded": 3215,
      "nary": 3216,
      "latest": 3217,
      "deb": 3218,
      "uto": 3219,
      "inj": 3220,
      "Ġdie": 3221,
      "Ġnorm": 3222,
      "Ġproviding": 3223,
      "Ġnews": 3224,
      "Ġrelated": 3225,
      "Ġexplo": 3226,
      "Ġbasi": 3227,
      "even": 3228,
      "Ġlatest": 3229,
      "Ġwrite": 3230,
      "ĠSw": 3231,
      "ĠEn": 3232,
      "Ġpatients": 3233,
      "ĠCompa": 3234,
      "tro": 3235,
      "Ġannoun": 3236,
      "Ġnetwork": 3237,
      "ĠJa": 3238,
      "sual": 3239,
      "Ġintrodu": 3240,
      "Ġcosts": 3241,
      "spon": 3242,
      "Ġfore": 3243,
      "Ġalter": 3244,
      "Ġfai": 3245,
      "ĠStates": 3246,
      "Ġmedical": 3247,
      "targe": 3248,
      "entral": 3249,
      "Ġsent": 3250,
      "ecut": 3251,
      "ĠComm": 3252,
      "rout": 3253,
      "ĠÐ": 3254,
      "ĠJan": 3255,
      "Ġserve": 3256,
      "Ġscreen": 3257,
      "augh": 3258,
      "link": 3259,
      "radi": 3260,
      "With": 3261,
      "18": 3262,
      "onic": 3263,
      "Ġnecessary": 3264,
      "Ġdifference": 3265,
      "vity": 3266,
      "He": 3267,
      "ĠPle": 3268,
      "Ġlangu": 3269,
      "Sh": 3270,
      "grap": 3271,
      "Ġflo": 3272,
      "rce": 3273,
      "Ġsense": 3274,
      "based": 3275,
      "Ġfresh": 3276,
      "mass": 3277,
      "rds": 3278,
      "host": 3279,
      "Ġdisplay": 3280,
      "ives": 3281,
      "Ġceleb": 3282,
      "ebook": 3283,
      "ures": 3284,
      "Ġfilm": 3285,
      "Ġconditions": 3286,
      "Ġterr": 3287,
      "touch": 3288,
      "anch": 3289,
      "Ġprograms": 3290,
      "Ġinternational": 3291,
      "But": 3292,
      "ology": 3293,
      "Ġ2015": 3294,
      "Ġability": 3295,
      "ĠCon": 3296,
      "Ġstandard": 3297,
      "Ġdegree": 3298,
      "Ġva": 3299,
      "Ġaver": 3300,
      "Ġnice": 3301,
      "Ġequipment": 3302,
      "ĠEng": 3303,
      "Ġanyone": 3304,
      "Ġworked": 3305,
      "ommit": 3306,
      "ministr": 3307,
      "Ġterms": 3308,
      "ground": 3309,
      "Ġlooks": 3310,
      "Ġplatform": 3311,
      "Ġpolicy": 3312,
      "ĠCenter": 3313,
      "agement": 3314,
      "60": 3315,
      "ĠPlea": 3316,
      "leading": 3317,
      "etail": 3318,
      "eight": 3319,
      "rates": 3320,
      "oot": 3321,
      "deep": 3322,
      "ĠReg": 3323,
      "ĠBy": 3324,
      "mbin": 3325,
      "ombin": 3326,
      "Ġseems": 3327,
      "Ġnoth": 3328,
      "Ch": 3329,
      "ods": 3330,
      "Ġdeb": 3331,
      "Ġdrop": 3332,
      "And": 3333,
      "Ġprint": 3334,
      "Ġrout": 3335,
      "Ġnothi": 3336,
      "Ġwish": 3337,
      "Ġelse": 3338,
      "Ġtarge": 3339,
      "elves": 3340,
      "Ġleaders": 3341,
      "Ġbooks": 3342,
      "Ġnothing": 3343,
      "Ġlives": 3344,
      "sus": 3345,
      "Ġkitchen": 3346,
      "abi": 3347,
      "Ġparts": 3348,
      "Ġregio": 3349,
      "Ġ#": 3350,
      "Ġglobal": 3351,
      "Ġrecently": 3352,
      "Ġrequest": 3353,
      "ashi": 3354,
      "Ġregion": 3355,
      "lus": 3356,
      "ĠPleas": 3357,
      "ĠCounty": 3358,
      "Ġtools": 3359,
      "ams": 3360,
      "ĠNot": 3361,
      "Ġcommit": 3362,
      "mail": 3363,
      "aby": 3364,
      "ried": 3365,
      "ecip": 3366,
      "cil": 3367,
      "Ġdifficult": 3368,
      "ĠUs": 3369,
      "reat": 3370,
      "aur": 3371,
      "Ġtypes": 3372,
      "ublic": 3373,
      "detail": 3374,
      "ondu": 3375,
      "Ġmodern": 3376,
      "Ġinj": 3377,
      "Ġgoal": 3378,
      "Ġremember": 3379,
      "Ġdeep": 3380,
      "Ġstudent": 3381,
      "gers": 3382,
      "Ġgreen": 3383,
      "Ġtouch": 3384,
      "Ġfall": 3385,
      "Ġdetail": 3386,
      "Ġlevels": 3387,
      "ĠHom": 3388,
      "gress": 3389,
      "ĠUK": 3390,
      "Ġmobile": 3391,
      "ercial": 3392,
      "Ġrelease": 3393,
      "ĠGen": 3394,
      "ĠApril": 3395,
      "Ġhot": 3396,
      "Ġhold": 3397,
      "Ġworth": 3398,
      "Ġhighly": 3399,
      "Ġspr": 3400,
      "Ġstat": 3401,
      "eers": 3402,
      "lot": 3403,
      "Ġsummer": 3404,
      "rel": 3405,
      "//": 3406,
      "ĠNow": 3407,
      "mmo": 3408,
      "ends": 3409,
      "Ġtalk": 3410,
      "Ġcenter": 3411,
      "ĠAustral": 3412,
      "Ġcy": 3413,
      "ĠWhil": 3414,
      "hour": 3415,
      "Ġga": 3416,
      "ows": 3417,
      "Ġmorning": 3418,
      "rating": 3419,
      "ĠPlease": 3420,
      "Ġexcellent": 3421,
      "anti": 3422,
      "Ġproper": 3423,
      "Ġleading": 3424,
      "Ġasked": 3425,
      "Ġresponse": 3426,
      "rage": 3427,
      "Ġmoment": 3428,
      "ĠAir": 3429,
      "Ġbenefits": 3430,
      "Ġprim": 3431,
      "Ġmass": 3432,
      "Ġtu": 3433,
      "roll": 3434,
      "lab": 3435,
      "Ġradi": 3436,
      "cin": 3437,
      "Ġsolutions": 3438,
      "sor": 3439,
      "irit": 3440,
      "eeping": 3441,
      "eating": 3442,
      "ĠHer": 3443,
      "ĠPark": 3444,
      "ĠColl": 3445,
      "nated": 3446,
      "Ġextrem": 3447,
      "Ġcoo": 3448,
      "Ġexpan": 3449,
      "Ġhandl": 3450,
      "Ġcombin": 3451,
      "Ġbud": 3452,
      "put": 3453,
      "ĠNov": 3454,
      "eets": 3455,
      "ĠWest": 3456,
      "ibe": 3457,
      "Ġplu": 3458,
      "Ġencour": 3459,
      "Ġfire": 3460,
      "Ġhit": 3461,
      "entre": 3462,
      "ĠMc": 3463,
      "Ġinvolved": 3464,
      "session": 3465,
      "Ġweight": 3466,
      "Ġitself": 3467,
      "otos": 3468,
      "Ġresources": 3469,
      "Ġnational": 3470,
      "Ġboard": 3471,
      "utions": 3472,
      "Ġinn": 3473,
      "uit": 3474,
      "40": 3475,
      "onf": 3476,
      "ĠOp": 3477,
      "Ġplans": 3478,
      "saw": 3479,
      "Ġimmedi": 3480,
      "selves": 3481,
      "ãģ": 3482,
      "Ġdigital": 3483,
      "Ġmanufactur": 3484,
      "Ġuti": 3485,
      "Ġchance": 3486,
      "htt": 3487,
      "alu": 3488,
      "Ġsqu": 3489,
      "Ġcases": 3490,
      "ĠNi": 3491,
      "nner": 3492,
      "Ġ198": 3493,
      "depend": 3494,
      "Ġlink": 3495,
      "ency": 3496,
      "iption": 3497,
      "ĠMarch": 3498,
      "Ġshall": 3499,
      "Ġgir": 3500,
      "ĠChris": 3501,
      "eeri": 3502,
      "ommo": 3503,
      "daily": 3504,
      "Ġstructure": 3505,
      "cket": 3506,
      "osp": 3507,
      "iet": 3508,
      "Ġsafety": 3509,
      "nic": 3510,
      "Ġinstead": 3511,
      "OT": 3512,
      "Ġhelps": 3513,
      "inks": 3514,
      "amed": 3515,
      "Ġdoor": 3516,
      "uary": 3517,
      "Ġ40": 3518,
      "Ġ2014": 3519,
      "cise": 3520,
      "eering": 3521,
      "Ġadj": 3522,
      "Ġcountries": 3523,
      "ĠWhile": 3524,
      "arden": 3525,
      "OS": 3526,
      "Ġgives": 3527,
      "send": 3528,
      "Ġmultiple": 3529,
      "ven": 3530,
      "Ġhair": 3531,
      "pring": 3532,
      "200": 3533,
      "ung": 3534,
      "bs": 3535,
      "Ġdirectly": 3536,
      "Ġlate": 3537,
      "Ġachiev": 3538,
      "recip": 3539,
      "tely": 3540,
      "some": 3541,
      "\".": 3542,
      "liv": 3543,
      "Ġround": 3544,
      "Be": 3545,
      "Ġcareer": 3546,
      "ĠWill": 3547,
      "Ġdaily": 3548,
      "Ġhuge": 3549,
      "ndon": 3550,
      "Ġqual": 3551,
      "Ġthemselves": 3552,
      "tri": 3553,
      "zi": 3554,
      "ĠAmerica": 3555,
      "ĠHome": 3556,
      "cted": 3557,
      "Ġaverage": 3558,
      "ĠTu": 3559,
      "ĠHar": 3560,
      "Ġcance": 3561,
      "Ðµ": 3562,
      "nsist": 3563,
      "Ġlay": 3564,
      "Ġgiving": 3565,
      "Ġsource": 3566,
      "stin": 3567,
      "Ġrecip": 3568,
      "At": 3569,
      "My": 3570,
      "amin": 3571,
      "ounts": 3572,
      "Ġwritten": 3573,
      "nor": 3574,
      "Ġwalk": 3575,
      "Ġir": 3576,
      "://": 3577,
      "16": 3578,
      "orn": 3579,
      "emp": 3580,
      "ĠLa": 3581,
      "uel": 3582,
      "death": 3583,
      "Ġdiscuss": 3584,
      "Ġimages": 3585,
      "Ġprices": 3586,
      "ctor": 3587,
      "lon": 3588,
      "ament": 3589,
      "Ġcert": 3590,
      "atis": 3591,
      "OU": 3592,
      "--": 3593,
      "âĢĿ.": 3594,
      "ciety": 3595,
      "eption": 3596,
      "estig": 3597,
      "ngton": 3598,
      "Ġlegal": 3599,
      "Ġattention": 3600,
      "Ġselecti": 3601,
      "abor": 3602,
      "ĠFree": 3603,
      "Ġsaw": 3604,
      "ears": 3605,
      "Ġtrust": 3606,
      "Ġrequirements": 3607,
      "avy": 3608,
      "Ġsend": 3609,
      "slow": 3610,
      "Ġfully": 3611,
      "vill": 3612,
      "max": 3613,
      "Ġplanning": 3614,
      "ĠAcc": 3615,
      "Ġaffect": 3616,
      "Ġword": 3617,
      "Ġinnov": 3618,
      "Ġsession": 3619,
      "ĠHouse": 3620,
      "Ġinteresting": 3621,
      "Ġdeath": 3622,
      "ecre": 3623,
      "Ġplayers": 3624,
      "ĠGer": 3625,
      "ara": 3626,
      "ĠTec": 3627,
      "ĠDay": 3628,
      "epa": 3629,
      "Ġmaintain": 3630,
      "Ġactive": 3631,
      "Ġforc": 3632,
      "cided": 3633,
      "ecided": 3634,
      "eals": 3635,
      "ization": 3636,
      "nglish": 3637,
      "Ġmention": 3638,
      "instru": 3639,
      "Ġdise": 3640,
      "asure": 3641,
      "AM": 3642,
      "Ġpath": 3643,
      "Ġparents": 3644,
      "tural": 3645,
      "hange": 3646,
      "Ġorganization": 3647,
      "Ġdisea": 3648,
      "ĠHealth": 3649,
      "Ġsurface": 3650,
      "Ġdist": 3651,
      "ĠMus": 3652,
      "lue": 3653,
      "Ġcondu": 3654,
      "fit": 3655,
      "Ġemer": 3656,
      "decided": 3657,
      "Ġtraditional": 3658,
      "Ġcompletely": 3659,
      "ĠMon": 3660,
      "Ġinstru": 3661,
      "dry": 3662,
      "enty": 3663,
      "Ġexh": 3664,
      "Ġgroups": 3665,
      "Ġlost": 3666,
      "Ġdecided": 3667,
      "exi": 3668,
      "ox": 3669,
      "ĠMic": 3670,
      "Ġreduc": 3671,
      "ĠFro": 3672,
      "14": 3673,
      "mitt": 3674,
      "Ġregister": 3675,
      "Ġdiseas": 3676,
      "Ġaccu": 3677,
      "Ġdisease": 3678,
      "Ġslow": 3679,
      "Ġmyself": 3680,
      "ĠTech": 3681,
      "Ġdocument": 3682,
      "mis": 3683,
      "atory": 3684,
      "Ġbro": 3685,
      "Ġconf": 3686,
      "hood": 3687,
      "ĠIm": 3688,
      "Ġcoa": 3689,
      "Ġtrip": 3690,
      "13": 3691,
      "ĠPo": 3692,
      "Ġreduce": 3693,
      "ĠPi": 3694,
      "ago": 3695,
      "Ġforce": 3696,
      "ĠAfri": 3697,
      "Ġunivers": 3698,
      "Ġplayi": 3699,
      "Ġphotos": 3700,
      "Ġplaying": 3701,
      "Ġsites": 3702,
      "Ġsuit": 3703,
      "ĠGoogle": 3704,
      "ised": 3705,
      "Ġwonderful": 3706,
      "ĠHi": 3707,
      "Ġgoe": 3708,
      "ĠInternational": 3709,
      "ĠDir": 3710,
      "Ġgoes": 3711,
      "estr": 3712,
      "17": 3713,
      "ligh": 3714,
      "Ġconnection": 3715,
      "Ġclient": 3716,
      "text": 3717,
      "rights": 3718,
      "ville": 3719,
      "Ð¾": 3720,
      "aign": 3721,
      "ĠSan": 3722,
      "etter": 3723,
      "efen": 3724,
      "ĠMac": 3725,
      "Ġspo": 3726,
      "Ġprior": 3727,
      "nual": 3728,
      "Ġ--": 3729,
      "haps": 3730,
      "All": 3731,
      "Ġmile": 3732,
      "wise": 3733,
      "Ġprotect": 3734,
      "Ġdeveloped": 3735,
      "inci": 3736,
      "abr": 3737,
      "Ġculture": 3738,
      "Ġglass": 3739,
      "Ġtechnique": 3740,
      "Ġchi": 3741,
      "Ġserious": 3742,
      "Ġlos": 3743,
      "Ġcreating": 3744,
      "istic": 3745,
      "ĠOf": 3746,
      "Ġlab": 3747,
      "Ġcomplex": 3748,
      "Ġhands": 3749,
      "ĠSept": 3750,
      "Ġsurr": 3751,
      "ware": 3752,
      "Ġaware": 3753,
      "Ġengine": 3754,
      "ĠJune": 3755,
      "Ġapplications": 3756,
      "Ġhost": 3757,
      "Ġmethod": 3758,
      "Ġproduce": 3759,
      "Ġlimited": 3760,
      "Ġspi": 3761,
      "arl": 3762,
      "pression": 3763,
      "sn": 3764,
      "esc": 3765,
      "ĠEnglish": 3766,
      "essed": 3767,
      "dding": 3768,
      "ĠFrom": 3769,
      "Ġ:": 3770,
      "Ġrefer": 3771,
      "ended": 3772,
      "Ġbusinesse": 3773,
      "Ġbusinesses": 3774,
      "tast": 3775,
      "defen": 3776,
      "Ġinterested": 3777,
      "Ġ2013": 3778,
      "Ġdistrib": 3779,
      "Ġpartners": 3780,
      "ĠAssoci": 3781,
      "ĠAug": 3782,
      "aming": 3783,
      "ĠIndia": 3784,
      "Ġgold": 3785,
      "Ġdry": 3786,
      "invi": 3787,
      "ibi": 3788,
      "Ġfine": 3789,
      "easure": 3790,
      "Ġnature": 3791,
      "ĠRep": 3792,
      "Ġtowards": 3793,
      "ttern": 3794,
      "ĠWeb": 3795,
      "ured": 3796,
      "akes": 3797,
      "Ġbecame": 3798,
      "nos": 3799,
      "ĠMich": 3800,
      "ĠFac": 3801,
      "Ġthinking": 3802,
      "Ġstock": 3803,
      "Ġwelc": 3804,
      "ification": 3805,
      "ĠGeo": 3806,
      "Ġstorage": 3807,
      "Ġmax": 3808,
      "livery": 3809,
      "Ġlanguage": 3810,
      "Ġconfid": 3811,
      "One": 3812,
      "tus": 3813,
      "ĠJe": 3814,
      "Ġanalysis": 3815,
      "Ġsort": 3816,
      "Ġemployees": 3817,
      "ĠChina": 3818,
      "Ġrights": 3819,
      "active": 3820,
      "emic": 3821,
      "Ġclim": 3822,
      "Ġcorrect": 3823,
      "rniture": 3824,
      "tra": 3825,
      "ived": 3826,
      "Ġinvi": 3827,
      "Ġinflu": 3828,
      "onsist": 3829,
      "sto": 3830,
      "Ġadvant": 3831,
      "Ġunc": 3832,
      "Ġbegan": 3833,
      "Ġexpected": 3834,
      "ĠAct": 3835,
      "Ġindividuals": 3836,
      "measure": 3837,
      "oes": 3838,
      "Ġpositive": 3839,
      "ĠLondon": 3840,
      "ĠDesig": 3841,
      "yond": 3842,
      "Ġspend": 3843,
      "ĠThen": 3844,
      "onto": 3845,
      "ĠMore": 3846,
      "ĠGo": 3847,
      "ĠInst": 3848,
      "board": 3849,
      "Ġreflect": 3850,
      "eum": 3851,
      "Ġtext": 3852,
      "Ġplaces": 3853,
      "ĠTV": 3854,
      "arant": 3855,
      "Ġdrug": 3856,
      "mine": 3857,
      "ĠPe": 3858,
      "Ġsometimes": 3859,
      "Ġunderstanding": 3860,
      "ienti": 3861,
      "Ġdefen": 3862,
      "Ġcommercial": 3863,
      "ller": 3864,
      "dio": 3865,
      "Ġconstruction": 3866,
      "Ġpea": 3867,
      "Ġconsidered": 3868,
      "Ġterm": 3869,
      "more": 3870,
      "oting": 3871,
      "iri": 3872,
      "hop": 3873,
      "Ġfeed": 3874,
      "ales": 3875,
      "Ġphysical": 3876,
      "Ġopportunities": 3877,
      "Ġsupply": 3878,
      "Ġavoid": 3879,
      "ifo": 3880,
      "ĠFl": 3881,
      "EC": 3882,
      "Ġstarti": 3883,
      "Ġstarting": 3884,
      "Ġimplement": 3885,
      "Ġplant": 3886,
      "Ġmeasure": 3887,
      "Ġmoun": 3888,
      "ero": 3889,
      "Ġfig": 3890,
      "bor": 3891,
      "Ġcash": 3892,
      "Ġul": 3893,
      "iers": 3894,
      "ify": 3895,
      "Ġpres": 3896,
      "Ġhour": 3897,
      "Ġcarry": 3898,
      "Ġformer": 3899,
      "ĠHere": 3900,
      "ctober": 3901,
      "Ġhealthy": 3902,
      "ado": 3903,
      "eri": 3904,
      "ĠFeb": 3905,
      "Ġcamera": 3906,
      "ham": 3907,
      "Ġdefinitely": 3908,
      "OM": 3909,
      "ĠAc": 3910,
      "tation": 3911,
      "Ġ2012": 3912,
      "Ġregul": 3913,
      "Ġtast": 3914,
      "mother": 3915,
      "Ġtemper": 3916,
      "Ġfill": 3917,
      "Ġmoving": 3918,
      "Ġgrowi": 3919,
      "ĠChristm": 3920,
      "Ġgrowing": 3921,
      "ĠBlack": 3922,
      "ĠChristma": 3923,
      "cine": 3924,
      "ĠChristmas": 3925,
      "mot": 3926,
      "Ġ21": 3927,
      "Ġwrong": 3928,
      "ague": 3929,
      "Ġed": 3930,
      "Ġfinding": 3931,
      "Ġexactly": 3932,
      "ĠYe": 3933,
      "Ġinvestig": 3934,
      "ĠCol": 3935,
      "ĠWel": 3936,
      "eek": 3937,
      "Ġconvers": 3938,
      "Ġposted": 3939,
      "Ġtitle": 3940,
      "Ġresol": 3941,
      "hani": 3942,
      "After": 3943,
      "ST": 3944,
      "evid": 3945,
      "cide": 3946,
      "Ġsituation": 3947,
      "Ġactivity": 3948,
      "isc": 3949,
      "Ġ22": 3950,
      "Ġol": 3951,
      "rew": 3952,
      "Ġci": 3953,
      "shop": 3954,
      "Ġinvestment": 3955,
      "Ġweeken": 3956,
      "lib": 3957,
      "Ġspeed": 3958,
      "mpli": 3959,
      "iforni": 3960,
      "Ġbenefit": 3961,
      "Ġcross": 3962,
      "actions": 3963,
      "Ġgoals": 3964,
      "Ġappropri": 3965,
      "Ġep": 3966,
      "satis": 3967,
      "Ġchurch": 3968,
      "mil": 3969,
      "Ġmessage": 3970,
      "ensive": 3971,
      "Ġexer": 3972,
      "Ġwedding": 3973,
      "Ġconcern": 3974,
      "ĠAb": 3975,
      "ĠGroup": 3976,
      "Ġentry": 3977,
      "Ġmiss": 3978,
      "Ġcampaign": 3979,
      "shio": 3980,
      "mpon": 3981,
      "ET": 3982,
      "Ġpattern": 3983,
      "nci": 3984,
      "ompon": 3985,
      "sier": 3986,
      "Ġpictures": 3987,
      "Ġgets": 3988,
      "ĠJust": 3989,
      "Ġneigh": 3990,
      "Ġseem": 3991,
      "Ġtypi": 3992,
      "Ġbutton": 3993,
      "ĠJanuary": 3994,
      "Ġevid": 3995,
      "syc": 3996,
      "ĠSpa": 3997,
      "ĠGerman": 3998,
      "Ġfair": 3999,
      "hosp": 4000,
      "cker": 4001,
      "Pl": 4002,
      "ĠSund": 4003,
      "Ġpublished": 4004,
      "where": 4005,
      "ĠMr": 4006,
      "Ġacqu": 4007,
      "lou": 4008,
      "ĠFre": 4009,
      "ests": 4010,
      "hotel": 4011,
      "Ġdamage": 4012,
      "solute": 4013,
      "wood": 4014,
      "Ġenh": 4015,
      "Ġuses": 4016,
      "Ġven": 4017,
      "ĠAlso": 4018,
      "Ġofferi": 4019,
      "Ġoffering": 4020,
      "Whi": 4021,
      "atives": 4022,
      "Ġhisto": 4023,
      "ifornia": 4024,
      "Ġcopy": 4025,
      "cure": 4026,
      "ING": 4027,
      "Ġinterne": 4028,
      "ompli": 4029,
      "Ġfrequ": 4030,
      "Ġcateg": 4031,
      "chani": 4032,
      "ĠJuly": 4033,
      "ĠSto": 4034,
      "Ġment": 4035,
      "24": 4036,
      "ĠMini": 4037,
      "cause": 4038,
      "antly": 4039,
      "ka": 4040,
      "Ġanim": 4041,
      "Ġspot": 4042,
      "Ġinternet": 4043,
      "Ġjoi": 4044,
      "ĠAN": 4045,
      "Ġjoin": 4046,
      "ĠCou": 4047,
      "double": 4048,
      "sepa": 4049,
      "Ġblood": 4050,
      "Ġcontain": 4051,
      "asier": 4052,
      "ĠPresident": 4053,
      "Ġbroad": 4054,
      "Ġfelt": 4055,
      "Ġhotel": 4056,
      "ords": 4057,
      "Ex": 4058,
      "Ġfunction": 4059,
      "aba": 4060,
      "Ġsatis": 4061,
      "ĠStu": 4062,
      "Ġled": 4063,
      "Ġtic": 4064,
      "meaning": 4065,
      "Ġcompon": 4066,
      "graphy": 4067,
      "file": 4068,
      "ĠDon": 4069,
      "aries": 4070,
      "ĠSeptember": 4071,
      "Ġmoni": 4072,
      "ige": 4073,
      "ĠAndr": 4074,
      "Ġban": 4075,
      "Ġsepa": 4076,
      "Ġconsist": 4077,
      "tag": 4078,
      "Ġbirth": 4079,
      "ĠLu": 4080,
      "Ġfamilies": 4081,
      "Ġselectio": 4082,
      "Ġselection": 4083,
      "Ġrates": 4084,
      "Ġafford": 4085,
      "asu": 4086,
      "elivery": 4087,
      "mbi": 4088,
      "ID": 4089,
      "AP": 4090,
      "Ġdog": 4091,
      "aturday": 4092,
      "Ġwarm": 4093,
      "gency": 4094,
      "ocol": 4095,
      "80": 4096,
      "easier": 4097,
      "70": 4098,
      "Ð°": 4099,
      "Ġaspect": 4100,
      "Ġclub": 4101,
      "ĠOctober": 4102,
      "Ġsmart": 4103,
      "Ġpressure": 4104,
      "ĠWar": 4105,
      "utr": 4106,
      "native": 4107,
      "Ġdream": 4108,
      "Ġeasier": 4109,
      "ecl": 4110,
      "Ġpaid": 4111,
      "Ġrecipe": 4112,
      "Ġpages": 4113,
      "Ġhistor": 4114,
      "Ġcheap": 4115,
      "Ġpolitical": 4116,
      "Ġshape": 4117,
      "dedi": 4118,
      "Ġcook": 4119,
      "Ġprocedu": 4120,
      "Ġdevices": 4121,
      "arily": 4122,
      "ĠDepartment": 4123,
      "dated": 4124,
      "ĠFriday": 4125,
      "Ġprefer": 4126,
      "Ġhosp": 4127,
      "Ġtransfer": 4128,
      "ndepend": 4129,
      "independ": 4130,
      "Ġmer": 4131,
      "icul": 4132,
      "ĠKing": 4133,
      "Ġattack": 4134,
      "Ġbeginning": 4135,
      "bon": 4136,
      "Ġobtain": 4137,
      "Ġexperienced": 4138,
      "Ġbehavi": 4139,
      "Ġaward": 4140,
      "doo": 4141,
      "Ġbilli": 4142,
      "rock": 4143,
      "Ġdedi": 4144,
      "delivery": 4145,
      "long": 4146,
      "gin": 4147,
      "Ġcertainly": 4148,
      "ensio": 4149,
      "Ġstage": 4150,
      "EL": 4151,
      "Ġloved": 4152,
      "No": 4153,
      "ĠServices": 4154,
      "Ġblue": 4155,
      "ĠFacebook": 4156,
      "instit": 4157,
      "Ġadvice": 4158,
      "ĠMost": 4159,
      "Ġadvert": 4160,
      "Ġerr": 4161,
      "Ġbasis": 4162,
      "Ġdouble": 4163,
      "Ġnotic": 4164,
      "Ġschools": 4165,
      "Ġoffered": 4166,
      "eu": 4167,
      "sych": 4168,
      "Ġgen": 4169,
      "ott": 4170,
      "Ġtransport": 4171,
      "Ġgas": 4172,
      "Ġfeeli": 4173,
      "band": 4174,
      "Ġwasn": 4175,
      "ĠCont": 4176,
      "Ġmeaning": 4177,
      "Ġeffects": 4178,
      "Ġnotice": 4179,
      "Ġowners": 4180,
      "Ġfeeling": 4181,
      "ipe": 4182,
      "ky": 4183,
      "ĠPort": 4184,
      "Ġguarant": 4185,
      "Ġhtt": 4186,
      "Ġwine": 4187,
      "Ġlots": 4188,
      "care": 4189,
      "amic": 4190,
      "Ġappl": 4191,
      "Ġbank": 4192,
      "Ġspent": 4193,
      "Ġ60": 4194,
      "lly": 4195,
      "ĠCalifornia": 4196,
      "Ġson": 4197,
      "Ġscience": 4198,
      "body": 4199,
      "Ġdelivery": 4200,
      "Ġcorpo": 4201,
      "Ġinterview": 4202,
      "Ġgave": 4203,
      "uted": 4204,
      "Ġprevent": 4205,
      "Ġreleased": 4206,
      "ĠPhi": 4207,
      "opean": 4208,
      "Ġinstit": 4209,
      "Ġcur": 4210,
      "Ġadministr": 4211,
      "Ġtrade": 4212,
      "Tr": 4213,
      "estim": 4214,
      "Ġunit": 4215,
      "Ġwait": 4216,
      "ĠGe": 4217,
      "Ġappreci": 4218,
      "Ġindepend": 4219,
      "Ġwelco": 4220,
      "IL": 4221,
      "ecting": 4222,
      "mittee": 4223,
      "efully": 4224,
      "EO": 4225,
      "Ġhar": 4226,
      "Ġoverall": 4227,
      "ĠJapan": 4228,
      "rit": 4229,
      "Ġregarding": 4230,
      "Ġlog": 4231,
      "Ġflu": 4232,
      "Ġbudget": 4233,
      "ĠThanks": 4234,
      "onst": 4235,
      "Ġbasic": 4236,
      "Ġtemperature": 4237,
      "Ġshown": 4238,
      "ension": 4239,
      "zz": 4240,
      "ĠIN": 4241,
      "ĠDecember": 4242,
      "Ġfeet": 4243,
      "ste": 4244,
      "Ġtruly": 4245,
      "Ġ23": 4246,
      "lier": 4247,
      "vey": 4248,
      "sher": 4249,
      "ĠTw": 4250,
      "Ġreported": 4251,
      "lights": 4252,
      "tors": 4253,
      "ĠSystem": 4254,
      "amo": 4255,
      "Fr": 4256,
      "Ġassociated": 4257,
      "ences": 4258,
      "Ġborn": 4259,
      "Ġexisting": 4260,
      "Ġsuggest": 4261,
      "'d": 4262,
      "Ġbeac": 4263,
      "Ġinco": 4264,
      "whi": 4265,
      "oval": 4266,
      "izi": 4267,
      "lyi": 4268,
      "Ġblock": 4269,
      "Ġuseful": 4270,
      "Ġdirection": 4271,
      "ĠIr": 4272,
      "PS": 4273,
      "Ġtried": 4274,
      "Ġcomfortable": 4275,
      "23": 4276,
      "Ġpool": 4277,
      "aker": 4278,
      "Ġincreasi": 4279,
      "Ġincreasing": 4280,
      "master": 4281,
      "Ġhop": 4282,
      "Ġgift": 4283,
      "mment": 4284,
      "she": 4285,
      "ĠFu": 4286,
      "Ġbeyond": 4287,
      "olic": 4288,
      "omment": 4289,
      "Ġbaby": 4290,
      "Ġgradu": 4291,
      "lying": 4292,
      "llu": 4293,
      "ctional": 4294,
      "hab": 4295,
      "ĠSa": 4296,
      "Ġeconomic": 4297,
      "Ġappoint": 4298,
      "hern": 4299,
      "Ġindustr": 4300,
      "rain": 4301,
      "ĠSaturday": 4302,
      "Ġheard": 4303,
      "ĠNovember": 4304,
      "ecutive": 4305,
      "Ġstories": 4306,
      "Ġscore": 4307,
      "ĠChristi": 4308,
      "Ġbrought": 4309,
      "Ġrepair": 4310,
      "Ġincreased": 4311,
      "ĠHol": 4312,
      "iP": 4313,
      "Ġexercise": 4314,
      "mitted": 4315,
      "Ġprogress": 4316,
      "Ġviol": 4317,
      "nference": 4318,
      "Ġplayed": 4319,
      "ĠUp": 4320,
      "ĠRec": 4321,
      "ida": 4322,
      "Ġestim": 4323,
      "Ġhighest": 4324,
      "offee": 4325,
      "pio": 4326,
      "Ġpatient": 4327,
      "ĠCompany": 4328,
      "Ġcreative": 4329,
      "lige": 4330,
      "Ġsk": 4331,
      "Ġresponsible": 4332,
      "length": 4333,
      "Ġcompli": 4334,
      "shion": 4335,
      "Ġweather": 4336,
      "Ġessential": 4337,
      "ĠLaw": 4338,
      "dead": 4339,
      "Ġhandle": 4340,
      "Ġcustom": 4341,
      "rup": 4342,
      "ali": 4343,
      "Ġprotection": 4344,
      "Ġmother": 4345,
      "99": 4346,
      "ousi": 4347,
      "Ġideal": 4348,
      "Ġfail": 4349,
      "Ġincom": 4350,
      "Ġfiles": 4351,
      "Ġcollege": 4352,
      "ĠEurope": 4353,
      "Ġreli": 4354,
      "Ġspirit": 4355,
      "Ġ2011": 4356,
      "Ġtheme": 4357,
      "Ġstress": 4358,
      "Ġparticularly": 4359,
      "Ġcompleted": 4360,
      "ĠEa": 4361,
      "Ġcoac": 4362,
      "Ġatta": 4363,
      "Ġgar": 4364,
      "Ġpayment": 4365,
      "Ġlargest": 4366,
      "kets": 4367,
      "rdi": 4368,
      "ui": 4369,
      "decl": 4370,
      "Tha": 4371,
      "tee": 4372,
      "cast": 4373,
      "Ġlack": 4374,
      "Ġconsult": 4375,
      "ĠFirst": 4376,
      "thous": 4377,
      "Ġload": 4378,
      "22": 4379,
      "lement": 4380,
      "Ġstrai": 4381,
      "izing": 4382,
      "ruary": 4383,
      "Ġ2010": 4384,
      "ecure": 4385,
      "dark": 4386,
      "ĠRed": 4387,
      "Ġplayer": 4388,
      "That": 4389,
      "eph": 4390,
      "Ġweekend": 4391,
      "ĠBusiness": 4392,
      "etal": 4393,
      "ĠEast": 4394,
      "Ġincome": 4395,
      "ĠSunday": 4396,
      "apy": 4397,
      "ĠÂ£": 4398,
      "ano": 4399,
      "Ġimmediately": 4400,
      "echani": 4401,
      "ĠFin": 4402,
      "Ġappropriate": 4403,
      "tex": 4404,
      "Ġdecl": 4405,
      "ibed": 4406,
      "ĠCollege": 4407,
      "ĠRic": 4408,
      "map": 4409,
      "Ġachieve": 4410,
      "Ġlib": 4411,
      "ĠAugust": 4412,
      "Ġabsolute": 4413,
      "Ġhelpi": 4414,
      "Ad": 4415,
      "Ġhelping": 4416,
      "Ġbeach": 4417,
      "onference": 4418,
      "Ġarrange": 4419,
      "ĠEuropean": 4420,
      "affic": 4421,
      "ĠInterne": 4422,
      "Ġthous": 4423,
      "ident": 4424,
      "rks": 4425,
      "Ġjourney": 4426,
      "ĠInternet": 4427,
      "Ġcomment": 4428,
      "hos": 4429,
      "ĠWindows": 4430,
      "theo": 4431,
      "Ġvoice": 4432,
      "Ġdead": 4433,
      "Ġeyes": 4434,
      "key": 4435,
      "avour": 4436,
      "Ġsaving": 4437,
      "night": 4438,
      "ĠĠ": 4439,
      "Ġcapital": 4440,
      "Ġband": 4441,
      "Ġpeac": 4442,
      "ĠFlor": 4443,
      "ĠTime": 4444,
      "Ġjud": 4445,
      "Ġattend": 4446,
      "Ġcandi": 4447,
      "ĠMil": 4448,
      "Ġreasons": 4449,
      "Ġefficient": 4450,
      "Ġnumbers": 4451,
      "Ġstrategy": 4452,
      "ological": 4453,
      "Ġrecover": 4454,
      "Ġcell": 4455,
      "Ġcat": 4456,
      "mechani": 4457,
      "porary": 4458,
      "Ġextremely": 4459,
      "rid": 4460,
      "Ġfinally": 4461,
      "ĠGreen": 4462,
      "otes": 4463,
      "Ġnormal": 4464,
      "ern": 4465,
      "ride": 4466,
      "Ġclaim": 4467,
      "Ġrais": 4468,
      "Ġpowerful": 4469,
      "Ġstudies": 4470,
      "Ġannual": 4471,
      "secure": 4472,
      "Ġbatter": 4473,
      "Ġrock": 4474,
      "ables": 4475,
      "Ġelectri": 4476,
      "Ġtrain": 4477,
      "Ġthanks": 4478,
      "atically": 4479,
      "ishi": 4480,
      "Cl": 4481,
      "ĠJesus": 4482,
      "tone": 4483,
      "Ġcoffee": 4484,
      "Ġcoach": 4485,
      "Ġdemonstr": 4486,
      "ĠiP": 4487,
      "Ġdark": 4488,
      "Ġfurniture": 4489,
      "Ġevalu": 4490,
      "lage": 4491,
      "easu": 4492,
      "Ġvisi": 4493,
      "ples": 4494,
      "served": 4495,
      "gel": 4496,
      "Ġmovie": 4497,
      "ously": 4498,
      "Ġstates": 4499,
      "throom": 4500,
      "Ġmodels": 4501,
      "Ġver": 4502,
      "Ġbottom": 4503,
      "Ġconst": 4504,
      "Ġdetermine": 4505,
      "Ġtheo": 4506,
      "Ġclini": 4507,
      "ĠCanada": 4508,
      "anger": 4509,
      "ĠTrans": 4510,
      "ĠStreet": 4511,
      "Ġpartner": 4512,
      "Ġconven": 4513,
      "ncing": 4514,
      "any": 4515,
      "Ġroll": 4516,
      "Ġball": 4517,
      "Ġaccep": 4518,
      "ued": 4519,
      "olf": 4520,
      "AD": 4521,
      "Ġadjust": 4522,
      "Ġreference": 4523,
      "bing": 4524,
      "Ġchallenge": 4525,
      "Ġplus": 4526,
      "pion": 4527,
      "Ġchanged": 4528,
      "len": 4529,
      "Ġremove": 4530,
      "Ġmayb": 4531,
      "undred": 4532,
      "ĠEven": 4533,
      "Ġbackground": 4534,
      "wide": 4535,
      "Ġwindow": 4536,
      "Ġmaybe": 4537,
      "ĠTHE": 4538,
      "Ġrelax": 4539,
      "Ġutil": 4540,
      "Ġah": 4541,
      "ĠWed": 4542,
      "rner": 4543,
      "Ġstuff": 4544,
      "Ġevidence": 4545,
      "tration": 4546,
      "Ġprinci": 4547,
      "Ġnation": 4548,
      "eeding": 4549,
      "Ġteams": 4550,
      "cken": 4551,
      "Ġmethods": 4552,
      "Ġbon": 4553,
      "essionals": 4554,
      "ĠMany": 4555,
      "Ġassess": 4556,
      "Ġgon": 4557,
      "Ġsuffer": 4558,
      "mum": 4559,
      "Ġmot": 4560,
      "lusive": 4561,
      "tude": 4562,
      "Ġconnect": 4563,
      "tenance": 4564,
      "Ġseparate": 4565,
      "measu": 4566,
      "doors": 4567,
      "__": 4568,
      "Ġknew": 4569,
      "Ġgreater": 4570,
      "Ġpieces": 4571,
      "Ġturned": 4572,
      "Ġcards": 4573,
      "stitute": 4574,
      "za": 4575,
      "aint": 4576,
      "rules": 4577,
      "Ġremain": 4578,
      "Ġcompared": 4579,
      "Ġimagi": 4580,
      "Ġnearly": 4581,
      "Ġgarden": 4582,
      "litary": 4583,
      "Thes": 4584,
      "logies": 4585,
      "Ġvil": 4586,
      "Ġliter": 4587,
      "These": 4588,
      "Ġsust": 4589,
      "ival": 4590,
      "ĠDesign": 4591,
      "Ġestate": 4592,
      "ĠOut": 4593,
      "Co": 4594,
      "arc": 4595,
      "Ġlength": 4596,
      "Ġmission": 4597,
      "cians": 4598,
      "Ġserved": 4599,
      "Â®": 4600,
      "ĠRob": 4601,
      "sample": 4602,
      "lements": 4603,
      "Ġsteps": 4604,
      "Ġbillio": 4605,
      "Ġbillion": 4606,
      "iding": 4607,
      "ĠInt": 4608,
      "aughter": 4609,
      "Ġ28": 4610,
      "Ġsoft": 4611,
      "aurant": 4612,
      "doll": 4613,
      "Ġconference": 4614,
      "ston": 4615,
      "Ġsold": 4616,
      "ĠFebruary": 4617,
      "Ġexist": 4618,
      "sett": 4619,
      "ĠIT": 4620,
      "ooks": 4621,
      "Ġmechani": 4622,
      "Ġrules": 4623,
      "Ġsayi": 4624,
      "nus": 4625,
      "Ġestablished": 4626,
      "ument": 4627,
      "Ġsecure": 4628,
      "Ġhelped": 4629,
      "Ġstraight": 4630,
      "Ġopening": 4631,
      "OL": 4632,
      "lands": 4633,
      "Ġcha": 4634,
      "Ġsaying": 4635,
      "Whil": 4636,
      "nest": 4637,
      "olution": 4638,
      "ampion": 4639,
      "Ġlarger": 4640,
      "ishing": 4641,
      "Ġalthough": 4642,
      "ĠTi": 4643,
      "Ġinte": 4644,
      "Ġreports": 4645,
      "Ġ|": 4646,
      "Ġrequires": 4647,
      "sports": 4648,
      "iring": 4649,
      "Ġ26": 4650,
      "ically": 4651,
      "Ġallowed": 4652,
      "Ġalon": 4653,
      "Ġmeasu": 4654,
      "Ġsample": 4655,
      "Ġscienti": 4656,
      "Ġalone": 4657,
      "ĠAustralia": 4658,
      "ĠIS": 4659,
      "evi": 4660,
      "Ġsharing": 4661,
      "dly": 4662,
      "Ġvolunt": 4663,
      "xim": 4664,
      "Ġocca": 4665,
      "ĠPlan": 4666,
      "rning": 4667,
      "Ġoccas": 4668,
      "Ġoccasi": 4669,
      "Ġcold": 4670,
      "adem": 4671,
      "Ġgrand": 4672,
      "lock": 4673,
      "enture": 4674,
      "ĠProgram": 4675,
      "ĠRussi": 4676,
      "Ġfeatur": 4677,
      "Ġthank": 4678,
      "lip": 4679,
      "Ġwild": 4680,
      "ĠWal": 4681,
      "ĠPC": 4682,
      "eali": 4683,
      "ĠRev": 4684,
      "US": 4685,
      "evant": 4686,
      "ĠGreat": 4687,
      "Ġalternative": 4688,
      "letter": 4689,
      "orse": 4690,
      "Ġstrength": 4691,
      "ĠCouncil": 4692,
      "Ġadvantage": 4693,
      "prehen": 4694,
      "Ġahead": 4695,
      "ealing": 4696,
      "asting": 4697,
      "exa": 4698,
      "Ġpoo": 4699,
      "ched": 4700,
      "sens": 4701,
      "uests": 4702,
      "tent": 4703,
      "ĠWhite": 4704,
      "field": 4705,
      "nia": 4706,
      "à¤": 4707,
      "bum": 4708,
      "rap": 4709,
      "**": 4710,
      "Ġjo": 4711,
      "Ġconfirm": 4712,
      "Ġtil": 4713,
      "cles": 4714,
      "IP": 4715,
      "auc": 4716,
      "ĠPri": 4717,
      "75": 4718,
      "Ġmiles": 4719,
      "Ġwants": 4720,
      "Ġwelcom": 4721,
      "nfr": 4722,
      "Ġwelcome": 4723,
      "ION": 4724,
      "ĠScience": 4725,
      "Ġreviews": 4726,
      "Ġcommunication": 4727,
      "amous": 4728,
      "sia": 4729,
      "ĠBest": 4730,
      "Ġdriving": 4731,
      "los": 4732,
      "owl": 4733,
      "metal": 4734,
      "hundred": 4735,
      "Ġtee": 4736,
      "Ġagr": 4737,
      "Ġincredi": 4738,
      "Ġdiscussion": 4739,
      "ĠContr": 4740,
      "ĠCre": 4741,
      "Ġgraph": 4742,
      "Ġevening": 4743,
      "ĠMonday": 4744,
      "eats": 4745,
      "ĠCourt": 4746,
      "Ġwear": 4747,
      "bed": 4748,
      "Ġannounced": 4749,
      "position": 4750,
      "mise": 4751,
      "ĠEac": 4752,
      "ĠAssociation": 4753,
      "ĠEach": 4754,
      "Ġrestr": 4755,
      "IG": 4756,
      "Ġtex": 4757,
      "Ġchann": 4758,
      "Ġdemand": 4759,
      "ounding": 4760,
      "Ġmoved": 4761,
      "ĠOffice": 4762,
      "arti": 4763,
      "Ġopti": 4764,
      "Ġeg": 4765,
      "Ġletter": 4766,
      "Ġtips": 4767,
      "icious": 4768,
      "Ġviews": 4769,
      "Ġpolic": 4770,
      "Ġfinished": 4771,
      "Ġtechnical": 4772,
      "Ġscene": 4773,
      "Ġearlier": 4774,
      "hitect": 4775,
      "Ġwoman": 4776,
      "Ġexperts": 4777,
      "Ġsong": 4778,
      "Ġintel": 4779,
      "links": 4780,
      "Ġmaster": 4781,
      "Ġshi": 4782,
      "Ġtraffic": 4783,
      "alley": 4784,
      "Ġefforts": 4785,
      "Ġsleep": 4786,
      "Ġsports": 4787,
      "Ġorganizations": 4788,
      "Ġjobs": 4789,
      "Ġdoll": 4790,
      "ĠGover": 4791,
      "rrow": 4792,
      "aunch": 4793,
      "idi": 4794,
      "Ġprofessionals": 4795,
      "Ġmonitor": 4796,
      "Ġmiddle": 4797,
      "Ġ+": 4798,
      "Ġonto": 4799,
      "moto": 4800,
      "ngredi": 4801,
      "45": 4802,
      "While": 4803,
      "Ġhundred": 4804,
      "Som": 4805,
      "ĠSup": 4806,
      "Ġgenerally": 4807,
      "Ġston": 4808,
      "Ġsett": 4809,
      "Ġexperiences": 4810,
      "ĠSam": 4811,
      "ented": 4812,
      "Ġtag": 4813,
      "ecide": 4814,
      "rial": 4815,
      "Ġfarm": 4816,
      "Ġorganis": 4817,
      "Ġprimary": 4818,
      "Ġmap": 4819,
      "Ġretail": 4820,
      "ĠOnce": 4821,
      "ress": 4822,
      "ĠWell": 4823,
      "nally": 4824,
      "Ġexpress": 4825,
      "inio": 4826,
      "Ġsubst": 4827,
      "dou": 4828,
      "sets": 4829,
      "ĠBoard": 4830,
      "ttl": 4831,
      "ĠRem": 4832,
      "eavy": 4833,
      "ĠEdu": 4834,
      "Ġlooked": 4835,
      "Ġcovered": 4836,
      "Ġowner": 4837,
      "EM": 4838,
      "Ġcleaning": 4839,
      "Ġaccept": 4840,
      "astr": 4841,
      "Ġarchitect": 4842,
      "Ġstandards": 4843,
      "abas": 4844,
      "ĠII": 4845,
      "heavy": 4846,
      "ok": 4847,
      "ĠEd": 4848,
      "Ġschedule": 4849,
      "ĠMid": 4850,
      "Ġslight": 4851,
      "ĠGold": 4852,
      "Ġretur": 4853,
      "decide": 4854,
      "Ġofficial": 4855,
      "Ġstrug": 4856,
      "Now": 4857,
      "formation": 4858,
      "style": 4859,
      "ĠPu": 4860,
      "alog": 4861,
      "ĠResearch": 4862,
      "Ġdecide": 4863,
      "Ġfollowed": 4864,
      "Ġtaste": 4865,
      "Ġstre": 4866,
      "Ġcancer": 4867,
      "Ġinvolv": 4868,
      "zen": 4869,
      "Ġbrea": 4870,
      "inion": 4871,
      "ĠOb": 4872,
      "azo": 4873,
      "Ġcritical": 4874,
      "Ġgra": 4875,
      "elements": 4876,
      "itish": 4877,
      "Ġeight": 4878,
      "pal": 4879,
      "ĠSee": 4880,
      "Ġaren": 4881,
      "Ġvalues": 4882,
      "spring": 4883,
      "illu": 4884,
      "Ġpoor": 4885,
      "zing": 4886,
      "elo": 4887,
      "Ġfabr": 4888,
      "ĠMari": 4889,
      "rming": 4890,
      "Ġnumer": 4891,
      "shed": 4892,
      "Is": 4893,
      "Ġshopping": 4894,
      "Ġchallenges": 4895,
      "Ġsteel": 4896,
      "35": 4897,
      "Ġelements": 4898,
      "Ġpolice": 4899,
      "abase": 4900,
      "Ġsmooth": 4901,
      "Ġsurvi": 4902,
      "Ġstone": 4903,
      "wards": 4904,
      "ãĤ": 4905,
      "Ġfriendly": 4906,
      "Ġexter": 4907,
      "Ġcup": 4908,
      "sand": 4909,
      "Ġopinion": 4910,
      "Ġshared": 4911,
      "ĠEvery": 4912,
      "ĠBea": 4913,
      "pm": 4914,
      "timate": 4915,
      "Ġperhaps": 4916,
      "Ġtherefore": 4917,
      "ĠJu": 4918,
      "âĢĿ,": 4919,
      "pho": 4920,
      "Ġupdate": 4921,
      "Ġcolors": 4922,
      "launch": 4923,
      "ombi": 4924,
      "Ġmetal": 4925,
      "Ġtri": 4926,
      "Ġ27": 4927,
      "Ġcells": 4928,
      "Ġbalance": 4929,
      "mith": 4930,
      "lver": 4931,
      "Ġdeveloping": 4932,
      "otional": 4933,
      "ĠDevelo": 4934,
      "Ġadvanced": 4935,
      "Ple": 4936,
      "Ġdedicated": 4937,
      "Ġillu": 4938,
      "Ġmoto": 4939,
      "ga": 4940,
      "ashington": 4941,
      "itter": 4942,
      "ette": 4943,
      "Ġloan": 4944,
      "ĠLin": 4945,
      "Ġteachi": 4946,
      "Ġteaching": 4947,
      "Ġtree": 4948,
      "ncies": 4949,
      "ĠChurch": 4950,
      "Ġhimself": 4951,
      "Ġtarget": 4952,
      "Plea": 4953,
      "ĠDavid": 4954,
      "ctive": 4955,
      "ager": 4956,
      "Ġserver": 4957,
      "Ġbrain": 4958,
      "task": 4959,
      "Ġprote": 4960,
      "Ġactual": 4961,
      "pect": 4962,
      "Pleas": 4963,
      "ĠFound": 4964,
      "Ġholiday": 4965,
      "Ġcontains": 4966,
      "Ġparties": 4967,
      "orce": 4968,
      "Ġsweet": 4969,
      "Ġrelative": 4970,
      "Ġheavy": 4971,
      "cting": 4972,
      "tary": 4973,
      "ingredi": 4974,
      "Ġcry": 4975,
      "Ġtalking": 4976,
      "Ġimprov": 4977,
      "Ġcompar": 4978,
      "Ġinch": 4979,
      "cused": 4980,
      "Please": 4981,
      "Ġfish": 4982,
      "Ġlaunch": 4983,
      "Ġmemory": 4984,
      "nting": 4985,
      "Ġmovement": 4986,
      "Ġvirt": 4987,
      "Ġingredi": 4988,
      "ĠSm": 4989,
      "100": 4990,
      "Ġadop": 4991,
      "Ġfacilities": 4992,
      "xi": 4993,
      "rse": 4994,
      "ĠPla": 4995,
      "Ġcombi": 4996,
      "BC": 4997,
      "Ġbag": 4998,
      "seven": 4999,
      "nating": 5000,
      "Ġregard": 5001,
      "rise": 5002,
      "ĠThank": 5003,
      "oph": 5004,
      "Ġride": 5005,
      "Ġpark": 5006,
      "Ġwhose": 5007,
      "Ġlisted": 5008,
      "rts": 5009,
      "yp": 5010,
      "def": 5011,
      "ĠFrench": 5012,
      "oast": 5013,
      "Ġdou": 5014,
      "Ġoccu": 5015,
      "Ġseei": 5016,
      "Ġseeing": 5017,
      "ĠClub": 5018,
      "Ġsen": 5019,
      "Ġalbum": 5020,
      "Ġfactors": 5021,
      "Ġlimit": 5022,
      "Ġpredi": 5023,
      "Ġproduced": 5024,
      "seni": 5025,
      "Ġrooms": 5026,
      "Ġforms": 5027,
      "ein": 5028,
      "iar": 5029,
      "Ġpresented": 5030,
      "ĠExc": 5031,
      "Ġwinter": 5032,
      "Ġtechniques": 5033,
      "term": 5034,
      "ĠSuper": 5035,
      "Ġtask": 5036,
      "free": 5037,
      "Ġprofile": 5038,
      "Ġresist": 5039,
      "Ġpopulation": 5040,
      "ĠManagement": 5041,
      "Ġswitch": 5042,
      "torney": 5043,
      "Some": 5044,
      "Ġstatement": 5045,
      "Ġcomments": 5046,
      "Ġprepared": 5047,
      "IM": 5048,
      "Ġcars": 5049,
      "Ġmaintenance": 5050,
      "ĠBlue": 5051,
      "ĠSince": 5052,
      "Ġwife": 5053,
      "scape": 5054,
      "Ġvict": 5055,
      "Ġlearned": 5056,
      "ĠAv": 5057,
      "Ġplaced": 5058,
      "yard": 5059,
      "rob": 5060,
      "Ġselected": 5061,
      "unately": 5062,
      "ĠProdu": 5063,
      "Ġcabin": 5064,
      "Ġsand": 5065,
      "iel": 5066,
      "Ġtesting": 5067,
      "lous": 5068,
      "ison": 5069,
      "Ġsens": 5070,
      "Ġquarter": 5071,
      "Ġlinks": 5072,
      "Ġfather": 5073,
      "Ġaudience": 5074,
      "cian": 5075,
      "Ġplenty": 5076,
      "....": 5077,
      "zation": 5078,
      "ĠBel": 5079,
      "Ġov": 5080,
      "ites": 5081,
      "spl": 5082,
      "Ġadap": 5083,
      "Ġproperties": 5084,
      "Ġrelevant": 5085,
      "ĠPlay": 5086,
      "work": 5087,
      "Ġplants": 5088,
      "ĠClass": 5089,
      "ĠLife": 5090,
      "ĠLake": 5091,
      "mman": 5092,
      "Ġ2009": 5093,
      "ya": 5094,
      "Ġhaven": 5095,
      "Ġhos": 5096,
      "imum": 5097,
      "Ġseni": 5098,
      "Ġfan": 5099,
      "enn": 5100,
      "They": 5101,
      "ĠOver": 5102,
      "verse": 5103,
      "rael": 5104,
      "Ġpray": 5105,
      "iency": 5106,
      "Ġkeeping": 5107,
      "Ġmenu": 5108,
      "Ġvisio": 5109,
      "ĠBritish": 5110,
      "ĠCam": 5111,
      "ony": 5112,
      "ĠProf": 5113,
      "26": 5114,
      "azin": 5115,
      "sband": 5116,
      "sci": 5117,
      "Ġclasse": 5118,
      "ĠBas": 5119,
      "ĠMicro": 5120,
      "Ġguests": 5121,
      "Ġsolid": 5122,
      "Ġclasses": 5123,
      "espite": 5124,
      "ĠAny": 5125,
      "Ġspring": 5126,
      "ĠTher": 5127,
      "antastic": 5128,
      "Ġforma": 5129,
      "Ġcentury": 5130,
      "Ġlisten": 5131,
      "90": 5132,
      "Br": 5133,
      "Ġnamed": 5134,
      "Ġcommunities": 5135,
      "):": 5136,
      "Ġexplore": 5137,
      "agram": 5138,
      "Ġdy": 5139,
      "Ġshot": 5140,
      "Ġfaith": 5141,
      "unk": 5142,
      "Ġbuying": 5143,
      "Ġspeak": 5144,
      "ĠLet": 5145,
      "Ġseven": 5146,
      "Ġaccommo": 5147,
      "dating": 5148,
      "Ġoffici": 5149,
      "ĠWashington": 5150,
      "ĠRa": 5151,
      "CC": 5152,
      "Ġepi": 5153,
      "Ġinfluence": 5154,
      "Ġstatus": 5155,
      "Ġcouldn": 5156,
      "ousing": 5157,
      "Ġstation": 5158,
      "Ġcapacity": 5159,
      "ĠSol": 5160,
      "rus": 5161,
      "mprehen": 5162,
      "ĠUn": 5163,
      "uli": 5164,
      "Ġoperations": 5165,
      "lm": 5166,
      "Ġcentral": 5167,
      "azine": 5168,
      "Ġreti": 5169,
      "Ġ2008": 5170,
      "ium": 5171,
      "Ġsurge": 5172,
      "ined": 5173,
      "offic": 5174,
      "exas": 5175,
      "soft": 5176,
      "ĠGet": 5177,
      "ordi": 5178,
      "Ġder": 5179,
      "Ġdriver": 5180,
      "servation": 5181,
      "Here": 5182,
      "Ġfunds": 5183,
      "Ġtwi": 5184,
      "Ġkept": 5185,
      "rement": 5186,
      "ĠBl": 5187,
      "88": 5188,
      "ĠDown": 5189,
      "Ġreligi": 5190,
      "Ġoffic": 5191,
      "Ġ80": 5192,
      "esso": 5193,
      "Ġwire": 5194,
      "ĠRoad": 5195,
      "Ġremi": 5196,
      "Ġlose": 5197,
      "Ġgather": 5198,
      "ĠEducation": 5199,
      "Ġhelpful": 5200,
      "Ġadding": 5201,
      "Ġvolume": 5202,
      "Ġnames": 5203,
      "arth": 5204,
      "Ġcentre": 5205,
      "Ġluck": 5206,
      "Ġgain": 5207,
      "ursday": 5208,
      "ï¿": 5209,
      "sector": 5210,
      "Ġcore": 5211,
      "ults": 5212,
      "entially": 5213,
      "Ġgone": 5214,
      "Ġvisitors": 5215,
      "omprehen": 5216,
      "empt": 5217,
      "alls": 5218,
      "Ġbiggest": 5219,
      "llo": 5220,
      "ĠChin": 5221,
      "Ġwaste": 5222,
      "unity": 5223,
      "Ġdesigns": 5224,
      "LE": 5225,
      "ĠFlorida": 5226,
      "ews": 5227,
      "Ġpractices": 5228,
      "Ġoperating": 5229,
      ".)": 5230,
      "\",": 5231,
      "esk": 5232,
      "Ġcompetition": 5233,
      "ï¿½": 5234,
      "desti": 5235,
      "wel": 5236,
      "ĠGood": 5237,
      "ively": 5238,
      "ĠFe": 5239,
      "Ġcomprehen": 5240,
      "Ġsmaller": 5241,
      "Ġawe": 5242,
      "tho": 5243,
      "sight": 5244,
      "Ġfigure": 5245,
      "www": 5246,
      "Ġrain": 5247,
      "Pro": 5248,
      "ased": 5249,
      "iant": 5250,
      "oud": 5251,
      "Ġdirecto": 5252,
      "ĠAre": 5253,
      "eos": 5254,
      "ibility": 5255,
      "hole": 5256,
      "Ġworkers": 5257,
      "Ġsouth": 5258,
      "Ġspread": 5259,
      "Ġmodi": 5260,
      "ĠGl": 5261,
      "ĠBook": 5262,
      "ĠMake": 5263,
      "rry": 5264,
      "rare": 5265,
      "Ġdesti": 5266,
      "Ġarg": 5267,
      "Ġfeder": 5268,
      "fast": 5269,
      "!!!": 5270,
      "Ġlesso": 5271,
      "Ġinstallation": 5272,
      "Ġbus": 5273,
      "sert": 5274,
      "Ġdress": 5275,
      "snow": 5276,
      "ĠAfric": 5277,
      "Ġcatch": 5278,
      "ĠAP": 5279,
      "ãĥ": 5280,
      "va": 5281,
      "Ġdef": 5282,
      "Ġnumerous": 5283,
      "Ġvision": 5284,
      "Ġrew": 5285,
      "Gr": 5286,
      "ĠNa": 5287,
      "Ġrob": 5288,
      "destr": 5289,
      "Ġrestaurant": 5290,
      "mani": 5291,
      "ework": 5292,
      "Ġmountain": 5293,
      "pment": 5294,
      "erc": 5295,
      "ĠAdv": 5296,
      "Ġlesson": 5297,
      "stice": 5298,
      "ifts": 5299,
      "Ġplane": 5300,
      "enses": 5301,
      "Ġfashion": 5302,
      "Ġhusband": 5303,
      "Ġconcept": 5304,
      "coming": 5305,
      "Ġeconomy": 5306,
      "ĠRiver": 5307,
      "azon": 5308,
      "Ġdiag": 5309,
      "erty": 5310,
      "Ġpackage": 5311,
      "Ġolder": 5312,
      "Ġessay": 5313,
      "Ġwaiting": 5314,
      "Ye": 5315,
      "Ġcombination": 5316,
      "Ġsurvey": 5317,
      "Ġsector": 5318,
      "Ġdepend": 5319,
      "Ġsociety": 5320,
      "nology": 5321,
      "Ġmedium": 5322,
      "Ġdirector": 5323,
      "ĠST": 5324,
      "ĠPower": 5325,
      "ipt": 5326,
      "âĢ¢": 5327,
      "Ġapproxim": 5328,
      "Ġligh": 5329,
      "Ġreality": 5330,
      "Ġfans": 5331,
      "Ġbecomes": 5332,
      "thu": 5333,
      "ĠInstitute": 5334,
      "Ġ197": 5335,
      "Ġbright": 5336,
      "Ġgirl": 5337,
      "Ġclassi": 5338,
      "65": 5339,
      "21": 5340,
      "Ġrare": 5341,
      "Ġtrail": 5342,
      "ĠTexas": 5343,
      "MS": 5344,
      "uesday": 5345,
      "bling": 5346,
      "Ġmilitary": 5347,
      "Ġsustain": 5348,
      "earth": 5349,
      "Ġpane": 5350,
      "Ġ90": 5351,
      "ĠDat": 5352,
      "Ġpassed": 5353,
      "eese": 5354,
      "Ġfamous": 5355,
      "ĠPaul": 5356,
      "Ġcoverage": 5357,
      "Ġlux": 5358,
      "Ġphotograph": 5359,
      "Ð¸": 5360,
      "Ġnu": 5361,
      "omman": 5362,
      "Ġobvious": 5363,
      "ĠCap": 5364,
      "nning": 5365,
      "fication": 5366,
      "Ġsn": 5367,
      "scription": 5368,
      "enting": 5369,
      "isco": 5370,
      "Ġinitial": 5371,
      "Ġcalcul": 5372,
      "ecial": 5373,
      "sday": 5374,
      "Ġbeauty": 5375,
      "28": 5376,
      "eared": 5377,
      "Ġsnow": 5378,
      "Ġconnected": 5379,
      "used": 5380,
      "Ġinfo": 5381,
      "Ġotherwise": 5382,
      "Ġexpensive": 5383,
      "Ġbathroom": 5384,
      "ĠSim": 5385,
      "Ġrap": 5386,
      "Ġclassic": 5387,
      "citing": 5388,
      "Ġindic": 5389,
      "emium": 5390,
      "Ġcasino": 5391,
      "Ġpsych": 5392,
      "Ġleader": 5393,
      "ademic": 5394,
      "Ġcream": 5395,
      "Ġmentioned": 5396,
      "ĠMal": 5397,
      "Ġchanging": 5398,
      "Ġprocesse": 5399,
      "esday": 5400,
      "Wel": 5401,
      "ĠBer": 5402,
      "Ġstar": 5403,
      "ttle": 5404,
      "Ġprocesses": 5405,
      "Ġresidents": 5406,
      "lap": 5407,
      "och": 5408,
      "Ġcharacters": 5409,
      "zer": 5410,
      "ĠWhy": 5411,
      "daughter": 5412,
      "lusi": 5413,
      "ĠGeneral": 5414,
      "aught": 5415,
      "onest": 5416,
      "ĠWilli": 5417,
      "Dr": 5418,
      "Ġidentify": 5419,
      "sors": 5420,
      "Ġfunctional": 5421,
      "Ġdatabase": 5422,
      "sire": 5423,
      "Ġexperim": 5424,
      "erso": 5425,
      "ĠChine": 5426,
      "Ġnorth": 5427,
      "ĠBay": 5428,
      "Ġoutdoor": 5429,
      "Ġbike": 5430,
      "Ġtruth": 5431,
      "ĠIsrael": 5432,
      "Ġpul": 5433,
      "thus": 5434,
      "uts": 5435,
      "iter": 5436,
      "Ġfight": 5437,
      "rned": 5438,
      "Ġpow": 5439,
      "Ġdocuments": 5440,
      "Ġpainting": 5441,
      "nesday": 5442,
      "UR": 5443,
      "ĠChines": 5444,
      "Ġhappens": 5445,
      "ĠChinese": 5446,
      "otic": 5447,
      "dev": 5448,
      "cki": 5449,
      "oordi": 5450,
      "phon": 5451,
      "Ġtempl": 5452,
      "tab": 5453,
      "Ġhappened": 5454,
      "Ġreven": 5455,
      "Mi": 5456,
      "Ġtend": 5457,
      "ĠDur": 5458,
      "lets": 5459,
      "Ġbecoming": 5460,
      "27": 5461,
      "Ġ29": 5462,
      "Ġposts": 5463,
      "Ġvideos": 5464,
      "uty": 5465,
      "Ġmusc": 5466,
      "ĠAfrica": 5467,
      "Ġfru": 5468,
      "Ġroute": 5469,
      "Ġcalls": 5470,
      "well": 5471,
      "Ġcomman": 5472,
      "ĠPost": 5473,
      "Ġdecisions": 5474,
      "ĠId": 5475,
      "ĠEngi": 5476,
      "ĠHu": 5477,
      "ĠThursday": 5478,
      "ĠElect": 5479,
      "Ġroof": 5480,
      "ĠEngin": 5481,
      "Ġboa": 5482,
      "Ġprocessing": 5483,
      "Ġconvert": 5484,
      "500": 5485,
      "Ġcolou": 5486,
      "oul": 5487,
      "Ġsquare": 5488,
      "ĠOther": 5489,
      "Your": 5490,
      "box": 5491,
      "mpo": 5492,
      "Ġapplied": 5493,
      "Ġmaximum": 5494,
      "Ġzo": 5495,
      "Ġforget": 5496,
      "Ġwrote": 5497,
      "Ġthousands": 5498,
      "Ġgri": 5499,
      "Ġvalu": 5500,
      "allery": 5501,
      "Ġagreement": 5502,
      "desk": 5503,
      "Ġsources": 5504,
      "ĠDistr": 5505,
      "san": 5506,
      "oyal": 5507,
      "TS": 5508,
      "Ġvege": 5509,
      "Ġnutr": 5510,
      "Ġcolour": 5511,
      "Ġunits": 5512,
      "oted": 5513,
      "ĠHil": 5514,
      "ĠBen": 5515,
      "Ġcontinued": 5516,
      "ĠBecause": 5517,
      "ural": 5518,
      "Ġcourses": 5519,
      "Ġdetermi": 5520,
      "Ġindependent": 5521,
      "Ġthus": 5522,
      "phone": 5523,
      "Ġwhatever": 5524,
      "Ġdescribed": 5525,
      "Ġdump": 5526,
      "Ġdestr": 5527,
      "ym": 5528,
      "Ġfla": 5529,
      "Ġsurpr": 5530,
      "Ġnove": 5531,
      "ĠBank": 5532,
      "Ġ70": 5533,
      "mpi": 5534,
      "ored": 5535,
      "Ġsomew": 5536,
      "Ġfocused": 5537,
      "Ġformat": 5538,
      "Ġsets": 5539,
      "Ġchr": 5540,
      "Ġexcited": 5541,
      "Ġworkshop": 5542,
      "ega": 5543,
      "Ġexception": 5544,
      "ĠJack": 5545,
      "uting": 5546,
      "standing": 5547,
      "Ġfees": 5548,
      "Ġneighbor": 5549,
      "OW": 5550,
      "Ġoperation": 5551,
      "Ġdri": 5552,
      "Ġregis": 5553,
      "secre": 5554,
      "ĠWater": 5555,
      "Ġnarr": 5556,
      "mark": 5557,
      "tes": 5558,
      "ĠLove": 5559,
      "ĠFed": 5560,
      "Ġremains": 5561,
      "liar": 5562,
      "Ġfantastic": 5563,
      "Ġframe": 5564,
      "Ġruns": 5565,
      "rent": 5566,
      "Ġspl": 5567,
      "Ġopened": 5568,
      "Ġartist": 5569,
      "Ġwind": 5570,
      "DA": 5571,
      "Ġinteri": 5572,
      "Ġshowi": 5573,
      "Ġshowing": 5574,
      "Ġpull": 5575,
      "Ġfederal": 5576,
      "ĠâĢ¦": 5577,
      "eleg": 5578,
      "Ġvisual": 5579,
      "Ġspect": 5580,
      "unds": 5581,
      "ĠColor": 5582,
      "ĠTuesday": 5583,
      "Ġrecords": 5584,
      "ĠOF": 5585,
      "frien": 5586,
      "Ġhttp": 5587,
      "Ġcaused": 5588,
      "kes": 5589,
      "sks": 5590,
      "dex": 5591,
      "ĠUSA": 5592,
      "Ġdistance": 5593,
      "Ġsounds": 5594,
      "Ġpurs": 5595,
      "Ġelecti": 5596,
      "Ġmarkets": 5597,
      "Ġcount": 5598,
      "Ġfabri": 5599,
      "ĠSal": 5600,
      "ĠApple": 5601,
      "Ġexclusive": 5602,
      "instr": 5603,
      "nding": 5604,
      "Ġaccurate": 5605,
      "epartment": 5606,
      "Ġoutc": 5607,
      "ĠCu": 5608,
      "ault": 5609,
      "Ġcounter": 5610,
      "Ġupgr": 5611,
      "hono": 5612,
      "Ġnegative": 5613,
      "lusio": 5614,
      "rants": 5615,
      "Ġfem": 5616,
      "esire": 5617,
      "Ġwebsites": 5618,
      "Ġden": 5619,
      "ĠPR": 5620,
      "Ġpair": 5621,
      "Ġexciting": 5622,
      "auce": 5623,
      "Ġminute": 5624,
      "Ġstreet": 5625,
      "Ġdinner": 5626,
      "iest": 5627,
      "Ġprotei": 5628,
      "Ġplastic": 5629,
      "Ġbought": 5630,
      "Ġaffordable": 5631,
      "hire": 5632,
      "33": 5633,
      "Ġestablish": 5634,
      "ĠDan": 5635,
      "word": 5636,
      "tures": 5637,
      "Ġdining": 5638,
      "eaving": 5639,
      "Ġprotein": 5640,
      "ĠAlthough": 5641,
      "Ġ?": 5642,
      "ube": 5643,
      "Ġabsolutely": 5644,
      "Ġfavour": 5645,
      "Ġsurrounding": 5646,
      "ĠCheck": 5647,
      "desire": 5648,
      "Ġworry": 5649,
      "Ġspending": 5650,
      "eec": 5651,
      "ĠMary": 5652,
      "Ġ31": 5653,
      "Ġnurs": 5654,
      "ealed": 5655,
      "erson": 5656,
      "Ġenjoyed": 5657,
      "Ġminimum": 5658,
      "ĠCong": 5659,
      "Ġelectio": 5660,
      "Ġelection": 5661,
      "ĠCas": 5662,
      "Ġfacility": 5663,
      "shes": 5664,
      "Ġmajority": 5665,
      "Ġleadership": 5666,
      "Ġdesire": 5667,
      "ckets": 5668,
      "Ġtoward": 5669,
      "lunch": 5670,
      "Ġteachers": 5671,
      "licious": 5672,
      "Ġpresence": 5673,
      "Ġassistance": 5674,
      "ula": 5675,
      "Ġperformed": 5676,
      "Ġproperly": 5677,
      "rgani": 5678,
      "bilities": 5679,
      "Ġpresident": 5680,
      "29": 5681,
      "Ġearth": 5682,
      "Ġcorre": 5683,
      "tric": 5684,
      "Ġbear": 5685,
      "Ġdesk": 5686,
      "rol": 5687,
      "ĠClick": 5688,
      "Ġclaims": 5689,
      "Ġinstr": 5690,
      "nfe": 5691,
      "NA": 5692,
      "ĠGlo": 5693,
      "ĠUse": 5694,
      "Ġrecommended": 5695,
      "Ġchair": 5696,
      "Ġoutco": 5697,
      "Ġextensive": 5698,
      "Ġoutcom": 5699,
      "Ġoutcome": 5700,
      "Ġprogramm": 5701,
      "ĠWednesday": 5702,
      "placement": 5703,
      "Ġhono": 5704,
      "Ġanimals": 5705,
      "Ġbul": 5706,
      "ĠComp": 5707,
      "itions": 5708,
      "Ġcorporate": 5709,
      "Ġwindows": 5710,
      "ĠSun": 5711,
      "Ġpaint": 5712,
      "Ġlunch": 5713,
      "Ġ...": 5714,
      "Ġinstalled": 5715,
      "Ġsecre": 5716,
      "infr": 5717,
      "Ġdaughter": 5718,
      "Ġknows": 5719,
      "Ġstro": 5720,
      "pol": 5721,
      "Ġpanel": 5722,
      "Ġmist": 5723,
      "Ġcer": 5724,
      "ĠTrump": 5725,
      "amily": 5726,
      "orming": 5727,
      "nown": 5728,
      "Ġpolicies": 5729,
      "ĠLib": 5730,
      "Ġdev": 5731,
      "Ġcontinues": 5732,
      "Ġmicro": 5733,
      "ayo": 5734,
      "Ġmanaged": 5735,
      "Ġartists": 5736,
      "Ġdistrict": 5737,
      "Ġrelationships": 5738,
      "Ġconcentr": 5739,
      "lusion": 5740,
      "Ġbrings": 5741,
      "ĠDirector": 5742,
      "ĠLord": 5743,
      "Ġregistered": 5744,
      "Ġcontem": 5745,
      "sport": 5746,
      "ko": 5747,
      "ĠPeople": 5748,
      "Ġdetailed": 5749,
      "oral": 5750,
      "sod": 5751,
      "IV": 5752,
      "Thanks": 5753,
      "osen": 5754,
      "Ġingredients": 5755,
      "Ġserving": 5756,
      "apter": 5757,
      "ĠTop": 5758,
      "orner": 5759,
      "lete": 5760,
      "Ġmail": 5761,
      "Ġconcerns": 5762,
      "uled": 5763,
      "Ġmanager": 5764,
      "Ġsugar": 5765,
      "Can": 5766,
      "Ġawesome": 5767,
      "leaving": 5768,
      "Ġtopi": 5769,
      "honest": 5770,
      "Ġscale": 5771,
      "ĠCi": 5772,
      "Ġteacher": 5773,
      "sur": 5774,
      "Ġinjury": 5775,
      "agic": 5776,
      "Ġmort": 5777,
      "ders": 5778,
      "zens": 5779,
      "ais": 5780,
      "Ġlocations": 5781,
      "estern": 5782,
      "Ġdied": 5783,
      "sode": 5784,
      "Ġbedroom": 5785,
      "Ġsuitable": 5786,
      "ĠArch": 5787,
      "Ġhospital": 5788,
      "ligi": 5789,
      "Ġallowi": 5790,
      "Ġallowing": 5791,
      "ĠMount": 5792,
      "rban": 5793,
      "Ġwouldn": 5794,
      "Ġwalking": 5795,
      "ĠBeac": 5796,
      "eme": 5797,
      "Ġovers": 5798,
      "nio": 5799,
      "deed": 5800,
      "esto": 5801,
      "Ġstarts": 5802,
      "Ġleaves": 5803,
      "Ġupdated": 5804,
      "Ġtele": 5805,
      "Ġcomponents": 5806,
      "odi": 5807,
      "Ġprem": 5808,
      "Ġinfr": 5809,
      "Ġcollabo": 5810,
      "Ġraise": 5811,
      "Ġtrees": 5812,
      "department": 5813,
      "ardi": 5814,
      "iration": 5815,
      "Ġtopic": 5816,
      "orc": 5817,
      "ompo": 5818,
      "ides": 5819,
      "Ġerro": 5820,
      "Ġclearly": 5821,
      "Ġporti": 5822,
      "danger": 5823,
      "Ġclosed": 5824,
      "Ġthoughts": 5825,
      "Ġautomatically": 5826,
      "Ġstrategies": 5827,
      "labor": 5828,
      "Ġ35": 5829,
      "Ġwilli": 5830,
      "ÑĤ": 5831,
      "Ġillustr": 5832,
      "ÑĢ": 5833,
      "Ġflat": 5834,
      "Ġhonest": 5835,
      "Ġenvironmental": 5836,
      "Ġrise": 5837,
      "Ġfesti": 5838,
      "ĠID": 5839,
      "Ġleaving": 5840,
      "Ñģ": 5841,
      "ollow": 5842,
      "Ġperspect": 5843,
      "ĠCusto": 5844,
      "Ġtypically": 5845,
      "Ġspon": 5846,
      "ĠMag": 5847,
      "essor": 5848,
      "Ġlovely": 5849,
      "atin": 5850,
      "cking": 5851,
      "ĠSub": 5852,
      "umn": 5853,
      "PA": 5854,
      "ĠJames": 5855,
      "bour": 5856,
      "Ġ2007": 5857,
      "ÂŃ": 5858,
      "Us": 5859,
      "Ġstores": 5860,
      "ĠOnline": 5861,
      "ala": 5862,
      "ĠReal": 5863,
      "unning": 5864,
      "Ġpreviously": 5865,
      "Ġfilled": 5866,
      "Ġincorpo": 5867,
      "Ġdomain": 5868,
      "rot": 5869,
      "44": 5870,
      "ĠOpen": 5871,
      "ĠProject": 5872,
      "Ġpin": 5873,
      "Ġcorner": 5874,
      "uct": 5875,
      "Ġprovider": 5876,
      "Ġwww": 5877,
      "Ġimm": 5878,
      "Ġrent": 5879,
      "Ġdepartment": 5880,
      "Ġhab": 5881,
      "Ġeating": 5882,
      "Ġexpertise": 5883,
      "yr": 5884,
      "ĠIsland": 5885,
      "ewe": 5886,
      "ĠLear": 5887,
      "oh": 5888,
      "Ġthre": 5889,
      "ĠChild": 5890,
      "Ġapart": 5891,
      "element": 5892,
      "Ġdanger": 5893,
      "ĠRepublic": 5894,
      "Ġagency": 5895,
      "ĠEngland": 5896,
      "fing": 5897,
      "Ġvehicles": 5898,
      "onds": 5899,
      "ĠIndian": 5900,
      "lers": 5901,
      "Ġfunding": 5902,
      "ĠYear": 5903,
      "ype": 5904,
      "Ġedge": 5905,
      "Ġwilling": 5906,
      "CH": 5907,
      "Ġciti": 5908,
      "ona": 5909,
      "Ġapproximately": 5910,
      "elicious": 5911,
      "Ġportio": 5912,
      "Ġlabor": 5913,
      "cts": 5914,
      "Ġsenio": 5915,
      "posit": 5916,
      "dance": 5917,
      "Ġpeace": 5918,
      "Ġcities": 5919,
      "Ġfear": 5920,
      "ĠCall": 5921,
      "Ġactions": 5922,
      "book": 5923,
      "ĠCor": 5924,
      "Ġdoub": 5925,
      "Ġentertain": 5926,
      "atisti": 5927,
      "Le": 5928,
      "Ġshowed": 5929,
      "Ġportion": 5930,
      "Ġtrouble": 5931,
      "ooking": 5932,
      "Ġmanner": 5933,
      "conds": 5934,
      "nge": 5935,
      "arma": 5936,
      "mile": 5937,
      "rking": 5938,
      "Ġinternal": 5939,
      "Ġstream": 5940,
      "Ġcast": 5941,
      "elimi": 5942,
      "gage": 5943,
      "iqu": 5944,
      "ligence": 5945,
      "ĠWork": 5946,
      "Ġbusy": 5947,
      "Ġslightly": 5948,
      "tan": 5949,
      "Ġforeign": 5950,
      "meal": 5951,
      "ocolate": 5952,
      "Ġgeneration": 5953,
      "Ġelement": 5954,
      "Ġvote": 5955,
      "Ġsport": 5956,
      "Wi": 5957,
      "Ġsenior": 5958,
      "uc": 5959,
      "horse": 5960,
      "rations": 5961,
      "Ġresponsibility": 5962,
      "eated": 5963,
      "Ġkid": 5964,
      "Ġkil": 5965,
      "dor": 5966,
      "Ġpractical": 5967,
      "Ġmuscl": 5968,
      "ĠDevelopment": 5969,
      "Ġcompo": 5970,
      "Ġwarr": 5971,
      "Ġaspects": 5972,
      "Ġmuscle": 5973,
      "Ġspecies": 5974,
      "mor": 5975,
      "delicious": 5976,
      "ĠMont": 5977,
      "Ġcombined": 5978,
      "Ġcrow": 5979,
      "ĠJour": 5980,
      "LC": 5981,
      "ĠStud": 5982,
      "ĠRead": 5983,
      "Ġinvolve": 5984,
      "ĠTO": 5985,
      "Ġexchange": 5986,
      "Ġimportance": 5987,
      "taining": 5988,
      "ĠShow": 5989,
      "Ġappears": 5990,
      "vin": 5991,
      "Ġerror": 5992,
      "Ġadvi": 5993,
      "onvi": 5994,
      "Ġraised": 5995,
      "SS": 5996,
      "apped": 5997,
      "Ġtechnologies": 5998,
      "Ġchem": 5999,
      "Ġig": 6000,
      "Ġputting": 6001,
      "Ġshipping": 6002,
      "Ġdescribe": 6003,
      "Ġdelicious": 6004,
      "ĠBig": 6005,
      "forming": 6006,
      "Ġdepending": 6007,
      "Ġfailu": 6008,
      "ĠFoundation": 6009,
      "ĠAM": 6010,
      "Ġbattery": 6011,
      "Ġcivil": 6012,
      "Ġoptimi": 6013,
      "ĠVol": 6014,
      "ĠHave": 6015,
      "Ġrid": 6016,
      "ady": 6017,
      "rear": 6018,
      "Fro": 6019,
      "Ġdyn": 6020,
      "ĠEr": 6021,
      "Ġproud": 6022,
      "ĠAC": 6023,
      "ĠStar": 6024,
      "Ġcircum": 6025,
      "Ġcategory": 6026,
      "ĠAuto": 6027,
      "Ġtrading": 6028,
      "ĠAND": 6029,
      "izes": 6030,
      "Ġsymp": 6031,
      "Why": 6032,
      "ffe": 6033,
      "Ġunless": 6034,
      "ĠBeach": 6035,
      "Ġcris": 6036,
      "ĠInv": 6037,
      "ĠMusi": 6038,
      "Ġadvance": 6039,
      "ĠAna": 6040,
      "Ġmal": 6041,
      "RA": 6042,
      "Ġreliable": 6043,
      "efe": 6044,
      "Ġleads": 6045,
      "Ġelimi": 6046,
      "Ġspecifically": 6047,
      "Ġmental": 6048,
      "ĠScr": 6049,
      "Ġradio": 6050,
      "ĠCe": 6051,
      "cense": 6052,
      "ĠIts": 6053,
      "motion": 6054,
      "Ġinterio": 6055,
      "ĠBil": 6056,
      "uries": 6057,
      "Ġguys": 6058,
      "Ġlaws": 6059,
      "Ġcloud": 6060,
      "opy": 6061,
      "Ġaid": 6062,
      "Ġinterior": 6063,
      "Ġpump": 6064,
      "infe": 6065,
      "Ġhydr": 6066,
      "hers": 6067,
      "lict": 6068,
      "tough": 6069,
      "Ġhole": 6070,
      "Ġmostly": 6071,
      "rete": 6072,
      "Ġinnovative": 6073,
      "Ġvalid": 6074,
      "Ġjournal": 6075,
      "Ġindustrial": 6076,
      "ĠCD": 6077,
      "Ġjoined": 6078,
      "iber": 6079,
      "Ġfuel": 6080,
      "Ġdistin": 6081,
      "iff": 6082,
      "ĠWall": 6083,
      "Ġprov": 6084,
      "Ġconvi": 6085,
      "stan": 6086,
      "ĠWord": 6087,
      "Ġprepare": 6088,
      "From": 6089,
      "Ġdebt": 6090,
      "deals": 6091,
      "housing": 6092,
      "Ġpal": 6093,
      "odel": 6094,
      "ourselves": 6095,
      "Ð½": 6096,
      "Ġlayer": 6097,
      "ï¼": 6098,
      "Ġaccompl": 6099,
      "Ġfootball": 6100,
      "astructure": 6101,
      "Ġprogramme": 6102,
      "Ġcustomi": 6103,
      "Ġourselves": 6104,
      "you": 6105,
      "ĠCare": 6106,
      "ĠMexi": 6107,
      "Ġwatchi": 6108,
      "Ġparking": 6109,
      "Ġwatching": 6110,
      "Ġchoices": 6111,
      "unched": 6112,
      "Ġarticles": 6113,
      "econds": 6114,
      "ĠCentral": 6115,
      "Ġdoctor": 6116,
      "ĠOh": 6117,
      "ĠData": 6118,
      "Ġacademic": 6119,
      "Ġwinning": 6120,
      "Ġdoors": 6121,
      "aurants": 6122,
      "Ġencourage": 6123,
      "Ġswim": 6124,
      "pu": 6125,
      "Ġfeedback": 6126,
      "arian": 6127,
      "ĠKe": 6128,
      "ĠRock": 6129,
      "ĠHist": 6130,
      "Ġcomprehensive": 6131,
      "Ġattempt": 6132,
      "seconds": 6133,
      "ĠPublic": 6134,
      "Ġfunctions": 6135,
      "ĠAmazon": 6136,
      "asks": 6137,
      "ĠHall": 6138,
      "Ġfruit": 6139,
      "Ġannounc": 6140,
      "Ġtough": 6141,
      "Ġended": 6142,
      "ĠSum": 6143,
      "Ġrespond": 6144,
      "Ġfacto": 6145,
      "Ġdiagnos": 6146,
      "Ġdeals": 6147,
      "lev": 6148,
      "Ġdiet": 6149,
      "Ġpurposes": 6150,
      "rig": 6151,
      "ĠMichael": 6152,
      "IA": 6153,
      "Ġsubmit": 6154,
      "Ġ196": 6155,
      "Sp": 6156,
      "liqu": 6157,
      "ĠWa": 6158,
      "nne": 6159,
      "iage": 6160,
      "Ġpromote": 6161,
      "alk": 6162,
      "ĠTheir": 6163,
      "Ġseconds": 6164,
      "Ġnotes": 6165,
      "amm": 6166,
      "Ġcart": 6167,
      "Ġschem": 6168,
      "32": 6169,
      "Ġclimate": 6170,
      "lud": 6171,
      "Ġfort": 6172,
      "Thank": 6173,
      "sem": 6174,
      "Ġinstance": 6175,
      "Ġbrands": 6176,
      "ngi": 6177,
      "Ġaudio": 6178,
      "Ġmotiv": 6179,
      "ĠFranc": 6180,
      "Ġcommitted": 6181,
      "Ġhorse": 6182,
      "eant": 6183,
      "ria": 6184,
      "nda": 6185,
      "ĠCommittee": 6186,
      "ena": 6187,
      "eech": 6188,
      "exp": 6189,
      "ĠCommunity": 6190,
      "produ": 6191,
      "Ġgoods": 6192,
      "ohol": 6193,
      "ĠTeam": 6194,
      "Ġanywhere": 6195,
      "Ġdance": 6196,
      "eil": 6197,
      "Ġ500": 6198,
      "ĠGovernment": 6199,
      "ĠPM": 6200,
      "ises": 6201,
      "Ġbutter": 6202,
      "ĠCru": 6203,
      "ĠGrand": 6204,
      "Ġattorney": 6205,
      "55": 6206,
      "ĠTho": 6207,
      "ĠIP": 6208,
      "Acc": 6209,
      "Ġguarantee": 6210,
      "Ġcultural": 6211,
      "BA": 6212,
      "ĠPay": 6213,
      "Ġmeasures": 6214,
      "Ġbottle": 6215,
      "noon": 6216,
      "ĠChristian": 6217,
      "yer": 6218,
      "Ġì": 6219,
      "ario": 6220,
      "ĠValley": 6221,
      "ĠAngel": 6222,
      "Ġ=": 6223,
      "ĠVal": 6224,
      "ĠLou": 6225,
      "Ġarch": 6226,
      "cohol": 6227,
      "Ġparticipants": 6228,
      "By": 6229,
      "Ġproviders": 6230,
      "despite": 6231,
      "She": 6232,
      "pin": 6233,
      "nput": 6234,
      "ĠHa": 6235,
      "ĠHy": 6236,
      "Ġsupported": 6237,
      "Ġtickets": 6238,
      "input": 6239,
      "Ġmon": 6240,
      "rule": 6241,
      "36": 6242,
      "Ġvisiting": 6243,
      "fili": 6244,
      "estic": 6245,
      "Ġaccounts": 6246,
      "Ġcheese": 6247,
      "Ġgirls": 6248,
      "CA": 6249,
      "ctors": 6250,
      "akers": 6251,
      "ortunately": 6252,
      "Ġposs": 6253,
      "Ġfamiliar": 6254,
      "ĠChic": 6255,
      "Ġrouti": 6256,
      "Ġpartnership": 6257,
      "meant": 6258,
      "Ġsongs": 6259,
      "Ġconfidence": 6260,
      "Ġexplor": 6261,
      "ĠExp": 6262,
      "ĠPol": 6263,
      "ĠToday": 6264,
      "Ġmine": 6265,
      "atters": 6266,
      "Ġpoly": 6267,
      "Ġisland": 6268,
      "Ġdelivered": 6269,
      "Ġfaster": 6270,
      "toms": 6271,
      "BS": 6272,
      "Ġmeant": 6273,
      "ĠChan": 6274,
      "TH": 6275,
      "Ġbound": 6276,
      "ĠVir": 6277,
      "Ev": 6278,
      "Ġcompe": 6279,
      "nity": 6280,
      "IR": 6281,
      "avig": 6282,
      "ĠMusic": 6283,
      "Ġreached": 6284,
      "nis": 6285,
      "nments": 6286,
      "eing": 6287,
      "ĠDemo": 6288,
      "uments": 6289,
      "Ġadults": 6290,
      "Ġdrink": 6291,
      "Ġlibrary": 6292,
      "DF": 6293,
      "ita": 6294,
      "Ġrating": 6295,
      "Ġtotally": 6296,
      "ht": 6297,
      "ĠChar": 6298,
      "Ġsusp": 6299,
      "PR": 6300,
      "ĠAgr": 6301,
      "apo": 6302,
      "Ġassem": 6303,
      "ĠNews": 6304,
      "ĠLike": 6305,
      "Ġattemp": 6306,
      "Ġlandscape": 6307,
      "hys": 6308,
      "Ġdiv": 6309,
      "pons": 6310,
      "ops": 6311,
      "Ġtransform": 6312,
      "ĠMicrosoft": 6313,
      "ĠHum": 6314,
      "Ġfactor": 6315,
      "inger": 6316,
      "Ġpremium": 6317,
      "Ġthrow": 6318,
      "ĠÃ": 6319,
      "Ġlegis": 6320,
      "Ġboy": 6321,
      "Ġlights": 6322,
      "ĠAL": 6323,
      "Ġemergency": 6324,
      "with": 6325,
      "rable": 6326,
      "ĠRobert": 6327,
      "ĠElectr": 6328,
      "Ġyouth": 6329,
      "Ġconfigu": 6330,
      "Ġinput": 6331,
      "amon": 6332,
      "ĠFrance": 6333,
      "tall": 6334,
      "Ġfabric": 6335,
      "pp": 6336,
      "Ġdespite": 6337,
      "Ġhousing": 6338,
      "Ġmeal": 6339,
      "Ġsequ": 6340,
      "Bu": 6341,
      "Ġpha": 6342,
      "Ġfat": 6343,
      "Ġcable": 6344,
      "Ġinfe": 6345,
      "ĠSocial": 6346,
      "ĠSociety": 6347,
      "Ġflight": 6348,
      "Ġholding": 6349,
      "dary": 6350,
      "harm": 6351,
      "Ġemployee": 6352,
      "ĠTake": 6353,
      "Ġaccessi": 6354,
      "cli": 6355,
      "Ġinspired": 6356,
      "ĠCentre": 6357,
      "Ġkill": 6358,
      "azy": 6359,
      "ĠMod": 6360,
      "defe": 6361,
      "ndary": 6362,
      "erv": 6363,
      "ersey": 6364,
      "Ġimpress": 6365,
      "ulations": 6366,
      "Ġshower": 6367,
      "lecti": 6368,
      "decre": 6369,
      "tooth": 6370,
      "Ġdisp": 6371,
      "ĠHill": 6372,
      "Ġvaluable": 6373,
      "cen": 6374,
      "Ġeventually": 6375,
      "eak": 6376,
      "hall": 6377,
      "Ġeducational": 6378,
      "Ġremoved": 6379,
      "Ġsignal": 6380,
      "Ġreplace": 6381,
      "Ġasking": 6382,
      "Ġpassion": 6383,
      "sta": 6384,
      "Ġconsumers": 6385,
      "ĠTwitter": 6386,
      "ĠCamp": 6387,
      "ĠInformation": 6388,
      "Ġphysi": 6389,
      "Ġflowers": 6390,
      "Ġmissing": 6391,
      "fying": 6392,
      "ĠForm": 6393,
      "Ġrule": 6394,
      "Ġtrial": 6395,
      "ito": 6396,
      "Ġesc": 6397,
      "ums": 6398,
      "ĠDistrict": 6399,
      "Ġphas": 6400,
      "ĠReso": 6401,
      "ĠMaster": 6402,
      "Ġapproved": 6403,
      "Ġreturned": 6404,
      "Ġsurprise": 6405,
      "tled": 6406,
      "lom": 6407,
      "Ġpossibly": 6408,
      "Ġ45": 6409,
      "Ġadvertising": 6410,
      "Ġliqu": 6411,
      "Ġseek": 6412,
      "Ġord": 6413,
      "Ġdecre": 6414,
      "row": 6415,
      "Ġtub": 6416,
      "prene": 6417,
      "td": 6418,
      "Ġchicken": 6419,
      "ĠDuri": 6420,
      "Ġcolle": 6421,
      "ups": 6422,
      "95": 6423,
      "ĠSch": 6424,
      "bled": 6425,
      "OD": 6426,
      "ims": 6427,
      "sad": 6428,
      "apos": 6429,
      "Ġoutput": 6430,
      "Ġgun": 6431,
      "ĠDuring": 6432,
      "Ġfixed": 6433,
      "listing": 6434,
      "ĠPers": 6435,
      "ola": 6436,
      "Ġenable": 6437,
      "Ġbuildings": 6438,
      "Ġcovers": 6439,
      "reek": 6440,
      "Ġsettings": 6441,
      "lude": 6442,
      "ilt": 6443,
      "ourth": 6444,
      "rooms": 6445,
      "fl": 6446,
      "known": 6447,
      "Ġrepla": 6448,
      "Ġcoast": 6449,
      "Ġintroduced": 6450,
      "Ġer": 6451,
      "Ġinterface": 6452,
      "34": 6453,
      "Ġemotional": 6454,
      "ewel": 6455,
      "Ġcoordi": 6456,
      "Ġstick": 6457,
      "eba": 6458,
      "hun": 6459,
      "Ġrestaurants": 6460,
      "fully": 6461,
      "scious": 6462,
      "New": 6463,
      "Ġcompetitive": 6464,
      "whic": 6465,
      "rental": 6466,
      "ĠMer": 6467,
      "which": 6468,
      "ĠPhoto": 6469,
      "ĠTer": 6470,
      "Ġperc": 6471,
      "Ġbath": 6472,
      "sse": 6473,
      "Ġmedicine": 6474,
      "eeper": 6475,
      "ĠNetwo": 6476,
      "Ġphase": 6477,
      "Ġskil": 6478,
      "Ġconsumer": 6479,
      "Ġnet": 6480,
      "Ġheari": 6481,
      "Ġinterests": 6482,
      "Ġupdates": 6483,
      "Ġhearing": 6484,
      "Ġreaders": 6485,
      "slo": 6486,
      "Ġmonthly": 6487,
      "Ġsigned": 6488,
      "ĠWhether": 6489,
      "ĠSpecial": 6490,
      "nsol": 6491,
      "Ġtherapy": 6492,
      "SA": 6493,
      "ĠSecurity": 6494,
      "Ġimproved": 6495,
      "Ġdish": 6496,
      "sna": 6497,
      "Ġexplain": 6498,
      "ĠAndroid": 6499,
      "istics": 6500,
      "Ġeffectively": 6501,
      "Ġrental": 6502,
      "Ġshut": 6503,
      "ENT": 6504,
      "Ġvary": 6505,
      "Pre": 6506,
      "aunched": 6507,
      "actic": 6508,
      "Ġpropos": 6509,
      "Ġrapid": 6510,
      "Ġpad": 6511,
      "bre": 6512,
      "Ġresolution": 6513,
      "ĠIndu": 6514,
      "Ġâ": 6515,
      "Ġ2000": 6516,
      "ĠMain": 6517,
      "Ġoutl": 6518,
      "Ġapplic": 6519,
      "Ġguess": 6520,
      "Ġdefe": 6521,
      "Ġfeels": 6522,
      "ĠMark": 6523,
      "aves": 6524,
      "Ġdiss": 6525,
      "Ġafternoon": 6526,
      "ju": 6527,
      "Are": 6528,
      "OP": 6529,
      "aped": 6530,
      "Ġnin": 6531,
      "Ġremote": 6532,
      "Ġoccasio": 6533,
      "Ġexamples": 6534,
      "mosp": 6535,
      "holars": 6536,
      "Ġbattle": 6537,
      "Ġcutting": 6538,
      "Ġlabe": 6539,
      "chan": 6540,
      "Ġelectronic": 6541,
      "Ġjump": 6542,
      "Ġcredi": 6543,
      "ota": 6544,
      "engi": 6545,
      "38": 6546,
      "ckers": 6547,
      "Ġ2006": 6548,
      "Ġapps": 6549,
      "Ġthrea": 6550,
      "Ġstri": 6551,
      "Ġnine": 6552,
      "Ġanimal": 6553,
      "epart": 6554,
      "Ġnovel": 6555,
      "Ġquanti": 6556,
      "Ġaccident": 6557,
      "anted": 6558,
      "Ġpayi": 6559,
      "Ġpaying": 6560,
      "aded": 6561,
      "Sc": 6562,
      "ĠHD": 6563,
      "clear": 6564,
      "ĠUN": 6565,
      "ĠSl": 6566,
      "Ġpet": 6567,
      "Ġfields": 6568,
      "deck": 6569,
      "Ġlighting": 6570,
      "Ġoccasion": 6571,
      "Ġpromise": 6572,
      "Ġappreciate": 6573,
      "ĠPhil": 6574,
      "Ġpush": 6575,
      "Ġintended": 6576,
      "Ġelectric": 6577,
      "Ġphi": 6578,
      "dia": 6579,
      "burg": 6580,
      "Ġtermi": 6581,
      "Ġresource": 6582,
      "ĠiPh": 6583,
      "bra": 6584,
      "Ġhire": 6585,
      "thes": 6586,
      "Ġskill": 6587,
      "Ġfoods": 6588,
      "Ġpipe": 6589,
      "Ġmani": 6590,
      "Ġflex": 6591,
      "oz": 6592,
      "Ġtests": 6593,
      "ĠBill": 6594,
      "berg": 6595,
      "ĠPress": 6596,
      "Ġepisode": 6597,
      "astern": 6598,
      "seg": 6599,
      "Ġsitting": 6600,
      "Ġcalli": 6601,
      "anity": 6602,
      "ĠMass": 6603,
      "Ġbrown": 6604,
      "Ġkinds": 6605,
      "Ġpros": 6606,
      "Ġcircumst": 6607,
      "Ġseemed": 6608,
      "Ġlap": 6609,
      "ĠScot": 6610,
      "Ġfinance": 6611,
      "Ġentr": 6612,
      "Ġreduced": 6613,
      "ĠiPho": 6614,
      "Ġstretch": 6615,
      "ĠiPhon": 6616,
      "Ġappar": 6617,
      "ĠFil": 6618,
      "mination": 6619,
      "Ġbirthday": 6620,
      "ĠiPhone": 6621,
      "Ġdivid": 6622,
      "Ġcalling": 6623,
      "plic": 6624,
      "Ġcommitment": 6625,
      "Ġpurchased": 6626,
      "Ġagent": 6627,
      "Ġmanufacturi": 6628,
      "Ġmanufacturing": 6629,
      "Ġdogs": 6630,
      "nsequ": 6631,
      "37": 6632,
      "Ġinfrastructure": 6633,
      "ĠCommission": 6634,
      "Ġlisting": 6635,
      "However": 6636,
      "ecu": 6637,
      "Ġtho": 6638,
      "Ġrealize": 6639,
      "acting": 6640,
      "Ġconvenient": 6641,
      "launched": 6642,
      "Ġbringi": 6643,
      "Ġsigns": 6644,
      "Ġbringing": 6645,
      "Ġregularly": 6646,
      "Ġgrade": 6647,
      "39": 6648,
      "Ġdoubt": 6649,
      "ilding": 6650,
      "ĠGermany": 6651,
      "Ġclinical": 6652,
      "Ġefficiency": 6653,
      "sauce": 6654,
      "ĠKen": 6655,
      "Ġbowl": 6656,
      "yn": 6657,
      "Ġzon": 6658,
      "Ġbreakfast": 6659,
      "Ġcooking": 6660,
      "Ġharm": 6661,
      "Ġoccurr": 6662,
      "Ġsides": 6663,
      "lated": 6664,
      "Ġsurgery": 6665,
      "Ġbru": 6666,
      "ĠMuseum": 6667,
      "Ġsupplies": 6668,
      "amine": 6669,
      "Ġdiscovered": 6670,
      "ĠSur": 6671,
      "Ġassig": 6672,
      "ĠTem": 6673,
      "Ġdom": 6674,
      "Ġengineering": 6675,
      "utation": 6676,
      "Ġsymb": 6677,
      "Ġzone": 6678,
      "Ġadministration": 6679,
      "Ġinstructions": 6680,
      "Ġsauce": 6681,
      "depart": 6682,
      "48": 6683,
      "Ġsou": 6684,
      "Ġchart": 6685,
      "ĠUnio": 6686,
      "Ġseeking": 6687,
      "Ġboat": 6688,
      "OC": 6689,
      "fficient": 6690,
      "ĠUnion": 6691,
      "ĠTechnology": 6692,
      "esse": 6693,
      "Ġexpression": 6694,
      "IF": 6695,
      "Ġuniversity": 6696,
      "Ġbonus": 6697,
      "Ġwarrant": 6698,
      "Ġprocedure": 6699,
      "irds": 6700,
      "Ġgent": 6701,
      "but": 6702,
      "ĠVer": 6703,
      "Ġappearance": 6704,
      "Ġrot": 6705,
      "Ġwhom": 6706,
      "Ġsizes": 6707,
      "ilver": 6708,
      "Mo": 6709,
      "sch": 6710,
      "Ġexam": 6711,
      "ĠJournal": 6712,
      "foli": 6713,
      "Ġkit": 6714,
      "aks": 6715,
      "Ġdrivers": 6716,
      "Ġglad": 6717,
      "ĠDownload": 6718,
      "Ġsignificantly": 6719,
      "Ġgreatest": 6720,
      "Ġcraf": 6721,
      "Ġperfectly": 6722,
      "Ġmark": 6723,
      "Ġlaunched": 6724,
      "ĠAS": 6725,
      "luding": 6726,
      "Ġowned": 6727,
      "bert": 6728,
      "ji": 6729,
      "Ġsupporti": 6730,
      "Ġsupporting": 6731,
      "Ġhundreds": 6732,
      "Ġappointment": 6733,
      "Ġwalls": 6734,
      "ĠAdd": 6735,
      "eries": 6736,
      "Ġmotor": 6737,
      "porti": 6738,
      "ĠTown": 6739,
      "ĠDel": 6740,
      "arp": 6741,
      "Ġvillage": 6742,
      "titude": 6743,
      "Ġdepart": 6744,
      "Ġchosen": 6745,
      "ĠWood": 6746,
      "Ġvs": 6747,
      "Ġdeck": 6748,
      "ĠNor": 6749,
      "loso": 6750,
      "Ġdistribution": 6751,
      "Ġassets": 6752,
      "Ġdetermined": 6753,
      "ĠBoth": 6754,
      "ĠGi": 6755,
      "Ġrecovery": 6756,
      "Ġtopics": 6757,
      "Ġexcept": 6758,
      "Ġwis": 6759,
      "Ġstanding": 6760,
      "Ġcreation": 6761,
      "Ġjoint": 6762,
      "Ġrevenue": 6763,
      "Se": 6764,
      "Ġroutin": 6765,
      "ĠOR": 6766,
      "comm": 6767,
      "Ġknowi": 6768,
      "Ġknowing": 6769,
      "Ġcauses": 6770,
      "Ġpresentation": 6771,
      "Ġbehavio": 6772,
      "Ġfilter": 6773,
      "Ġextens": 6774,
      "Ġbrow": 6775,
      "Ġreplacement": 6776,
      "Ġsna": 6777,
      "obl": 6778,
      "allow": 6779,
      "eather": 6780,
      "Ġincredible": 6781,
      "Ġcharges": 6782,
      "âĦ": 6783,
      "Ġrub": 6784,
      "Ġbehavior": 6785,
      "Ġsucc": 6786,
      "rail": 6787,
      "erce": 6788,
      "tasks": 6789,
      "ania": 6790,
      "Ġdim": 6791,
      "nqu": 6792,
      "Ġperspective": 6793,
      "ssible": 6794,
      "Ġrear": 6795,
      "fill": 6796,
      "onsequ": 6797,
      "Ġimpro": 6798,
      "icense": 6799,
      "Te": 6800,
      "Once": 6801,
      "Ġcommo": 6802,
      "cades": 6803,
      "Ġfellow": 6804,
      "Ġhouses": 6805,
      "ĠNY": 6806,
      "Ġreside": 6807,
      "ĠTwo": 6808,
      "Ġmagazine": 6809,
      "Ġcarried": 6810,
      "Ġparticipate": 6811,
      "Ġfailure": 6812,
      "ĠYOU": 6813,
      "Ġmilk": 6814,
      "ĠChicago": 6815,
      "Ġcontext": 6816,
      "Ġquiet": 6817,
      "Ġemph": 6818,
      "Ġlived": 6819,
      "Ġtrick": 6820,
      "Ġatmosp": 6821,
      "Ġnor": 6822,
      "ĠEarth": 6823,
      "Ġimagin": 6824,
      "âĢĻ.": 6825,
      "Ġaim": 6826,
      "Ġconsequ": 6827,
      "Ġcombine": 6828,
      "Ġconcep": 6829,
      "Ġneck": 6830,
      "abled": 6831,
      "Ġtasks": 6832,
      "ĠConv": 6833,
      "rum": 6834,
      "Ġscen": 6835,
      "Ġpublish": 6836,
      "ĠNOT": 6837,
      "ĠStep": 6838,
      "Ġexami": 6839,
      "idden": 6840,
      "Ġking": 6841,
      "Ġconsideri": 6842,
      "Ġconsidering": 6843,
      "ĠParty": 6844,
      "migr": 6845,
      "Ġregistration": 6846,
      "Ġ>": 6847,
      "eels": 6848,
      "sized": 6849,
      "Ġjoy": 6850,
      "Ġsad": 6851,
      "ĠVis": 6852,
      "Ġsho": 6853,
      "Ġchain": 6854,
      "Ġguest": 6855,
      "ĠProt": 6856,
      "Ġdating": 6857,
      "Ĥ¬": 6858,
      "ecades": 6859,
      "Ġchocolate": 6860,
      "Ġchanne": 6861,
      "ĠTom": 6862,
      "Ġenterprise": 6863,
      "Ġgene": 6864,
      "license": 6865,
      "Ġmemo": 6866,
      "umb": 6867,
      "Ġsymptoms": 6868,
      "Ġteeth": 6869,
      "Ġfly": 6870,
      "Ġsalt": 6871,
      "esterday": 6872,
      "Ġinterpre": 6873,
      "Ġplate": 6874,
      "Ġgeo": 6875,
      "Ġextensi": 6876,
      "Just": 6877,
      "Ġdisci": 6878,
      "timately": 6879,
      "Ġseg": 6880,
      "nscious": 6881,
      "Ġextensio": 6882,
      "Ġextension": 6883,
      "decades": 6884,
      "Ġenhance": 6885,
      "atre": 6886,
      "ectors": 6887,
      "Ġconversation": 6888,
      "anci": 6889,
      "Ġsoul": 6890,
      "ademy": 6891,
      "api": 6892,
      "Ġguy": 6893,
      "Ġthick": 6894,
      "ĠReview": 6895,
      "Ġbone": 6896,
      "acter": 6897,
      "Ġdecades": 6898,
      "Ġremaining": 6899,
      "Yes": 6900,
      "secu": 6901,
      "Ġcarr": 6902,
      "ĠBack": 6903,
      "edia": 6904,
      "leather": 6905,
      "ĠTur": 6906,
      "Ġbrief": 6907,
      "Ġprospect": 6908,
      "nging": 6909,
      "Ġtrained": 6910,
      "Ġvital": 6911,
      "onscious": 6912,
      "ĠVil": 6913,
      "inch": 6914,
      "ibition": 6915,
      "Ġcarp": 6916,
      "Ġsessions": 6917,
      "ĠAT": 6918,
      "ĠLtd": 6919,
      "Ġorganic": 6920,
      "Ġorders": 6921,
      "ĠEst": 6922,
      "Ġscheme": 6923,
      "Ġlicense": 6924,
      "Ġsolv": 6925,
      "Ġ2005": 6926,
      "Ġanswers": 6927,
      "eligi": 6928,
      "47": 6929,
      "ĠCanadi": 6930,
      "âĦ¢": 6931,
      "umber": 6932,
      "OV": 6933,
      "Ġperman": 6934,
      "Ġsolar": 6935,
      "attl": 6936,
      "logical": 6937,
      "ĠLight": 6938,
      "ivate": 6939,
      "otels": 6940,
      "mics": 6941,
      "Not": 6942,
      "nergy": 6943,
      "Ġvegetable": 6944,
      "Ð¾Ð": 6945,
      "Ġ*": 6946,
      "Ġath": 6947,
      "Ġrecr": 6948,
      "ĠYes": 6949,
      "Ġlifestyle": 6950,
      "Ġproposed": 6951,
      "Ġbigger": 6952,
      "Ġshares": 6953,
      "Ġcertific": 6954,
      "ĠWestern": 6955,
      "ĠTour": 6956,
      "Ġprocedures": 6957,
      "alle": 6958,
      "Ġempha": 6959,
      "Ġod": 6960,
      "flow": 6961,
      "Ġslo": 6962,
      "Ġtreated": 6963,
      "Ġtrend": 6964,
      "ĠNic": 6965,
      "ĠKa": 6966,
      "Ġrecording": 6967,
      "bia": 6968,
      "Ġbio": 6969,
      "Ġcontemporary": 6970,
      "Ġbroken": 6971,
      ");": 6972,
      "ĠGar": 6973,
      "ĠHotel": 6974,
      "Ġsoi": 6975,
      "LA": 6976,
      "Ġidentified": 6977,
      "ĠMin": 6978,
      "Ġexcess": 6979,
      "ĠGeorge": 6980,
      "49": 6981,
      "Ø§": 6982,
      "Ġpatterns": 6983,
      "matters": 6984,
      "Ġunf": 6985,
      "ĠAfrican": 6986,
      "Ġmouth": 6987,
      "Ġissued": 6988,
      "Ġchannel": 6989,
      "Ġarm": 6990,
      "ĠOld": 6991,
      "Ġsuccessfully": 6992,
      "ĠCert": 6993,
      "Ġsugge": 6994,
      "ĠHead": 6995,
      "Ġexternal": 6996,
      "lite": 6997,
      "ĠKore": 6998,
      "Ġplays": 6999,
      "enci": 7000,
      "Ġdollars": 7001,
      "lence": 7002,
      "Ġmari": 7003,
      "Ġarrived": 7004,
      "Ġbread": 7005,
      "Ġsugges": 7006,
      "Ġaffected": 7007,
      "riz": 7008,
      "Ġcrime": 7009,
      "Ġcarefully": 7010,
      "height": 7011,
      "Ġwheel": 7012,
      "artin": 7013,
      "Ġpayments": 7014,
      "nings": 7015,
      "ĠFamily": 7016,
      "Ġmatters": 7017,
      "Ġreasonable": 7018,
      "Ġleather": 7019,
      "ĠCy": 7020,
      "ĠSmith": 7021,
      "tar": 7022,
      "odo": 7023,
      "UT": 7024,
      "Ġreceiving": 7025,
      "ĠApp": 7026,
      "lting": 7027,
      "Ġtruck": 7028,
      "ĠMedical": 7029,
      "gli": 7030,
      "etters": 7031,
      "ĠCA": 7032,
      "ffen": 7033,
      "Ġprovision": 7034,
      "Ġoccur": 7035,
      "ĠEmp": 7036,
      "mg": 7037,
      "ĠPlus": 7038,
      "ĠTel": 7039,
      "onsol": 7040,
      "ĠFind": 7041,
      "Ġofficials": 7042,
      "gain": 7043,
      "Ġforg": 7044,
      "ĠBan": 7045,
      "Ġaccepted": 7046,
      "silver": 7047,
      "ĠLeg": 7048,
      "acks": 7049,
      "etu": 7050,
      "semi": 7051,
      "Ġbegins": 7052,
      "unio": 7053,
      "Ġrail": 7054,
      "Ġwriter": 7055,
      "Ġalcohol": 7056,
      "Ġassessment": 7057,
      "Ġyes": 7058,
      "ulated": 7059,
      "Ġshoes": 7060,
      "Ġconflict": 7061,
      "Ġholds": 7062,
      "Ġluxury": 7063,
      "Ġimp": 7064,
      "ĠAward": 7065,
      "Ġupper": 7066,
      "utho": 7067,
      "Ġnavig": 7068,
      "Ġrenew": 7069,
      "Ġfigh": 7070,
      "Ġhardware": 7071,
      "Ġrecognize": 7072,
      "Ġhun": 7073,
      "uk": 7074,
      "Ġ@": 7075,
      "trie": 7076,
      "Ġworldwide": 7077,
      "Ġearn": 7078,
      "Ġshel": 7079,
      "Wo": 7080,
      "aud": 7081,
      "sights": 7082,
      "Ġinvestors": 7083,
      "ĠConn": 7084,
      "De": 7085,
      "river": 7086,
      "ordinary": 7087,
      "Ġsheet": 7088,
      "Ġhistorical": 7089,
      "tin": 7090,
      "rders": 7091,
      "water": 7092,
      "Ġpep": 7093,
      "ske": 7094,
      "Ġimprovement": 7095,
      "ava": 7096,
      "Ġmotion": 7097,
      "Ġconstantly": 7098,
      "Ġnone": 7099,
      "Ġsupports": 7100,
      "Du": 7101,
      "ĠAlex": 7102,
      "Ġiro": 7103,
      "Ġrelatively": 7104,
      "taught": 7105,
      "Ġsituations": 7106,
      "MA": 7107,
      "Ġbranch": 7108,
      "Ġ300": 7109,
      "ĠIsl": 7110,
      "Ġcandidates": 7111,
      "Ġmicr": 7112,
      "ĠWho": 7113,
      "Ġmessages": 7114,
      "posure": 7115,
      "Ġpoll": 7116,
      "Ġforces": 7117,
      "ĠSea": 7118,
      "Ġscientific": 7119,
      "Ġparent": 7120,
      "Ġ32": 7121,
      "ĠTea": 7122,
      "Since": 7123,
      "Ġbet": 7124,
      "ĠClo": 7125,
      "Ġagencies": 7126,
      "Ġscan": 7127,
      "TA": 7128,
      "root": 7129,
      "Ġexe": 7130,
      "ĠDemocr": 7131,
      "Ġton": 7132,
      "Ġcorn": 7133,
      "ĠHosp": 7134,
      "ĠJapane": 7135,
      "ĠJapanes": 7136,
      "Ġfacilit": 7137,
      "ĠRE": 7138,
      "Ġvo": 7139,
      "ĠJapanese": 7140,
      "Ġstatisti": 7141,
      "Ġprove": 7142,
      "ĠOnly": 7143,
      "Ġattract": 7144,
      "ĠConference": 7145,
      "Ġtheory": 7146,
      "Ã¡": 7147,
      "Ġmarried": 7148,
      "Ġrefr": 7149,
      "66": 7150,
      "ĠOrgani": 7151,
      "Ġconsol": 7152,
      "Ġends": 7153,
      "Ġinspiration": 7154,
      "Ġdiscount": 7155,
      "Ġtile": 7156,
      "Ġresidential": 7157,
      "31": 7158,
      "Ġconcerned": 7159,
      "ĠArts": 7160,
      "eaf": 7161,
      "Ġstudio": 7162,
      "Ġdefined": 7163,
      "Ġregional": 7164,
      "Ġcake": 7165,
      "Ġstruggle": 7166,
      "ĠAsia": 7167,
      "ĠON": 7168,
      "Ġheight": 7169,
      "nked": 7170,
      "amb": 7171,
      "Ġawareness": 7172,
      "Ġauthen": 7173,
      "Many": 7174,
      "Ġgrown": 7175,
      "ĠMel": 7176,
      "enging": 7177,
      "Ġbreath": 7178,
      "ĠCode": 7179,
      "Ġstated": 7180,
      "onne": 7181,
      "Ġeligi": 7182,
      "Ġbrother": 7183,
      "Ġbli": 7184,
      "Ġplanned": 7185,
      "agon": 7186,
      "ĠMarket": 7187,
      "eless": 7188,
      "iminal": 7189,
      "deba": 7190,
      "force": 7191,
      "Ġfel": 7192,
      "Ġkeeps": 7193,
      "Ġpromp": 7194,
      "Ġdiso": 7195,
      "ĠVict": 7196,
      "Ġtwic": 7197,
      "ĠBrown": 7198,
      "ik": 7199,
      "Ġtwice": 7200,
      "Ġemployment": 7201,
      "Ġdegrees": 7202,
      "Ġexpectations": 7203,
      "abe": 7204,
      "Ġloves": 7205,
      "iven": 7206,
      "Ġrecorded": 7207,
      "oration": 7208,
      "Don": 7209,
      "Ġprivacy": 7210,
      "Ġspaces": 7211,
      "alian": 7212,
      "offen": 7213,
      "Ġcorrespon": 7214,
      "ĠEU": 7215,
      "Ġengage": 7216,
      "Ġkni": 7217,
      "ĠCel": 7218,
      "Ġfailed": 7219,
      "allenging": 7220,
      "Ġfrequently": 7221,
      "ĠAccording": 7222,
      "phy": 7223,
      "roughly": 7224,
      "ĠDen": 7225,
      "Ġsemi": 7226,
      "Ġriver": 7227,
      "ĠLeague": 7228,
      "SE": 7229,
      "Ġappeared": 7230,
      "Ġcampu": 7231,
      "gor": 7232,
      "Ġnoted": 7233,
      "Ġdos": 7234,
      "Ġcircumstances": 7235,
      "utter": 7236,
      "Ġdeba": 7237,
      "Ġsilver": 7238,
      "etr": 7239,
      "Ġloans": 7240,
      "Ġcampus": 7241,
      "ĠMach": 7242,
      "ĠGlobal": 7243,
      "Ġimagine": 7244,
      "idance": 7245,
      "Ge": 7246,
      "ittle": 7247,
      "Ġinstitutions": 7248,
      "ĠCath": 7249,
      "ĠDisc": 7250,
      "Ġcycle": 7251,
      "alth": 7252,
      "ĠAustralian": 7253,
      "ĠMedia": 7254,
      "Ġconducted": 7255,
      "Ġspin": 7256,
      "ĠLong": 7257,
      "ĠThom": 7258,
      "ounter": 7259,
      "inner": 7260,
      "Ġaccessible": 7261,
      "ĠCarol": 7262,
      "Ġimpo": 7263,
      "Ġthread": 7264,
      "ĠAnt": 7265,
      "ĠAddition": 7266,
      "Ġtaught": 7267,
      "uters": 7268,
      "Ġintegrated": 7269,
      "culty": 7270,
      "Ġstyles": 7271,
      "UN": 7272,
      "unction": 7273,
      "mere": 7274,
      "inked": 7275,
      "Ġprofit": 7276,
      "aints": 7277,
      "owned": 7278,
      "Ġimpressive": 7279,
      "ĠStand": 7280,
      "ĠIde": 7281,
      "Ġadult": 7282,
      "Ġmeetings": 7283,
      "Ġdiverse": 7284,
      "ĠOper": 7285,
      "Ġhosting": 7286,
      "Ġsymbol": 7287,
      "Ho": 7288,
      "ĠCEO": 7289,
      "ĠConsu": 7290,
      "Ġfourth": 7291,
      "Ġcouns": 7292,
      "emon": 7293,
      "pac": 7294,
      "ĠShop": 7295,
      "igan": 7296,
      "Ġeleg": 7297,
      "inning": 7298,
      "Ġinnovation": 7299,
      "ĠLos": 7300,
      "ez": 7301,
      "Ġsearchi": 7302,
      "Ġentre": 7303,
      "Ġsearching": 7304,
      "Ġyellow": 7305,
      "Ġtypical": 7306,
      "Ġdestroy": 7307,
      "aze": 7308,
      "ĠFesti": 7309,
      "Ġchallenging": 7310,
      "Ġdefens": 7311,
      "ĠContact": 7312,
      "ampionship": 7313,
      "Ġcompens": 7314,
      "Hi": 7315,
      "etry": 7316,
      "rti": 7317,
      "SP": 7318,
      "ĠBed": 7319,
      "Ġoffen": 7320,
      "Ġanx": 7321,
      "ĠManager": 7322,
      "77": 7323,
      "ĠPeter": 7324,
      "Ġbrowser": 7325,
      "Ġpil": 7326,
      "Ġsecret": 7327,
      "Ġobl": 7328,
      "oof": 7329,
      "Ġspeech": 7330,
      "Ġjui": 7331,
      "Ġeveryday": 7332,
      "Ġqualified": 7333,
      "Ġspeaking": 7334,
      "Ġpositions": 7335,
      "ĠBal": 7336,
      "onio": 7337,
      "Ġoutstanding": 7338,
      "Ġmassive": 7339,
      "Ġexecutive": 7340,
      "Ġnegoti": 7341,
      "Ġgarage": 7342,
      "whil": 7343,
      "46": 7344,
      "tible": 7345,
      "ĠLead": 7346,
      "Ġbra": 7347,
      "Ġserves": 7348,
      "non": 7349,
      "onstit": 7350,
      "Ġstyl": 7351,
      "Ġentertainment": 7352,
      "Ġfeatured": 7353,
      "ait": 7354,
      "sters": 7355,
      "ĠFort": 7356,
      "itar": 7357,
      "ĠFood": 7358,
      "nh": 7359,
      "Ġtransition": 7360,
      "Ġflexible": 7361,
      "Ġfoundation": 7362,
      "erse": 7363,
      "nald": 7364,
      "Ġobjects": 7365,
      "Ġdestination": 7366,
      "while": 7367,
      "ĠBud": 7368,
      "ndex": 7369,
      "ĠMinister": 7370,
      "rty": 7371,
      "west": 7372,
      "othi": 7373,
      "Ġstunning": 7374,
      "ipping": 7375,
      "Ġextended": 7376,
      "Ġpreg": 7377,
      "ĠPass": 7378,
      "ĠLand": 7379,
      "Ġmanual": 7380,
      "ĠCongress": 7381,
      "ĠDig": 7382,
      "Ġexec": 7383,
      "born": 7384,
      "Ġaddi": 7385,
      "cher": 7386,
      "Ġhappening": 7387,
      "Ġformed": 7388,
      "Ġequal": 7389,
      "ider": 7390,
      "Ġdifficul": 7391,
      "Ġturns": 7392,
      "Ġbeat": 7393,
      "Ġcloser": 7394,
      "Ġagents": 7395,
      "cling": 7396,
      "tun": 7397,
      "Ġdepth": 7398,
      "ĠPal": 7399,
      "ĠThrough": 7400,
      "ĠTherefore": 7401,
      "Most": 7402,
      "irl": 7403,
      "ĠKey": 7404,
      "Ġwealth": 7405,
      "smile": 7406,
      "related": 7407,
      "aso": 7408,
      "ĠBre": 7409,
      "Ġreserve": 7410,
      "First": 7411,
      "ĠAnn": 7412,
      "rect": 7413,
      "Ġox": 7414,
      "Ġbelief": 7415,
      "Another": 7416,
      "ĠSec": 7417,
      "Ġoperate": 7418,
      "rose": 7419,
      "CT": 7420,
      "ĠQueen": 7421,
      "Ġroutine": 7422,
      "Ġagreed": 7423,
      "Ġtelevision": 7424,
      "ĠMP": 7425,
      "ĠCorpo": 7426,
      "shire": 7427,
      "appy": 7428,
      "rient": 7429,
      "Ġdescription": 7430,
      "Ġdefense": 7431,
      "oose": 7432,
      "Ġsecu": 7433,
      "keting": 7434,
      "Ġscheduled": 7435,
      "Ġcaught": 7436,
      "Ġrecognized": 7437,
      "anda": 7438,
      "tical": 7439,
      "sides": 7440,
      "ancing": 7441,
      "ensity": 7442,
      "outs": 7443,
      "According": 7444,
      "rgeous": 7445,
      "amework": 7446,
      "attle": 7447,
      "ĠTen": 7448,
      "nut": 7449,
      "Ġtiss": 7450,
      "Ġbrows": 7451,
      "Ġwea": 7452,
      "Ġchoosi": 7453,
      "Ġchoosing": 7454,
      "ĠPlac": 7455,
      "Ġfemale": 7456,
      "icen": 7457,
      "%.": 7458,
      "Ġdrugs": 7459,
      "Ġiron": 7460,
      "Ġclosely": 7461,
      "ĠTable": 7462,
      "Ġimplementation": 7463,
      "Ġfreedom": 7464,
      "tyl": 7465,
      "bar": 7466,
      "Ġatmosphere": 7467,
      "rug": 7468,
      "Ġprotected": 7469,
      "aper": 7470,
      "Ġrisks": 7471,
      "Ġmirr": 7472,
      "Ġentirely": 7473,
      "stal": 7474,
      "eston": 7475,
      "ĠControl": 7476,
      "Ġtran": 7477,
      "Ġhealthcare": 7478,
      "dors": 7479,
      "Ġabu": 7480,
      "ĠSeries": 7481,
      "lectio": 7482,
      "ude": 7483,
      "Ġsmile": 7484,
      "Ġconcrete": 7485,
      "Ġrefu": 7486,
      "Ġeditor": 7487,
      "ĠUnder": 7488,
      "Ġnative": 7489,
      "Ġtemplate": 7490,
      "ĠJon": 7491,
      "owe": 7492,
      "Ġfavourite": 7493,
      "Ġblow": 7494,
      "Ġstands": 7495,
      "Ġupcoming": 7496,
      "Ġmoist": 7497,
      "ĠPric": 7498,
      "Ġinformed": 7499,
      "Ġregulations": 7500,
      "ĠSqu": 7501,
      "nui": 7502,
      "lection": 7503,
      "Ġvirtual": 7504,
      "Ġpure": 7505,
      "Ġmovies": 7506,
      "EE": 7507,
      "Ġupload": 7508,
      "Ġnearby": 7509,
      "II": 7510,
      "ened": 7511,
      "Ġsavings": 7512,
      "ĠEdi": 7513,
      "idays": 7514,
      "Ġentreprene": 7515,
      "Ġcooper": 7516,
      "Ġidentity": 7517,
      "Ġgrab": 7518,
      "Ġhistori": 7519,
      "Ġusual": 7520,
      "nners": 7521,
      "].": 7522,
      "ĠEqu": 7523,
      "Ġtrig": 7524,
      "Ġroot": 7525,
      "df": 7526,
      "Ġstars": 7527,
      "sister": 7528,
      "Ġcapable": 7529,
      "Ġsimpl": 7530,
      "cuit": 7531,
      "hra": 7532,
      "Ġdomestic": 7533,
      "utc": 7534,
      "Ġremoval": 7535,
      "Su": 7536,
      "Ġ2004": 7537,
      "sents": 7538,
      "index": 7539,
      "dental": 7540,
      "mmittee": 7541,
      "entional": 7542,
      "Ġexposure": 7543,
      "ĠNort": 7544,
      "missions": 7545,
      "ĠLouis": 7546,
      "ĠInstead": 7547,
      "ĠMexic": 7548,
      "till": 7549,
      "Ġticket": 7550,
      "Ġairport": 7551,
      "Â°": 7552,
      "Ġapartment": 7553,
      "eposit": 7554,
      "senting": 7555,
      "Ġdeploy": 7556,
      "ĠWomen": 7557,
      "utor": 7558,
      "ĠSpring": 7559,
      "Well": 7560,
      "ĠWhere": 7561,
      "oal": 7562,
      "morrow": 7563,
      "Ġadvoc": 7564,
      "ĠIl": 7565,
      "Ġnerv": 7566,
      "Ġcreates": 7567,
      "deposit": 7568,
      "Ġ36": 7569,
      "Ġpm": 7570,
      "Ġcollected": 7571,
      "nfortunately": 7572,
      "Ġmoments": 7573,
      "Ġoblig": 7574,
      "ĠItalian": 7575,
      "Ġfeaturi": 7576,
      "Ġpersonally": 7577,
      "Ġfeaturing": 7578,
      "ml": 7579,
      "Ġreturns": 7580,
      "Ġnetworks": 7581,
      "Ġfacing": 7582,
      "Ġworse": 7583,
      "Ġpun": 7584,
      "Ġwitness": 7585,
      "Ġtone": 7586,
      "kl": 7587,
      "Ġincreases": 7588,
      "Ġenthu": 7589,
      "tie": 7590,
      "licen": 7591,
      "linked": 7592,
      "Ġsupposed": 7593,
      "Ġflag": 7594,
      "Ġresearchers": 7595,
      "ounting": 7596,
      "Ġengagement": 7597,
      "PC": 7598,
      "Ġsubstanti": 7599,
      "Ġmissed": 7600,
      "Ġcertified": 7601,
      "Ġmembership": 7602,
      "Ġmixed": 7603,
      "Ġmanufacturer": 7604,
      "otions": 7605,
      "ãĢ": 7606,
      "endar": 7607,
      "elev": 7608,
      "ĠAcademy": 7609,
      "gling": 7610,
      "Ġstrike": 7611,
      "Ġgifts": 7612,
      "acknow": 7613,
      "ĠCanadian": 7614,
      "ĠFestival": 7615,
      "Ġaccompa": 7616,
      "SC": 7617,
      "graphi": 7618,
      "Ġdental": 7619,
      "ĠNetwork": 7620,
      "duty": 7621,
      "inging": 7622,
      "ĠMiddle": 7623,
      "ĠEcono": 7624,
      "ĠSafe": 7625,
      "Let": 7626,
      "Ġtrends": 7627,
      "Ġmigr": 7628,
      "Ġmonitori": 7629,
      "Ġaffili": 7630,
      "Ġmonitoring": 7631,
      "ifying": 7632,
      "weight": 7633,
      "ĠPrice": 7634,
      "Ġvac": 7635,
      "elay": 7636,
      "Ġcontroll": 7637,
      "Ġmuseum": 7638,
      "Ġfell": 7639,
      "fits": 7640,
      "Ġbanks": 7641,
      "Ġedition": 7642,
      "Ġkilled": 7643,
      "Ġguidance": 7644,
      "Ġauthority": 7645,
      "Ġdeposit": 7646,
      "Ġcrusher": 7647,
      "Get": 7648,
      "Last": 7649,
      "Ġvast": 7650,
      "aci": 7651,
      "Ġstopped": 7652,
      "Ġsister": 7653,
      "Ġweak": 7654,
      "Ġcompete": 7655,
      "Ġdumpster": 7656,
      "ĠRussian": 7657,
      "ads": 7658,
      "Ġcollaboration": 7659,
      "ĠMayb": 7660,
      "ĠInsu": 7661,
      "âĢ¦.": 7662,
      "Ġcomponent": 7663,
      "Ġske": 7664,
      "Ġtip": 7665,
      "eap": 7666,
      "away": 7667,
      "ĠParis": 7668,
      "ĠMachi": 7669,
      "Ġtab": 7670,
      "Ġattrib": 7671,
      "hap": 7672,
      "lose": 7673,
      "orient": 7674,
      "Inter": 7675,
      "liber": 7676,
      "Over": 7677,
      "Ġacknow": 7678,
      "Ġinche": 7679,
      "Ġcommand": 7680,
      "Ġera": 7681,
      "Ġinches": 7682,
      "ommittee": 7683,
      "ML": 7684,
      "plin": 7685,
      "ĠFire": 7686,
      "clo": 7687,
      "utch": 7688,
      "Ġconsistent": 7689,
      "Ġnormally": 7690,
      "Ġdisap": 7691,
      "Ġobtained": 7692,
      "Ġcomparison": 7693,
      "Ġelectrical": 7694,
      "Ġcharged": 7695,
      "Ġmom": 7696,
      "ĠMexico": 7697,
      "ĠMartin": 7698,
      "Ġgenerate": 7699,
      "Ġvacation": 7700,
      "itage": 7701,
      "Ġsolve": 7702,
      "lph": 7703,
      "ĠTor": 7704,
      "Every": 7705,
      "Ġneu": 7706,
      "ĠMaybe": 7707,
      "Ġbooking": 7708,
      "Ġcei": 7709,
      "ĠThose": 7710,
      "ĠAdministr": 7711,
      "delay": 7712,
      "Ġveter": 7713,
      "esth": 7714,
      "sired": 7715,
      "Ġpicked": 7716,
      "Ġceil": 7717,
      "gic": 7718,
      "Ġmainly": 7719,
      "ĠAppli": 7720,
      "Ġnoticed": 7721,
      "Ġvot": 7722,
      "Ġdesigner": 7723,
      "Ġgolf": 7724,
      "Ġspoke": 7725,
      "Ġanc": 7726,
      "Ġexpenses": 7727,
      "Ġlessons": 7728,
      "layo": 7729,
      "Ġsoil": 7730,
      "ĠAD": 7731,
      "ĠRussia": 7732,
      "Ġphiloso": 7733,
      "asts": 7734,
      "Ġimproving": 7735,
      "Ġtens": 7736,
      "Ġorganized": 7737,
      "graphic": 7738,
      "Ġelev": 7739,
      "tai": 7740,
      "Ġmis": 7741,
      "Ġdates": 7742,
      "ongoing": 7743,
      "ĠRoyal": 7744,
      "Ġcelebrate": 7745,
      "dden": 7746,
      "Ġequipped": 7747,
      "Ġgam": 7748,
      "ĠEnergy": 7749,
      "ĠCO": 7750,
      "Ġages": 7751,
      "ĠNE": 7752,
      "Ġtight": 7753,
      "ĠHen": 7754,
      "ĠAmericans": 7755,
      "Ġ48": 7756,
      "Ġexhib": 7757,
      "Ġoc": 7758,
      "ĠMA": 7759,
      "Ġattached": 7760,
      "Ġsigna": 7761,
      "Ġexpand": 7762,
      "Ġtested": 7763,
      "Ġunlike": 7764,
      "ĠMen": 7765,
      "Ġwinner": 7766,
      "Ġongoing": 7767,
      "ĠCup": 7768,
      "oper": 7769,
      "alled": 7770,
      "Ġarts": 7771,
      "Ġboost": 7772,
      "opi": 7773,
      "Jo": 7774,
      "Ġcrucial": 7775,
      "dro": 7776,
      "aro": 7777,
      "lists": 7778,
      "Ġdefault": 7779,
      "folio": 7780,
      "ĠAnaly": 7781,
      "sually": 7782,
      "Ġwearing": 7783,
      "Ġundert": 7784,
      "Ġreligious": 7785,
      "ĠEver": 7786,
      "ĠRoom": 7787,
      "esired": 7788,
      "riage": 7789,
      "Ġstrategi": 7790,
      "REE": 7791,
      "Ġpleased": 7792,
      "Ġaccommod": 7793,
      "Ġadventure": 7794,
      "Ġlayo": 7795,
      "slot": 7796,
      "Ġlabel": 7797,
      "Ġfishing": 7798,
      "ctivity": 7799,
      "Ġstrategic": 7800,
      "Ġmagn": 7801,
      "Ġdiscussed": 7802,
      "ounded": 7803,
      "mond": 7804,
      "ĠRel": 7805,
      "faction": 7806,
      "Ġtells": 7807,
      "Ġdelay": 7808,
      "Ġearned": 7809,
      "ntown": 7810,
      "Today": 7811,
      "Ġsudden": 7812,
      "Ġquote": 7813,
      "xe": 7814,
      "ĠFurther": 7815,
      "Ġconstit": 7816,
      "Ġcounse": 7817,
      "ĠThoma": 7818,
      "Ġgrew": 7819,
      "mut": 7820,
      "ining": 7821,
      "ĠFull": 7822,
      "Ġentered": 7823,
      "CE": 7824,
      "ifting": 7825,
      "Ġturning": 7826,
      "Ġparame": 7827,
      "ĠMachin": 7828,
      "vise": 7829,
      "sists": 7830,
      "front": 7831,
      "Ġtalent": 7832,
      "Ġancient": 7833,
      "draw": 7834,
      "Ġdip": 7835,
      "ĠGa": 7836,
      "ulate": 7837,
      "Ġ195": 7838,
      "ĠIdea": 7839,
      "Ġminor": 7840,
      "ĠFrank": 7841,
      "Ġstain": 7842,
      "ĠThomas": 7843,
      "Ġscholars": 7844,
      "Ġtransportation": 7845,
      "raft": 7846,
      "nator": 7847,
      "Ġunable": 7848,
      "Ġbeer": 7849,
      "ĠHaw": 7850,
      "Ġcute": 7851,
      "ares": 7852,
      "Ġborder": 7853,
      "ndeed": 7854,
      "Have": 7855,
      "mph": 7856,
      "Ġur": 7857,
      "indeed": 7858,
      "Ġarchitecture": 7859,
      "Ġmere": 7860,
      "Ġresulting": 7861,
      "yesterday": 7862,
      "Ġchat": 7863,
      "ĠDep": 7864,
      "Ġmanaging": 7865,
      "ĠHim": 7866,
      "Ġ2003": 7867,
      "ĠMill": 7868,
      "Ġguidel": 7869,
      "ĠUl": 7870,
      "Ġguideli": 7871,
      "Ġguidelin": 7872,
      "Ġguideline": 7873,
      "ĠSecre": 7874,
      "osto": 7875,
      "Ġclothes": 7876,
      "ĠWay": 7877,
      "Ġpowder": 7878,
      "Ġfitness": 7879,
      "Ġproo": 7880,
      "desired": 7881,
      "Ab": 7882,
      "aping": 7883,
      "stery": 7884,
      "Ġlicen": 7885,
      "Ap": 7886,
      "raw": 7887,
      "ĠVicto": 7888,
      "rities": 7889,
      "Ġstruct": 7890,
      "Ġslot": 7891,
      "Ġthin": 7892,
      "Ġshops": 7893,
      "Ġachieved": 7894,
      "Ġjewel": 7895,
      "ĠTrust": 7896,
      "ĠRadi": 7897,
      "atio": 7898,
      "GB": 7899,
      "Ġyesterday": 7900,
      "Ġfiled": 7901,
      "Ġcitizens": 7902,
      "Ġpapers": 7903,
      "nsists": 7904,
      "ĠWilliam": 7905,
      "Ġspiritual": 7906,
      "Ġrecy": 7907,
      "laugh": 7908,
      "sory": 7909,
      "Ġdesired": 7910,
      "mba": 7911,
      "Ġgallery": 7912,
      "luded": 7913,
      "berry": 7914,
      "ĠWr": 7915,
      "azz": 7916,
      "Ġsustainable": 7917,
      "Ġdecrea": 7918,
      "Ġdecreas": 7919,
      "Ġfairly": 7920,
      "ĠThu": 7921,
      "Ġrose": 7922,
      "ĠAR": 7923,
      "Ġrevealed": 7924,
      "sum": 7925,
      "Ġreporti": 7926,
      "Ġ!": 7927,
      "Ġreporting": 7928,
      "Ġtiny": 7929,
      "Ġok": 7930,
      "Ġindeed": 7931,
      "Ġdangerous": 7932,
      "Ġmanufacturers": 7933,
      "Ġtables": 7934,
      "Ġboys": 7935,
      "Qu": 7936,
      "eler": 7937,
      "Ġbench": 7938,
      "ĠLast": 7939,
      "ĠMad": 7940,
      "Ġsubscr": 7941,
      "Ġprepar": 7942,
      "ĠCharl": 7943,
      "ĠView": 7944,
      "ĠPoli": 7945,
      "ĠCH": 7946,
      "ĠChair": 7947,
      "Ġconduct": 7948,
      "Ġtun": 7949,
      "Ġprinted": 7950,
      "Ġgear": 7951,
      "05": 7952,
      "Ġversions": 7953,
      "ĠSP": 7954,
      "ondary": 7955,
      "Ġoven": 7956,
      "Ġshoot": 7957,
      "Ġpossibility": 7958,
      "Ġcandidate": 7959,
      "ĠGal": 7960,
      "Ġpoker": 7961,
      "arri": 7962,
      "Ġcrew": 7963,
      "aser": 7964,
      "otton": 7965,
      "ĠFun": 7966,
      "cals": 7967,
      "Ġperforming": 7968,
      "Ġdow": 7969,
      "Ġpassen": 7970,
      "ĠBei": 7971,
      "Ġflavor": 7972,
      "Ġfilms": 7973,
      "Ġreputation": 7974,
      "ĠHand": 7975,
      "Ġdynamic": 7976,
      "Ġdifferences": 7977,
      "VD": 7978,
      "Ġrefi": 7979,
      "Ġcontribute": 7980,
      "Ġplatforms": 7981,
      "Ġcapture": 7982,
      "Ġlogo": 7983,
      "ĠLibrary": 7984,
      "42": 7985,
      "Ġsufficient": 7986,
      "Ġinvestigation": 7987,
      "Ġtru": 7988,
      "ĠAnother": 7989,
      "Ġphotography": 7990,
      "Ġimpossible": 7991,
      "Ġwest": 7992,
      "heating": 7993,
      "onally": 7994,
      "Ġforced": 7995,
      "Ġdefin": 7996,
      "dic": 7997,
      "Ġdram": 7998,
      "sex": 7999,
      "seed": 8000,
      "Ġexplained": 8001,
      "Ġsuggested": 8002,
      "obe": 8003,
      "Ġwhenever": 8004,
      "Ġforth": 8005,
      "Ġarrive": 8006,
      "holders": 8007,
      "Ġfasci": 8008,
      "Ġwet": 8009,
      "ngest": 8010,
      "posite": 8011,
      "Ġcolumn": 8012,
      "Ġgraduate": 8013,
      "Ġcommunications": 8014,
      "ĠAngele": 8015,
      "letters": 8016,
      "Ã¼": 8017,
      "Ġlaptop": 8018,
      "died": 8019,
      "Ġattractive": 8020,
      "mption": 8021,
      "Ġlinked": 8022,
      "ĠAngeles": 8023,
      "TC": 8024,
      "Ġencounter": 8025,
      "stone": 8026,
      "erts": 8027,
      "Ġintroduc": 8028,
      "ĠObama": 8029,
      "Ġtall": 8030,
      "ĠGuide": 8031,
      "ĠSpanish": 8032,
      "Ġgrass": 8033,
      "ĠVirgi": 8034,
      "abu": 8035,
      "Ġauthors": 8036,
      "Ġmixture": 8037,
      "Ġjudge": 8038,
      "Ġsme": 8039,
      "Click": 8040,
      "erth": 8041,
      "meals": 8042,
      "Ġcompare": 8043,
      "Ġstim": 8044,
      "Ġrepresents": 8045,
      "ption": 8046,
      "Ġsurviv": 8047,
      "Ġaccessories": 8048,
      "Ġwash": 8049,
      "rious": 8050,
      "Ġsmartphone": 8051,
      "Ġcarbon": 8052,
      "Ġdeali": 8053,
      "ĠPlace": 8054,
      "Ġappeal": 8055,
      "profit": 8056,
      "Ġtaxe": 8057,
      "Ġimmigr": 8058,
      "Ġtelli": 8059,
      "ĠKu": 8060,
      "horr": 8061,
      "Ġresistance": 8062,
      "Ġdealing": 8063,
      "Ġtaxes": 8064,
      "Ġremin": 8065,
      "ĠJersey": 8066,
      "olice": 8067,
      "ĠCoast": 8068,
      "Ġretain": 8069,
      "ĠKeep": 8070,
      "Ġpreparation": 8071,
      "atoe": 8072,
      "Ġtelling": 8073,
      "Ġmusical": 8074,
      "Ġletters": 8075,
      "Ġcommittee": 8076,
      "Ġigno": 8077,
      "nivers": 8078,
      "print": 8079,
      "ĠChildren": 8080,
      "ĠWild": 8081,
      "Ġintroduce": 8082,
      "Ġadds": 8083,
      "Ġimmediate": 8084,
      "Also": 8085,
      "Ġmeals": 8086,
      "Ġhyp": 8087,
      "tect": 8088,
      "acto": 8089,
      "ttr": 8090,
      "Ġ75": 8091,
      "ativity": 8092,
      "Ġdefine": 8093,
      "Ġbags": 8094,
      "teen": 8095,
      "Ġchief": 8096,
      "ĠUsi": 8097,
      "hidden": 8098,
      "atoes": 8099,
      "Ġstored": 8100,
      "Ġconstant": 8101,
      "ĠMax": 8102,
      "reland": 8103,
      "ĠSite": 8104,
      "Ġbasket": 8105,
      "Ġvisited": 8106,
      "ĠUsing": 8107,
      "Ġvul": 8108,
      "tap": 8109,
      "Ġrelief": 8110,
      "Ġresum": 8111,
      "Ġevol": 8112,
      "Ġflash": 8113,
      "eur": 8114,
      "nsert": 8115,
      "Ġfolks": 8116,
      "eters": 8117,
      "Ġdivision": 8118,
      "Ġoriginally": 8119,
      "Ġacid": 8120,
      "Ġlaugh": 8121,
      "epho": 8122,
      "Ġpitch": 8123,
      "Ġofficer": 8124,
      "insert": 8125,
      "oston": 8126,
      "ĠSte": 8127,
      "Ġlistening": 8128,
      "embers": 8129,
      "Ġplain": 8130,
      "Ġneighborhood": 8131,
      "Ġinjuries": 8132,
      "lness": 8133,
      "arch": 8134,
      "cos": 8135,
      "85": 8136,
      "?\"": 8137,
      "ĠTim": 8138,
      "ĠBefore": 8139,
      "asc": 8140,
      "ĠInn": 8141,
      "cade": 8142,
      "Ġgorgeous": 8143,
      "ethi": 8144,
      "ĠGame": 8145,
      "onnel": 8146,
      "iment": 8147,
      "Ġcrisis": 8148,
      "Ġresume": 8149,
      "Ġmining": 8150,
      "Ġoffices": 8151,
      "zzl": 8152,
      "Ġsuperi": 8153,
      "ĠBrit": 8154,
      "ĠKr": 8155,
      "aven": 8156,
      "ĠCurr": 8157,
      "Ġindex": 8158,
      "Ġtreatments": 8159,
      "Ġjuic": 8160,
      "FL": 8161,
      "atel": 8162,
      "ĠBible": 8163,
      "Ġcong": 8164,
      "Ġneur": 8165,
      "pline": 8166,
      "ender": 8167,
      "ĠFederal": 8168,
      "Ġinvent": 8169,
      "evel": 8170,
      "Ġstreng": 8171,
      "Ġstorm": 8172,
      "MP": 8173,
      "????": 8174,
      "Dur": 8175,
      "ailable": 8176,
      "Ġmut": 8177,
      "ngh": 8178,
      "Ġenables": 8179,
      "Ġly": 8180,
      "Ġ..": 8181,
      "amps": 8182,
      "Any": 8183,
      "Ġja": 8184,
      "ĠHan": 8185,
      "lake": 8186,
      "mart": 8187,
      "ĠDoe": 8188,
      "ray": 8189,
      "dis": 8190,
      "Ġsubsequ": 8191,
      "class": 8192,
      "ems": 8193,
      "ander": 8194,
      "Ġsem": 8195,
      "acts": 8196,
      "Ġfirms": 8197,
      "More": 8198,
      "lts": 8199,
      "Ġreferred": 8200,
      "ifi": 8201,
      "Ġabus": 8202,
      "Ġavailability": 8203,
      "Ġhistoric": 8204,
      "Ġcounty": 8205,
      "ideo": 8206,
      "Ġanticipa": 8207,
      "Ġsuspect": 8208,
      "Ġprinting": 8209,
      "ĠFund": 8210,
      "Ġurban": 8211,
      "Ġrandom": 8212,
      "Ġspecialist": 8213,
      "Ġattended": 8214,
      "nam": 8215,
      "UL": 8216,
      "owi": 8217,
      "Ġprinciples": 8218,
      "Ġstructures": 8219,
      "bles": 8220,
      "ĠItaly": 8221,
      "whe": 8222,
      "Ġformal": 8223,
      "ratio": 8224,
      "Ġindustries": 8225,
      "ĠAutho": 8226,
      "Ġsplit": 8227,
      "Ġliquid": 8228,
      "Ġwidely": 8229,
      "Ġprimarily": 8230,
      "Ġclothing": 8231,
      "Ġinvited": 8232,
      "lessly": 8233,
      "ĠBuy": 8234,
      "ftware": 8235,
      "âĢĻ,": 8236,
      "ĠSystems": 8237,
      "Ġfigures": 8238,
      "Ġamounts": 8239,
      "tank": 8240,
      "ssionate": 8241,
      "Ġhers": 8242,
      "harge": 8243,
      "ĠAge": 8244,
      "Ġinner": 8245,
      "Ġreplaced": 8246,
      "ĠChief": 8247,
      "dad": 8248,
      "aul": 8249,
      "Ġproven": 8250,
      "Ġordered": 8251,
      "ians": 8252,
      "ipped": 8253,
      "Ġweekly": 8254,
      "Ġcriti": 8255,
      "easo": 8256,
      "amond": 8257,
      "Ġhorr": 8258,
      "ĠDie": 8259,
      "ĠFar": 8260,
      "asters": 8261,
      "rative": 8262,
      "healing": 8263,
      "Ġreduction": 8264,
      "lift": 8265,
      "ĠOw": 8266,
      "seaso": 8267,
      "lleg": 8268,
      "Ġhidden": 8269,
      "Ġsuperio": 8270,
      "ĠSout": 8271,
      "Ġdevelopers": 8272,
      "Although": 8273,
      "Ġlosi": 8274,
      "Ġshift": 8275,
      "nuin": 8276,
      "ĠNon": 8277,
      "Ġlosing": 8278,
      "Ġfrustr": 8279,
      "Ġattac": 8280,
      "atures": 8281,
      "aired": 8282,
      "ĠList": 8283,
      "ĠVirginia": 8284,
      "ĠMS": 8285,
      "Ġliked": 8286,
      "Ġaccomplish": 8287,
      "Ġrecipes": 8288,
      "Ġchemical": 8289,
      "ĠCarolina": 8290,
      "tack": 8291,
      "Ġham": 8292,
      "Ġpricing": 8293,
      "GE": 8294,
      "Ġgrant": 8295,
      "ardens": 8296,
      "cating": 8297,
      "agues": 8298,
      "Ġassume": 8299,
      "Ġfounded": 8300,
      "ĠArea": 8301,
      "hotels": 8302,
      "Ġattach": 8303,
      "quality": 8304,
      "ĠDC": 8305,
      "ewi": 8306,
      "Ġvit": 8307,
      "Ġauthentic": 8308,
      "uster": 8309,
      "omo": 8310,
      "Ġnutrition": 8311,
      "ĠJer": 8312,
      "Ġcriminal": 8313,
      "ĠFina": 8314,
      "Ġdrawi": 8315,
      "ĠIreland": 8316,
      "Ġdrawing": 8317,
      "llness": 8318,
      "car": 8319,
      "ema": 8320,
      "ecade": 8321,
      "Ġdepends": 8322,
      "rld": 8323,
      "decade": 8324,
      "ĠSet": 8325,
      "Ġcommunicate": 8326,
      "ĠAccess": 8327,
      "jecti": 8328,
      "Ġstrange": 8329,
      "Ġreducing": 8330,
      "Ġbril": 8331,
      "setu": 8332,
      "Ġvert": 8333,
      "ĠTimes": 8334,
      "Ġfacts": 8335,
      "ĠStart": 8336,
      "illness": 8337,
      "oung": 8338,
      "sick": 8339,
      "lined": 8340,
      "Ġultimately": 8341,
      "Ġgenuin": 8342,
      "Ġhonor": 8343,
      "Ġminer": 8344,
      "Ġmortgage": 8345,
      "ĠGeorg": 8346,
      "Ġsurprised": 8347,
      "Ġinterv": 8348,
      "Ġrealized": 8349,
      "Ġhospit": 8350,
      "seats": 8351,
      "Ġrevi": 8352,
      "Ġbodies": 8353,
      "Ġcapabilities": 8354,
      "Ġpleasure": 8355,
      "Ġnoise": 8356,
      "ĠJoe": 8357,
      "suri": 8358,
      "Ġexpans": 8359,
      "yan": 8360,
      "Ġbrill": 8361,
      "Ġcri": 8362,
      "Ġterro": 8363,
      "amental": 8364,
      "friendly": 8365,
      "Ġprecis": 8366,
      "ĠLED": 8367,
      "ĠInstagram": 8368,
      "Ġapplicable": 8369,
      "Ġchapter": 8370,
      "ĠJim": 8371,
      "Ġduty": 8372,
      "Ġphen": 8373,
      "ĠTest": 8374,
      "Ġsubmitted": 8375,
      "Ġvill": 8376,
      "Ġseriously": 8377,
      "Ġratio": 8378,
      "Ġultimate": 8379,
      "ĠDigital": 8380,
      "ephon": 8381,
      "Ġyard": 8382,
      "ĠHospital": 8383,
      "âĢĺ": 8384,
      "Ġinsert": 8385,
      "Ġofficers": 8386,
      "Ġrecommendations": 8387,
      "Ġguitar": 8388,
      "Ġeligible": 8389,
      "Ġillness": 8390,
      "ĠSand": 8391,
      "Ġhap": 8392,
      "Ġcodes": 8393,
      "Ġsevere": 8394,
      "Ġrol": 8395,
      "?âĢĿ": 8396,
      "Ġpassing": 8397,
      "Ġhotels": 8398,
      "perience": 8399,
      "acki": 8400,
      "isol": 8401,
      "Ġpermanent": 8402,
      "Ea": 8403,
      "wa": 8404,
      "Ġestimated": 8405,
      "Ġhandli": 8406,
      "Ġcompliance": 8407,
      "ĠWatch": 8408,
      "ĠCR": 8409,
      "entures": 8410,
      "Ġseats": 8411,
      "kins": 8412,
      "Press": 8413,
      "Ġhandling": 8414,
      "Ġplug": 8415,
      "Duri": 8416,
      "Ġdimension": 8417,
      "ĠCir": 8418,
      "During": 8419,
      "suring": 8420,
      "Im": 8421,
      "ephone": 8422,
      "Ġjuice": 8423,
      "Ġsaved": 8424,
      "oman": 8425,
      "Ġattitude": 8426,
      "ssed": 8427,
      "Ġawarded": 8428,
      "Ġcontrast": 8429,
      "sending": 8430,
      "Ġheads": 8431,
      "Ġpercentage": 8432,
      "magic": 8433,
      "Ġdecade": 8434,
      "nsight": 8435,
      "ealand": 8436,
      "laid": 8437,
      "Ġtack": 8438,
      "denti": 8439,
      "Ġchose": 8440,
      "Ġenthusia": 8441,
      "onsists": 8442,
      "Ġarms": 8443,
      "Ġ150": 8444,
      "insight": 8445,
      "HS": 8446,
      "Ġfestival": 8447,
      "tured": 8448,
      "Ġraw": 8449,
      "level": 8450,
      "tape": 8451,
      "ĠFOR": 8452,
      "Ġguidelines": 8453,
      "LY": 8454,
      "Ġconsists": 8455,
      "ĠSometimes": 8456,
      "Ġseaso": 8457,
      "Ġmarriage": 8458,
      "ĠInte": 8459,
      "epar": 8460,
      "Ġattacks": 8461,
      "Lo": 8462,
      "ĠLive": 8463,
      "Ġportfolio": 8464,
      "Ġbridge": 8465,
      "Ġapproval": 8466,
      "Ġstake": 8467,
      "78": 8468,
      "ja": 8469,
      "ĠJew": 8470,
      "ĠSta": 8471,
      "istry": 8472,
      "hras": 8473,
      "43": 8474,
      "arli": 8475,
      "oler": 8476,
      "Ġsli": 8477,
      "ĠRegi": 8478,
      "Ġsetu": 8479,
      "Ġtooth": 8480,
      "Ġconsideration": 8481,
      "Ġinvolves": 8482,
      "Ġextent": 8483,
      "bit": 8484,
      "ÃŃ": 8485,
      "____": 8486,
      "Ġpac": 8487,
      "Ġsatisfaction": 8488,
      "Ġhealing": 8489,
      "Ġboxe": 8490,
      "stream": 8491,
      "Ġboxes": 8492,
      "Ġcoc": 8493,
      "Ġjustice": 8494,
      "Ġcategories": 8495,
      "iability": 8496,
      "41": 8497,
      "atr": 8498,
      "Ġnewspa": 8499,
      "Ġsending": 8500,
      "Ġgenerated": 8501,
      "Ġauthorities": 8502,
      "Ġrequests": 8503,
      "Ġbarr": 8504,
      "Ġmillions": 8505,
      "ĠLab": 8506,
      "orcement": 8507,
      "Ġensuring": 8508,
      "Ġproducing": 8509,
      "Ġbee": 8510,
      "alli": 8511,
      "Ġinsight": 8512,
      "ĠRichard": 8513,
      "Ġviolence": 8514,
      "olin": 8515,
      "Ġweigh": 8516,
      "ua": 8517,
      "Ġfif": 8518,
      "Ġswe": 8519,
      "hate": 8520,
      "Ġposting": 8521,
      "ĠBoston": 8522,
      "Ġenem": 8523,
      "nion": 8524,
      "Ġrug": 8525,
      "Ġtank": 8526,
      "Ġagricul": 8527,
      "Ġconfirmed": 8528,
      "Ġcrash": 8529,
      "paper": 8530,
      "ancy": 8531,
      "Ġslowly": 8532,
      "ĠSmall": 8533,
      "Ġconnections": 8534,
      "ĠSpirit": 8535,
      "tomorrow": 8536,
      "lighted": 8537,
      "Ġheating": 8538,
      "illeg": 8539,
      "Ġdisplayed": 8540,
      "Ġmanagers": 8541,
      "Ġeast": 8542,
      "Ġcontrols": 8543,
      "Ġregions": 8544,
      "Ġpurchasi": 8545,
      "Ġpurchasing": 8546,
      "aka": 8547,
      "eff": 8548,
      "uing": 8549,
      "ĠWebsite": 8550,
      "Ġframework": 8551,
      "ĠColum": 8552,
      "Ġmemories": 8553,
      "ĠInsurance": 8554,
      "Ġpriority": 8555,
      "Ġarrest": 8556,
      "eller": 8557,
      "Ġkm": 8558,
      "isio": 8559,
      "Ġconfident": 8560,
      "toil": 8561,
      "Ġincreasingly": 8562,
      "Ġchannels": 8563,
      "Ġroles": 8564,
      "Ġ2002": 8565,
      "Ġcarpe": 8566,
      "ĠPA": 8567,
      "Ġlock": 8568,
      "ĠNote": 8569,
      "CD": 8570,
      "Ġtom": 8571,
      "Ġrow": 8572,
      "Ġcrowd": 8573,
      "aire": 8574,
      "ann": 8575,
      "izza": 8576,
      "ĠZealand": 8577,
      "Ġcraft": 8578,
      "Ġflou": 8579,
      "gment": 8580,
      "ĠMiss": 8581,
      "ĠCross": 8582,
      "spe": 8583,
      "Ġaff": 8584,
      "Ġshowc": 8585,
      "ĠArm": 8586,
      "Ġangle": 8587,
      "cer": 8588,
      "Ġlucky": 8589,
      "Ġextreme": 8590,
      "acking": 8591,
      "ĠHistory": 8592,
      "Ġflour": 8593,
      "Ġtomorrow": 8594,
      "Ġpresents": 8595,
      "ĠMike": 8596,
      "Ġsomewhere": 8597,
      "cific": 8598,
      "Ġpubli": 8599,
      "ĠIntel": 8600,
      "Ġ2001": 8601,
      "Ġreader": 8602,
      "Per": 8603,
      "Ġarray": 8604,
      "Ġstatements": 8605,
      "actor": 8606,
      "othing": 8607,
      "Ġusage": 8608,
      "ĠEngineering": 8609,
      "EST": 8610,
      "gener": 8611,
      "separ": 8612,
      "imited": 8613,
      "ĠIc": 8614,
      "Ġdust": 8615,
      "ĠSanta": 8616,
      "mous": 8617,
      "enni": 8618,
      "fective": 8619,
      "Ġstreets": 8620,
      "Ġje": 8621,
      "Ġproof": 8622,
      "Ġyounger": 8623,
      "owing": 8624,
      "hand": 8625,
      "Ġwriters": 8626,
      "ĠPDF": 8627,
      "Oh": 8628,
      "osis": 8629,
      "Ġabuse": 8630,
      "Ph": 8631,
      "ĠExecutive": 8632,
      "Ġaside": 8633,
      "Ġsamples": 8634,
      "Ġsofa": 8635,
      "Ġviewed": 8636,
      "male": 8637,
      "Ġsharp": 8638,
      "nates": 8639,
      "Ġenf": 8640,
      "Ġbars": 8641,
      "Ġenjoyi": 8642,
      "Ġenjoying": 8643,
      "orange": 8644,
      "Ġbelieved": 8645,
      "arsh": 8646,
      "just": 8647,
      "ĠLan": 8648,
      "ĠThus": 8649,
      "Ñĥ": 8650,
      "Ġaccord": 8651,
      "nament": 8652,
      "fro": 8653,
      "Ġwors": 8654,
      "Ġsuperior": 8655,
      "iro": 8656,
      "AB": 8657,
      "Ġincredibly": 8658,
      "ĠSouthern": 8659,
      "ĠJos": 8660,
      "Ġ400": 8661,
      "Ġpatch": 8662,
      "Ġalongside": 8663,
      "Ġlikes": 8664,
      "ĠNext": 8665,
      "Ġhousehold": 8666,
      "yards": 8667,
      "ĠKitchen": 8668,
      "Ġengaged": 8669,
      "Ġpassword": 8670,
      "endi": 8671,
      "Ġwhilst": 8672,
      "ĠEss": 8673,
      "ering": 8674,
      "ĠStudents": 8675,
      "Ġminds": 8676,
      "ĠLee": 8677,
      "ested": 8678,
      "Ġhall": 8679,
      "04": 8680,
      "Ġhttps": 8681,
      "Ġ<": 8682,
      "Ġvulner": 8683,
      "Ġkno": 8684,
      "Ġshooting": 8685,
      "Ġconcerning": 8686,
      "ĠSU": 8687,
      "Ġilleg": 8688,
      "lim": 8689,
      "ii": 8690,
      "ĠSing": 8691,
      "ĠFair": 8692,
      "Ġbuyers": 8693,
      "Ġtrave": 8694,
      "Ġsky": 8695,
      "Ġsynth": 8696,
      "ĠIdeas": 8697,
      "Ġhopi": 8698,
      "Ġcommonly": 8699,
      "Ġawards": 8700,
      "Ġwooden": 8701,
      "Ġrig": 8702,
      "uling": 8703,
      "ĠReport": 8704,
      "Ġhoping": 8705,
      "Ġintroduction": 8706,
      "aver": 8707,
      "Ġegg": 8708,
      "Ġasp": 8709,
      "ooms": 8710,
      "ĠĠĠĠ": 8711,
      "ecific": 8712,
      "ĠNet": 8713,
      "Ġrequirement": 8714,
      "oven": 8715,
      "ligent": 8716,
      "inqu": 8717,
      "Ġpotentially": 8718,
      "ĠFollow": 8719,
      "Ġbehalf": 8720,
      "Ġmoves": 8721,
      "Ġexecut": 8722,
      "ĠAssist": 8723,
      "Ġcontrolled": 8724,
      "Ġblend": 8725,
      "Ġwireless": 8726,
      "Ġthri": 8727,
      "iance": 8728,
      "Ġince": 8729,
      "aduate": 8730,
      "ĠSEO": 8731,
      "Ġsick": 8732,
      "Ġpersons": 8733,
      "Ġfur": 8734,
      "Ġsufferi": 8735,
      "tts": 8736,
      "Ġsuffering": 8737,
      "etes": 8738,
      "Ġmagic": 8739,
      "ĠPan": 8740,
      "Ġtube": 8741,
      "Ġconcepts": 8742,
      "Ġblocks": 8743,
      "ĠEnter": 8744,
      "ĠTri": 8745,
      "Ġexpansi": 8746,
      "Tube": 8747,
      "Ġgal": 8748,
      "aise": 8749,
      "meter": 8750,
      "ATION": 8751,
      "ĠLittle": 8752,
      "Ġpreference": 8753,
      "Ġcausi": 8754,
      "Ġcausing": 8755,
      "Ġconsumption": 8756,
      "ĠTa": 8757,
      "Ġlegs": 8758,
      "Ġtai": 8759,
      "Ġtan": 8760,
      "Ġinspection": 8761,
      "DS": 8762,
      "ulp": 8763,
      "minated": 8764,
      "Ġexceptional": 8765,
      "Ġpreferred": 8766,
      "bur": 8767,
      "Ġswimming": 8768,
      "Ġeggs": 8769,
      "tyle": 8770,
      "Ġprogramming": 8771,
      "Ġminimal": 8772,
      "Ġconversi": 8773,
      "Ġtoil": 8774,
      "Ġexhibition": 8775,
      "Ġsuggestions": 8776,
      "ertaining": 8777,
      "Ġfeelings": 8778,
      "Ġhappi": 8779,
      "eserve": 8780,
      "unding": 8781,
      "Ġvisible": 8782,
      "bridge": 8783,
      "ĠMobile": 8784,
      "deserve": 8785,
      "thy": 8786,
      "Da": 8787,
      "Ġexpansio": 8788,
      "Ġfulfill": 8789,
      "MC": 8790,
      "ĠLine": 8791,
      "words": 8792,
      "ĠMachine": 8793,
      "Ġmaintaining": 8794,
      "Ġbasically": 8795,
      "AA": 8796,
      "Then": 8797,
      "condary": 8798,
      "Ġtransaction": 8799,
      "lywood": 8800,
      "agl": 8801,
      "Ġconclusion": 8802,
      "Ġceremo": 8803,
      "Ġconsultation": 8804,
      "toxi": 8805,
      "Ġdeserve": 8806,
      "mul": 8807,
      "Ġpackages": 8808,
      "ĠBuilding": 8809,
      "eari": 8810,
      "Ġcookies": 8811,
      "ires": 8812,
      "ĠCP": 8813,
      "ision": 8814,
      "bus": 8815,
      "ĠForce": 8816,
      "azil": 8817,
      "Ġexpansion": 8818,
      "Ġpenal": 8819,
      "oly": 8820,
      "Ġfer": 8821,
      "Ġfaculty": 8822,
      "abilities": 8823,
      "Ġnewly": 8824,
      "Ġ800": 8825,
      "Ġdefinition": 8826,
      "Ġreform": 8827,
      "Ġflexi": 8828,
      "Ġregardless": 8829,
      "ĠOS": 8830,
      "yers": 8831,
      "Ġplanet": 8832,
      "Ġsuggests": 8833,
      "unior": 8834,
      "Ġworst": 8835,
      "dra": 8836,
      "Ġtracks": 8837,
      "ĠBob": 8838,
      "utional": 8839,
      "Ġoutcomes": 8840,
      "Ġclassroom": 8841,
      "liability": 8842,
      "ĠOly": 8843,
      "hrase": 8844,
      "Ã¤": 8845,
      "ĠPacific": 8846,
      "ĠWeek": 8847,
      "98": 8848,
      "apore": 8849,
      "ĠGarden": 8850,
      "mad": 8851,
      "ĠTra": 8852,
      "ĠSeco": 8853,
      "ĠStore": 8854,
      "Ġnaturally": 8855,
      "Ġseed": 8856,
      "Ġjoining": 8857,
      "Ġresidence": 8858,
      "Ġupgrade": 8859,
      "Ġsensitive": 8860,
      "ĠBoy": 8861,
      "Ġstrict": 8862,
      "Ġpink": 8863,
      "Ġsetup": 8864,
      "Ġrenov": 8865,
      "Ġerrors": 8866,
      "expected": 8867,
      "ansa": 8868,
      "dity": 8869,
      "Ġcrazy": 8870,
      "iteria": 8871,
      "gar": 8872,
      "Ġcareful": 8873,
      "ĠEnvironment": 8874,
      "ĠRoman": 8875,
      "Ã³": 8876,
      "Ġcontinui": 8877,
      "ĠCommon": 8878,
      "Ġcontinuing": 8879,
      "Of": 8880,
      "Ġforever": 8881,
      "Ġethi": 8882,
      "Ġisol": 8883,
      "attr": 8884,
      "Even": 8885,
      "Ġmale": 8886,
      "Ġrecognition": 8887,
      "âĢĭ": 8888,
      "Ġtape": 8889,
      "See": 8890,
      "Ġapplyi": 8891,
      "Ġapplying": 8892,
      "niversary": 8893,
      "Ġgraphics": 8894,
      "Ġlists": 8895,
      "Ã¶": 8896,
      "ĠSupport": 8897,
      "mole": 8898,
      "ĠMarketing": 8899,
      "Ġsomewh": 8900,
      "ĠÎ": 8901,
      "Ġhumans": 8902,
      "Ġsomewha": 8903,
      "fu": 8904,
      "Ġsomewhat": 8905,
      "eration": 8906,
      "BI": 8907,
      "Ġconversio": 8908,
      "ĠExce": 8909,
      "Ġconversion": 8910,
      "including": 8911,
      "Ġoverwhe": 8912,
      "Ġprison": 8913,
      "Ġevaluation": 8914,
      "seam": 8915,
      "ĠAbout": 8916,
      "Ġoptim": 8917,
      "ĠLiving": 8918,
      "alse": 8919,
      "inking": 8920,
      "May": 8921,
      "ĠAni": 8922,
      "ando": 8923,
      "missio": 8924,
      "ĠSecon": 8925,
      "onics": 8926,
      "Ġcalendar": 8927,
      "Ġdreams": 8928,
      "Ġconscious": 8929,
      "Ġdishes": 8930,
      "ounds": 8931,
      "Ġdriven": 8932,
      "Ġherself": 8933,
      "Ġintegration": 8934,
      "Ġmarks": 8935,
      "yield": 8936,
      "Ġbirds": 8937,
      "Ġcounsel": 8938,
      "Ġpace": 8939,
      "math": 8940,
      "Ġburn": 8941,
      "ompi": 8942,
      "Ġdoctors": 8943,
      "Ġthreat": 8944,
      "300": 8945,
      "ĠDoes": 8946,
      "ĠExcel": 8947,
      "essions": 8948,
      "lens": 8949,
      "lasting": 8950,
      "Ġvegetables": 8951,
      "ĠKo": 8952,
      "!\"": 8953,
      "Ġina": 8954,
      "econdary": 8955,
      "atics": 8956,
      "RS": 8957,
      "Ġkick": 8958,
      "Ġscored": 8959,
      "Ġchecki": 8960,
      "Ġempty": 8961,
      "ntage": 8962,
      "Ġdefend": 8963,
      "ĠPhys": 8964,
      "ĠNatur": 8965,
      "Ġorange": 8966,
      "outi": 8967,
      "Ġrely": 8968,
      "oots": 8969,
      "ĠFinancial": 8970,
      "Ġforest": 8971,
      "eague": 8972,
      "ĠGames": 8973,
      "Ġopposite": 8974,
      "sper": 8975,
      "sidential": 8976,
      "Ġbull": 8977,
      "Ġdecrease": 8978,
      "Ġvitamin": 8979,
      "iev": 8980,
      "Ġfollows": 8981,
      "ĠJud": 8982,
      "Ġlimits": 8983,
      "Ġcoveri": 8984,
      "Ġcovering": 8985,
      "eman": 8986,
      "Ġliability": 8987,
      "Ġfactory": 8988,
      "ĠAsh": 8989,
      "ĠHuman": 8990,
      "oop": 8991,
      "ĠSpac": 8992,
      "ewing": 8993,
      "acle": 8994,
      "ĠRom": 8995,
      "ĠKnow": 8996,
      "ĠJul": 8997,
      "!)": 8998,
      "zo": 8999,
      "evil": 9000,
      "ques": 9001,
      "08": 9002,
      "Ġsepar": 9003,
      "ĠWhic": 9004,
      "tec": 9005,
      "ĠSC": 9006,
      "ĠWhich": 9007,
      "Ġrestri": 9008,
      "Ġchecking": 9009,
      "Ġpen": 9010,
      "idents": 9011,
      "Great": 9012,
      "Ġapo": 9013,
      "ĠMat": 9014,
      "ĠOff": 9015,
      "ĠSar": 9016,
      "unes": 9017,
      "amber": 9018,
      "Man": 9019,
      "Ġairc": 9020,
      "ĠProp": 9021,
      "Ġfighting": 9022,
      "ĠMichigan": 9023,
      "Ġcancel": 9024,
      "Ġvibr": 9025,
      "ĠPhilip": 9026,
      "ram": 9027,
      "Ġembra": 9028,
      "Ġintelligence": 9029,
      "aili": 9030,
      "ĠVery": 9031,
      "Ġwithdraw": 9032,
      "Ġsuppliers": 9033,
      "64": 9034,
      "Ġconfu": 9035,
      "lege": 9036,
      "ĠSports": 9037,
      "earing": 9038,
      "league": 9039,
      "una": 9040,
      "Ġped": 9041,
      "ĠPenn": 9042,
      "Eac": 9043,
      "Ġacts": 9044,
      "Ġholidays": 9045,
      "lever": 9046,
      "Ġunw": 9047,
      "Ġconfus": 9048,
      "Ġalu": 9049,
      "Ġqui": 9050,
      "ouri": 9051,
      "eev": 9052,
      "Ġhip": 9053,
      "Ġvictory": 9054,
      "EA": 9055,
      "Ġtim": 9056,
      "ores": 9057,
      "Ġelegant": 9058,
      "Ġdirected": 9059,
      "Ġsupplement": 9060,
      "losure": 9061,
      "Ġanxiety": 9062,
      "ership": 9063,
      "Ġshouldn": 9064,
      "à¸": 9065,
      "ĠSearch": 9066,
      "Ġdrinking": 9067,
      "Ġapproache": 9068,
      "Up": 9069,
      "Each": 9070,
      "Ġapproaches": 9071,
      "aine": 9072,
      "Ġ55": 9073,
      "Ġmistake": 9074,
      "tiou": 9075,
      "ĠBell": 9076,
      "nian": 9077,
      "Next": 9078,
      "ĠPolice": 9079,
      "Ġreligio": 9080,
      "ĠOhi": 9081,
      "Ġyield": 9082,
      "tious": 9083,
      "Ġnights": 9084,
      "'.": 9085,
      "Ġsections": 9086,
      "ĠOi": 9087,
      "Ġlicensed": 9088,
      "Ġchances": 9089,
      "Ġdropped": 9090,
      "Ġveg": 9091,
      "Ġphones": 9092,
      "ĠNorthern": 9093,
      "En": 9094,
      "Ġreligion": 9095,
      "Ġexamine": 9096,
      "ĠFrancisco": 9097,
      "ĠLLC": 9098,
      "Note": 9099,
      "Ġ38": 9100,
      "Ġbelong": 9101,
      "ĠSoftware": 9102,
      "gies": 9103,
      "ĠSky": 9104,
      "Ġvenue": 9105,
      "ĠAgree": 9106,
      "ĠOhio": 9107,
      "Ġstuck": 9108,
      "Ġwalked": 9109,
      "ersi": 9110,
      "esis": 9111,
      "Ġbeneficial": 9112,
      "teri": 9113,
      "look": 9114,
      "Ġsurprising": 9115,
      "ek": 9116,
      "Ġinqu": 9117,
      "ĠSuc": 9118,
      "Ġobserved": 9119,
      "ĠCent": 9120,
      "armac": 9121,
      "Ġremark": 9122,
      "Ġseam": 9123,
      "mont": 9124,
      "Ġelectricity": 9125,
      "ĠFREE": 9126,
      "Ġtissue": 9127,
      "friger": 9128,
      "ĠSS": 9129,
      "Ġdiseases": 9130,
      "Ġtracki": 9131,
      "oils": 9132,
      "Ġconvenience": 9133,
      "Ġtracking": 9134,
      "Ġlake": 9135,
      "Ġaggr": 9136,
      "arks": 9137,
      "secondary": 9138,
      "Ġë": 9139,
      "Ġoverc": 9140,
      "Ġexport": 9141,
      "ĠUSB": 9142,
      "aq": 9143,
      "aria": 9144,
      "Me": 9145,
      "Ġresort": 9146,
      "Ġfunny": 9147,
      "arters": 9148,
      "aha": 9149,
      "Ġvolunteers": 9150,
      "68": 9151,
      "Ġpanels": 9152,
      "Ġbelieves": 9153,
      "ansas": 9154,
      "Ġmm": 9155,
      "Ġbare": 9156,
      "acing": 9157,
      "Ġathlete": 9158,
      "holder": 9159,
      "Ġloving": 9160,
      "Ġstable": 9161,
      "phis": 9162,
      "Ġlawyer": 9163,
      "Ġhopes": 9164,
      "ĠScott": 9165,
      "ĠJohnson": 9166,
      "ĠSmart": 9167,
      "Ġlect": 9168,
      "Ġtalks": 9169,
      "Ġindicate": 9170,
      "Ġmatche": 9171,
      "alogue": 9172,
      "jo": 9173,
      "Ġactiv": 9174,
      "zzle": 9175,
      "Ġcolours": 9176,
      "Ġmatches": 9177,
      "Ġcompensation": 9178,
      "RI": 9179,
      "grapher": 9180,
      "ĠLy": 9181,
      "Ġcorrectly": 9182,
      "Ġlets": 9183,
      "ĠArab": 9184,
      "Ġtelephone": 9185,
      "Fin": 9186,
      "heading": 9187,
      "rian": 9188,
      "eous": 9189,
      "amil": 9190,
      "mony": 9191,
      "Ġsubjects": 9192,
      "Ġinteractive": 9193,
      "ias": 9194,
      "Wil": 9195,
      "ailing": 9196,
      "tory": 9197,
      "Ġcenters": 9198,
      "Ġwave": 9199,
      "Ġfunctionality": 9200,
      "ĠSelect": 9201,
      "Ġreflecti": 9202,
      "rous": 9203,
      "abetes": 9204,
      "ĠCasino": 9205,
      "Ġnecessarily": 9206,
      "dess": 9207,
      "ĠSuch": 9208,
      "ĠRen": 9209,
      "ĠTraining": 9210,
      "FC": 9211,
      "Ġbreast": 9212,
      "ĠYouTube": 9213,
      "Ġceili": 9214,
      "Ġacceler": 9215,
      "rings": 9216,
      "ĠOffic": 9217,
      "unge": 9218,
      "Ġpermit": 9219,
      "Ġnarrow": 9220,
      "arn": 9221,
      "Ġcriteria": 9222,
      "Ġemi": 9223,
      "Ġequival": 9224,
      "Ġceiling": 9225,
      "ĠCard": 9226,
      "racy": 9227,
      "Ġwarranty": 9228,
      "ĠLearn": 9229,
      "ĠDisney": 9230,
      "ndo": 9231,
      "!!!!": 9232,
      "Ġeverywhere": 9233,
      "ĠAven": 9234,
      "itis": 9235,
      "Ġtraveli": 9236,
      "Ġskilled": 9237,
      "Ġve": 9238,
      "Ġtrim": 9239,
      "Ġtraveling": 9240,
      "Ġorganisation": 9241,
      "lance": 9242,
      "Ġcoal": 9243,
      "ĠTry": 9244,
      "Ġproposal": 9245,
      "Ġshots": 9246,
      "Ġunu": 9247,
      "cio": 9248,
      "ĠSpace": 9249,
      "ĠRight": 9250,
      "Check": 9251,
      "gorith": 9252,
      "Ġlegislation": 9253,
      "Ġcontained": 9254,
      "Ġ33": 9255,
      "ĠCommuni": 9256,
      "Ġasse": 9257,
      "Ġparticipation": 9258,
      "Ġads": 9259,
      "vine": 9260,
      "Ġshock": 9261,
      "ĠHP": 9262,
      "Ġembo": 9263,
      "Ġresc": 9264,
      "ĠTax": 9265,
      "plays": 9266,
      "oke": 9267,
      "Ġcomplicated": 9268,
      "Ġflexibility": 9269,
      "bury": 9270,
      "Ġspray": 9271,
      "Ġpermission": 9272,
      "Ġtrips": 9273,
      "Ġclar": 9274,
      "Ġutility": 9275,
      "Ġpolitics": 9276,
      "Ġfits": 9277,
      "Ġcontainer": 9278,
      "ĠHam": 9279,
      "97": 9280,
      "Ġ37": 9281,
      "Ġobjective": 9282,
      "ĠAirport": 9283,
      "Ð»": 9284,
      "Ġforum": 9285,
      "Ġtap": 9286,
      "ĠPat": 9287,
      "ĠFir": 9288,
      "Ġinvolving": 9289,
      "Ġhurt": 9290,
      "Ġwrap": 9291,
      "Ġstayi": 9292,
      "Ġentrance": 9293,
      "Ġspots": 9294,
      "ĠBeaut": 9295,
      "Ġexposed": 9296,
      "Where": 9297,
      "Ġlift": 9298,
      "jectio": 9299,
      "Ġmodule": 9300,
      "jection": 9301,
      "Ġemails": 9302,
      "Ġanyway": 9303,
      "Ġcoin": 9304,
      "Ġdrinks": 9305,
      "Ġrequested": 9306,
      "Ġstaying": 9307,
      "Ġcontaining": 9308,
      "atil": 9309,
      "67": 9310,
      "tingu": 9311,
      "etect": 9312,
      "ĠAf": 9313,
      "ĠPage": 9314,
      "ifted": 9315,
      "sung": 9316,
      "ĠFord": 9317,
      "Ġchairs": 9318,
      "ĠColorado": 9319,
      "Ġtransactions": 9320,
      "Ġcarpet": 9321,
      "Ġlayout": 9322,
      "Ġdisappoint": 9323,
      "Ġcarryi": 9324,
      "tz": 9325,
      "Ġcarrying": 9326,
      "mid": 9327,
      "alla": 9328,
      "xy": 9329,
      "Ġliterature": 9330,
      "Ġcertification": 9331,
      "Ġcharacteristics": 9332,
      "Ġrecre": 9333,
      "mpro": 9334,
      "Ġhosted": 9335,
      "pine": 9336,
      "Ġmarked": 9337,
      "Ġ65": 9338,
      "Ġresponses": 9339,
      "Ġrural": 9340,
      "ĠJewish": 9341,
      "Ġautomatic": 9342,
      "mpos": 9343,
      "Ġassociation": 9344,
      "Ġsan": 9345,
      "Ġnuclear": 9346,
      "Ġencouraged": 9347,
[...]
