{
  "version": "1.0",
  "truncation": {
    "direction": "Right",
    "max_length": 129,
    "strategy": "LongestFirst",
    "stride": 0
  },
  "padding": {
    "strategy": {
      "Fixed": 129
    },
    "direction": "Right",
    "pad_to_multiple_of": null,
    "pad_id": 0,
    "pad_type_id": 0,
    "pad_token": "<pad>"
  },
  "added_tokens": [
    {
      "id": 0,
      "content": "<pad>",
      "single_word": false,
      "lstrip": false,
      "rstrip": false,
      "normalized": false,
      "special": true
    },
    {
      "id": 1,
      "content": "<bos>",
      "single_word": false,
      "lstrip": false,
      "rstrip": false,
      "normalized": false,
      "special": true
    },
    {
      "id": 2,
      "content": "<unk>",
      "single_word": false,
      "lstrip": false,
      "rstrip": false,
      "normalized": false,
      "special": true
    }
  ],
  "normalizer": null,
  "pre_tokenizer": {
    "type": "ByteLevel",
    "add_prefix_space": false,
    "trim_offsets": true,
    "use_regex": true
  },
  "post_processor": {
    "type": "TemplateProcessing",
    "single": [
      {
        "SpecialToken": {
          "id": "<bos>",
          "type_id": 0
        }
      },
      {
        "Sequence": {
          "id": "A",
          "type_id": 0
        }
      }
    ],
    "pair": [
      {
        "Sequence": {
          "id": "A",
          "type_id": 0
        }
      },
      {
        "Sequence": {
          "id": "B",
          "type_id": 1
        }
      }
    ],
    "special_tokens": {
      "<bos>": {
        "id": "<bos>",
        "ids": [
          1
        ],
        "tokens": [
          "<bos>"
        ]
      }
    }
  },
  "decoder": {
    "type": "ByteLevel",
    "add_prefix_space": true,
    "trim_offsets": true,
    "use_regex": true
  },
  "model": {
    "type": "BPE",
    "dropout": null,
    "unk_token": "<unk>",
    "continuing_subword_prefix": null,
    "end_of_word_suffix": null,
    "fuse_unk": false,
    "byte_fallback": false,
    "vocab": {
      "<pad>": 0,
      "<bos>": 1,
      "<unk>": 2,
      "!": 3,
      "\"": 4,
      "#": 5,
      "$": 6,
      "%": 7,
      "&": 8,
      "'": 9,
      "(": 10,
      ")": 11,
      "*": 12,
      "+": 13,
      ",": 14,
      "-": 15,
      ".": 16,
      "/": 17,
      "0": 18,
      "1": 19,
      "2": 20,
      "3": 21,
      "4": 22,
      "5": 23,
      "6": 24,
      "7": 25,
      "8": 26,
      "9": 27,
      ":": 28,
      ";": 29,
      "<": 30,
      "=": 31,
      ">": 32,
      "?": 33,
      "@": 34,
      "A": 35,
      "B": 36,
      "C": 37,
      "D": 38,
      "E": 39,
      "F": 40,
      "G": 41,
      "H": 42,
      "I": 43,
      "J": 44,
      "K": 45,
      "L": 46,
      "M": 47,
      "N": 48,
      "O": 49,
      "P": 50,
      "Q": 51,
      "R": 52,
      "S": 53,
      "T": 54,
      "U": 55,
      "V": 56,
      "W": 57,
      "X": 58,
      "Y": 59,
      "Z": 60,
      "[": 61,
      "\\": 62,
      "]": 63,
      "^": 64,
      "a": 65,
      "b": 66,
      "c": 67,
      "d": 68,
      "e": 69,
      "f": 70,
      "g": 71,
      "h": 72,
      "i": 73,
      "j": 74,
      "k": 75,
      "l": 76,
      "m": 77,
      "n": 78,
      "o": 79,
      "p": 80,
      "q": 81,
      "r": 82,
      "s": 83,
      "t": 84,
      "u": 85,
      "v": 86,
      "w": 87,
      "x": 88,
      "y": 89,
      "z": 90,
      "|": 91,
      "~": 92,
      "¡": 93,
      "¢": 94,
      "£": 95,
      "¤": 96,
      "¥": 97,
      "¦": 98,
      "§": 99,
      "¨": 100,
      "©": 101,
      "ª": 102,
      "«": 103,
      "¬": 104,
      "®": 105,
      "¯": 106,
      "°": 107,
      "±": 108,
      "²": 109,
      "³": 110,
      "´": 111,
      "µ": 112,
      "¶": 113,
      "·": 114,
      "¸": 115,
      "¹": 116,
      "º": 117,
      "»": 118,
      "¼": 119,
      "½": 120,
      "¾": 121,
      "¿": 122,
      "Â": 123,
      "Ã": 124,
      "Ä": 125,
      "Å": 126,
      "Æ": 127,
      "Ê": 128,
      "Ì": 129,
      "Î": 130,
      "Ð": 131,
      "Ñ": 132,
      "Ø": 133,
      "Ù": 134,
      "à": 135,
      "á": 136,
      "â": 137,
      "ã": 138,
      "å": 139,
      "æ": 140,
      "ç": 141,
      "é": 142,
      "ï": 143,
      "Ċ": 144,
      "Ġ": 145,
      "Ģ": 146,
      "ģ": 147,
      "Ĥ": 148,
      "ĥ": 149,
      "Ħ": 150,
      "ħ": 151,
      "Ĩ": 152,
      "ĩ": 153,
      "Ī": 154,
      "ī": 155,
      "Ĭ": 156,
      "ĭ": 157,
      "Į": 158,
      "į": 159,
      "İ": 160,
      "ı": 161,
      "Ĳ": 162,
      "ĳ": 163,
      "Ĵ": 164,
      "ĵ": 165,
      "Ķ": 166,
      "ķ": 167,
      "ĸ": 168,
      "Ĺ": 169,
      "ĺ": 170,
      "Ļ": 171,
      "ļ": 172,
      "Ľ": 173,
      "ľ": 174,
      "Ŀ": 175,
      "ŀ": 176,
      "Ł": 177,
      "ł": 178,
      "Ń": 179,
      "Ġt": 180,
      "he": 181,
      "Ġa": 182,
      "in": 183,
      "Ġthe": 184,
      "er": 185,
      "on": 186,
      "Ġ,": 187,
      "un": 188,
      "re": 189,
      "Ġs": 190,
      "Ġo": 191,
      "Ġw": 192,
      "ed": 193,
      "Ġ.": 194,
      "at": 195,
      "nd": 196,
      "unk": 197,
      "Ġ<": 198,
      "or": 199,
      "Ġc": 200,
      "it": 201,
      "Ġf": 202,
      "en": 203,
      "Ġof": 204,
      "is": 205,
      "Ġb": 206,
      "es": 207,
      "Ġin": 208,
      "ar": 209,
      "an": 210,
      "al": 211,
      "Ġand": 212,
      "Ġp": 213,
      "ing": 214,
      "as": 215,
      "Ġto": 216,
      "Ġm": 217,
      "ro": 218,
      "ic": 219,
      "Ġd": 220,
      "Ġh": 221,
      "ion": 222,
      "le": 223,
      "ĠT": 224,
      "Ġ=": 225,
      "Ġre": 226,
      "Ġ\"": 227,
      "Ġth": 228,
      "ou": 229,
      "ent": 230,
      "ĠA": 231,
      "Ġ1": 232,
      "il": 233,
      "st": 234,
      "ĠS": 235,
      "Ġl": 236,
      "ĠĊ": 237,
      "Ġe": 238,
      "om": 239,
      "Ġ@": 240,
      "Ġn": 241,
      "ĠC": 242,
      "am": 243,
      "el": 244,
      "ad": 245,
      "Ġwas": 246,
      "ac": 247,
      "ĠThe": 248,
      "Ġon": 249,
      "Ġbe": 250,
      "ly": 251,
      "ur": 252,
      "ĠM": 253,
      "Ġ'": 254,
      "Ġg": 255,
      "ĠI": 256,
      "Ġfor": 257,
      "iv": 258,
      "-@": 259,
      "Ġ@-@": 260,
      "ol": 261,
      "ĠB": 262,
      "id": 263,
      "ter": 264,
      "im": 265,
      "ig": 266,
      "ir": 267,
      "Ġas": 268,
      "ct": 269,
      "th": 270,
      "ith": 271,
      "Ġst": 272,
      "ow": 273,
      "Ġ2": 274,
      "ĠH": 275,
      "us": 276,
      "ay": 277,
      "Ġthat": 278,
      "Ġwith": 279,
      "ut": 280,
      "ce": 281,
      "ver": 282,
      "Ġhe": 283,
      "ot": 284,
      "ation": 285,
      "et": 286,
      "Ġis": 287,
      "Ġby": 288,
      "Ġwh": 289,
      "Ġ)": 290,
      "Ġ(": 291,
      "ch": 292,
      "ĠR": 293,
      "ĠP": 294,
      "Ġal": 295,
      "Ġcon": 296,
      "em": 297,
      "ĠF": 298,
      "Ġat": 299,
      "ĠD": 300,
      "ul": 301,
      "ĠW": 302,
      "Ġit": 303,
      "Ġ19": 304,
      "ain": 305,
      "and": 306,
      "rom": 307,
      "ĠN": 308,
      "Ġan": 309,
      "00": 310,
      "ers": 311,
      "os": 312,
      "av": 313,
      "her": 314,
      "Ġde": 315,
      "est": 316,
      "Ġse": 317,
      "ĠJ": 318,
      "ĠG": 319,
      "ĠL": 320,
      "Ġhis": 321,
      "ag": 322,
      "um": 323,
      "Ġr": 324,
      "Ġfrom": 325,
      "od": 326,
      "Ġcom": 327,
      "ĠO": 328,
      "ri": 329,
      "pe": 330,
      "ĠE": 331,
      "und": 332,
      "ere": 333,
      "ist": 334,
      "ort": 335,
      "Ġwere": 336,
      "ld": 337,
      "if": 338,
      "Ġpro": 339,
      "ore": 340,
      "Ġv": 341,
      "ies": 342,
      "Ġsu": 343,
      "ill": 344,
      "res": 345,
      "igh": 346,
      "ap": 347,
      "ĠIn": 348,
      "ew": 349,
      "op": 350,
      "ong": 351,
      "ich": 352,
      "ate": 353,
      "all": 354,
      "Ġor": 355,
      "art": 356,
      "ak": 357,
      "ard": 358,
      "ber": 359,
      "ity": 360,
      "gh": 361,
      "Ġch": 362,
      "ated": 363,
      "Ġpl": 364,
      "se": 365,
      "Ġex": 366,
      "ant": 367,
      "ame": 368,
      "ud": 369,
      "Ġâ": 370,
      "ab": 371,
      "oc": 372,
      "Ġare": 373,
      "qu": 374,
      "ive": 375,
      "Ġhad": 376,
      "Ġk": 377,
      "ĠâĢ": 378,
      "Ġsh": 379,
      "ack": 380,
      "ess": 381,
      "Ġwhich": 382,
      "ĠU": 383,
      "ip": 384,
      "up": 385,
      "our": 386,
      "red": 387,
      "ian": 388,
      "ment": 389,
      "ast": 390,
      "Ġy": 391,
      "ĠSt": 392,
      "Ġnot": 393,
      "Ġle": 394,
      "ge": 395,
      "rit": 396,
      "ov": 397,
      "ust": 398,
      "pt": 399,
      "ight": 400,
      "ĠK": 401,
      "ear": 402,
      "ost": 403,
      "Ġtr": 404,
      "ial": 405,
      "oun": 406,
      "ther": 407,
      "ine": 408,
      "ave": 409,
      "cl": 410,
      "ord": 411,
      "Ġ3": 412,
      "ary": 413,
      "ĠCh": 414,
      "ell": 415,
      "ical": 416,
      "ish": 417,
      "Ġ200": 418,
      "ia": 419,
      "irst": 420,
      "te": 421,
      "pp": 422,
      "Ġ;": 423,
      "Ġbut": 424,
      "ction": 425,
      "so": 426,
      "fter": 427,
      "Ġar": 428,
      "Ġtheir": 429,
      "cc": 430,
      "Ġcomp": 431,
      "Ġcont": 432,
      "Ġits": 433,
      "ide": 434,
      "ould": 435,
      "ure": 436,
      "Ġwhe": 437,
      "ous": 438,
      "Ġfirst": 439,
      "Ġun": 440,
      "Ġ20": 441,
      "ome": 442,
      "Ġalso": 443,
      "ĠâĢĵ": 444,
      "Ġint": 445,
      "ra": 446,
      "ue": 447,
      "ition": 448,
      "Ġro": 449,
      "hed": 450,
      "wo": 451,
      "og": 452,
      "ie": 453,
      "Ġcl": 454,
      "ign": 455,
      "Ġ:": 456,
      "ub": 457,
      "orm": 458,
      "out": 459,
      "per": 460,
      "own": 461,
      "ĠHe": 462,
      "ff": 463,
      "ass": 464,
      "Ġad": 465,
      "Ġus": 466,
      "ater": 467,
      "ire": 468,
      "ru": 469,
      "Ġher": 470,
      "ork": 471,
      "Ġhave": 472,
      "Ġab": 473,
      "age": 474,
      "mer": 475,
      "ĠV": 476,
      "Ġbeen": 477,
      "Ġone": 478,
      "Ġ4": 479,
      "ok": 480,
      "Ġres": 481,
      "Ġhas": 482,
      "low": 483,
      "ree": 484,
      "ond": 485,
      "Ġ18": 486,
      "ry": 487,
      "Ġper": 488,
      "ime": 489,
      "Ġ5": 490,
      "ted": 491,
      ".@": 492,
      "Ġ@.@": 493,
      "Ġtwo": 494,
      "uring": 495,
      "ence": 496,
      "ally": 497,
      "du": 498,
      "Ġrec": 499,
      "ĠTh": 500,
      "ugh": 501,
      "Ġbo": 502,
      "ough": 503,
      "ance": 504,
      "ile": 505,
      "Ġthis": 506,
      "pl": 507,
      "Ġwho": 508,
      "Ġpart": 509,
      "Ġbec": 510,
      "ĠIt": 511,
      "ans": 512,
      "Ġag": 513,
      "clud": 514,
      "Ġthey": 515,
      "are": 516,
      "land": 517,
      "ect": 518,
      "Ġ201": 519,
      "Ġdes": 520,
      "Ġsc": 521,
      "Ġplay": 522,
      "any": 523,
      "ĠAl": 524,
      "ory": 525,
      "ade": 526,
      "Ġafter": 527,
      "Ġj": 528,
      "Ġyear": 529,
      ",@": 530,
      "Ġ@,@": 531,
      "ult": 532,
      "ations": 533,
      "Ġover": 534,
      "ely": 535,
      "Ġdis": 536,
      "over": 537,
      "Ġte": 538,
      "ach": 539,
      "Ġother": 540,
      "Ġser": 541,
      "ric": 542,
      "Ġoff": 543,
      "Ġinclud": 544,
      "Ġup": 545,
      "ount": 546,
      "Ġen": 547,
      "ions": 548,
      "port": 549,
      "ace": 550,
      "ib": 551,
      "Ġout": 552,
      "urn": 553,
      "act": 554,
      "ice": 555,
      "ound": 556,
      "ang": 557,
      "Ġim": 558,
      "Ġinto": 559,
      "ite": 560,
      "iz": 561,
      "wn": 562,
      "ke": 563,
      "ces": 564,
      "Ġne": 565,
      "Ġev": 566,
      "Ġatt": 567,
      "ress": 568,
      "Ġcomm": 569,
      "ĠOn": 570,
      "ens": 571,
      "Ġpre": 572,
      "Ġtime": 573,
      "ĠY": 574,
      "we": 575,
      "ced": 576,
      "Ġfin": 577,
      "ward": 578,
      "ark": 579,
      "Ġwe": 580,
      "Ġwould": 581,
      "rough": 582,
      "Ġ6": 583,
      "ren": 584,
      "Ġmore": 585,
      "Ġsp": 586,
      "ied": 587,
      "tern": 588,
      "Ġspe": 589,
      "Ġhim": 590,
      "ited": 591,
      "ail": 592,
      "amp": 593,
      "Ġall": 594,
      "one": 595,
      "oin": 596,
      "ĠSe": 597,
      "ĠUn": 598,
      "ĠRe": 599,
      "ason": 600,
      "ased": 601,
      "Ġcent": 602,
      "Ġshe": 603,
      "round": 604,
      "ose": 605,
      "ents": 606,
      "rib": 607,
      "Ġwork": 608,
      "les": 609,
      "iss": 610,
      "Ġ7": 611,
      "ral": 612,
      "Ġsec": 613,
      "Ġfe": 614,
      "ilm": 615,
      "ts": 616,
      "ood": 617,
      "Ġbet": 618,
      "Ġrem": 619,
      "Ġme": 620,
      "vel": 621,
      "ered": 622,
      "ase": 623,
      "outh": 624,
      "att": 625,
      "orth": 626,
      "ings": 627,
      "ix": 628,
      "ates": 629,
      "Ġduring": 630,
      "Ġwhen": 631,
      "able": 632,
      "ild": 633,
      "Ġonly": 634,
      "ĠAn": 635,
      "form": 636,
      "old": 637,
      "ember": 638,
      "Ġthem": 639,
      "ious": 640,
      "gan": 641,
      "ake": 642,
      "ors": 643,
      "Ġ9": 644,
      "Ġear": 645,
      "Ġmost": 646,
      "oy": 647,
      "ubl": 648,
      "under": 649,
      "ve": 650,
      "Ġkn": 651,
      "ollow": 652,
      "man": 653,
      "Ġ8": 654,
      "ved": 655,
      "Ġsong": 656,
      "Ġagain": 657,
      "aus": 658,
      "ween": 659,
      "fer": 660,
      "Ġnew": 661,
      "ĠAs": 662,
      "Ġthree": 663,
      "Ġcons": 664,
      "reat": 665,
      "Ġgame": 666,
      "aw": 667,
      "Ġ199": 668,
      "als": 669,
      "Ġnum": 670,
      "ron": 671,
      "ĠAr": 672,
      "Ġfilm": 673,
      "Ġbetween": 674,
      "hip": 675,
      "Ġabout": 676,
      "ug": 677,
      "way": 678,
      "ath": 679,
      "ick": 680,
      "ision": 681,
      "Ġ00": 682,
      "Ġthan": 683,
      "ters": 684,
      "ational": 685,
      "fore": 686,
      "Ġthrough": 687,
      "meric": 688,
      "Ġpos": 689,
      "Ġsome": 690,
      "ind": 691,
      "Ġrel": 692,
      "Ġunder": 693,
      "ĠAmeric": 694,
      "ĠCom": 695,
      "Ġseason": 696,
      "ict": 697,
      "cted": 698,
      "Ġcol": 699,
      "Ġlater": 700,
      "Ġpe": 701,
      "Ġwhile": 702,
      "Ġend": 703,
      "Ġdef": 704,
      "ĠDe": 705,
      "ĠNew": 706,
      "ft": 707,
      "ĠMar": 708,
      "Ġinter": 709,
      "ular": 710,
      "Ġass": 711,
      "Ġret": 712,
      "ning": 713,
      "Ġcan": 714,
      "Ġprodu": 715,
      "iew": 716,
      "Ġwhere": 717,
      "Ġchar": 718,
      "Ġlar": 719,
      "Ġreg": 720,
      "orld": 721,
      "Ġmov": 722,
      "ames": 723,
      "Ġpr": 724,
      "ons": 725,
      "Ġmade": 726,
      "Ġfollow": 727,
      "Ġrecord": 728,
      "Ġver": 729,
      "Ġsub": 730,
      "ever": 731,
      "rop": 732,
      "Ġform": 733,
      "Ġfl": 734,
      "Ġrele": 735,
      "ĠEn": 736,
      "Ġfour": 737,
      "Ġapp": 738,
      "Ġso": 739,
      "ished": 740,
      "ury": 741,
      "Ġap": 742,
      "ener": 743,
      "Ġsecond": 744,
      "Ġwrit": 745,
      "Ġman": 746,
      "Ġday": 747,
      "olog": 748,
      "Ġbu": 749,
      "Ġspec": 750,
      "ey": 751,
      "Ġno": 752,
      "Ġ000": 753,
      "ock": 754,
      "ank": 755,
      "Ġused": 756,
      "Ġacc": 757,
      "ived": 758,
      "aid": 759,
      "Ġac": 760,
      "Ġqu": 761,
      "Ġact": 762,
      "Ġbefore": 763,
      "ĠBrit": 764,
      "Ġsuch": 765,
      "Ġinc": 766,
      "Ġthere": 767,
      "ike": 768,
      "Ġam": 769,
      "Ġsupp": 770,
      "Ġgro": 771,
      "ars": 772,
      "Ġco": 773,
      "ĠAt": 774,
      "Ġhigh": 775,
      "bum": 776,
      "Ġnumber": 777,
      "ph": 778,
      "Ġind": 779,
      "ĠThis": 780,
      "ĠAust": 781,
      "owever": 782,
      "Ġcall": 783,
      "ating": 784,
      "ual": 785,
      "Ġmus": 786,
      "ss": 787,
      "ained": 788,
      "Ġbeing": 789,
      "ily": 790,
      "ines": 791,
      "ck": 792,
      "ific": 793,
      "Ġloc": 794,
      "ob": 795,
      "Ġpubl": 796,
      "iver": 797,
      "Ġyears": 798,
      "end": 799,
      "velop": 800,
      "Ġappe": 801,
      "ife": 802,
      "Ġsur": 803,
      "Ġep": 804,
      "Ġfound": 805,
      "Ġele": 806,
      "Ġ0": 807,
      "ince": 808,
      "ĠâĢĶ": 809,
      "Ġset": 810,
      "Ġdo": 811,
      "ĠJo": 812,
      "Ġ12": 813,
      "ĠLe": 814,
      "Ġent": 815,
      "Ġsy": 816,
      "Ġwell": 817,
      "Ġ10": 818,
      "Ġsever": 819,
      "hes": 820,
      "ics": 821,
      "orn": 822,
      "Ġgr": 823,
      "Ġalbum": 824,
      "Ġ/": 825,
      "ane": 826,
      "Ġagainst": 827,
      "ll": 828,
      "Ġbecame": 829,
      "Ġinv": 830,
      "Ġthen": 831,
      "igin": 832,
      "Ġdec": 833,
      "iel": 834,
      "Ġincluding": 835,
      "hen": 836,
      "Ġback": 837,
      "other": 838,
      "Ġboth": 839,
      "ird": 840,
      "Ġcap": 841,
      "Ġperform": 842,
      "Ġseries": 843,
      "ode": 844,
      "Ġepis": 845,
      "Ġpres": 846,
      "pen": 847,
      "Ġmany": 848,
      "Ġdire": 849,
      "ause": 850,
      "ĠEng": 851,
      "ten": 852,
      "Ġpo": 853,
      "Ġteam": 854,
      "ities": 855,
      "Ġem": 856,
      "though": 857,
      "Ġbl": 858,
      "Ġmain": 859,
      "Ġadd": 860,
      "aj": 861,
      "Ġ198": 862,
      "Ġdevelop": 863,
      "overn": 864,
      "Ġmon": 865,
      "Ġ194": 866,
      "ĠSc": 867,
      "ised": 868,
      "ject": 869,
      "ĠAustral": 870,
      "ĠUnited": 871,
      "Ġknown": 872,
      "cept": 873,
      "ert": 874,
      "ident": 875,
      "its": 876,
      "urch": 877,
      "pr": 878,
      "son": 879,
      "Ġship": 880,
      "ures": 881,
      "ĠAfter": 882,
      "hn": 883,
      "Ġcontin": 884,
      "Ġdesc": 885,
      "Ġlong": 886,
      "Ġpop": 887,
      "ĠAmerican": 888,
      "ement": 889,
      "Ġest": 890,
      "ek": 891,
      "ĠBritish": 892,
      "Ġsing": 893,
      "Ġorigin": 894,
      "ton": 895,
      "Ġseveral": 896,
      "Ġmin": 897,
      "Ġtrans": 898,
      "ather": 899,
      "Ġsm": 900,
      "ober": 901,
      "iet": 902,
      "Ġmill": 903,
      "ĠSh": 904,
      "elf": 905,
      "ute": 906,
      "ĠGer": 907,
      "Ġcharac": 908,
      "ower": 909,
      "ise": 910,
      "ĠBr": 911,
      "Ġ16": 912,
      "ool": 913,
      "Ġmil": 914,
      "Ġcentury": 915,
      "ĠInd": 916,
      "Ġgo": 917,
      "Ġcity": 918,
      "Ġ17": 919,
      "Ġstud": 920,
      "ĠJohn": 921,
      "io": 922,
      "Ġcre": 923,
      "ued": 924,
      "Ġcould": 925,
      "ale": 926,
      "ĠWar": 927,
      "Ġthese": 928,
      "ful": 929,
      "Ġalong": 930,
      "Ġsign": 931,
      "Ġdid": 932,
      "Ġ197": 933,
      "ivers": 934,
      "Ġlead": 935,
      "Ġbegan": 936,
      "ier": 937,
      "Ġnear": 938,
      "uch": 939,
      "ative": 940,
      "Ġbr": 941,
      "Ġshow": 942,
      "Ġbel": 943,
      "Ġpol": 944,
      "Ġ15": 945,
      "emb": 946,
      "til": 947,
      "Ġcomple": 948,
      "ually": 949,
      "Ġkm": 950,
      "ross": 951,
      "Ġart": 952,
      "air": 953,
      "ern": 954,
      "ram": 955,
      "Ġwar": 956,
      "ield": 957,
      "ared": 958,
      "Ġ196": 959,
      "Ġ11": 960,
      "ĠMay": 961,
      "Ġoper": 962,
      "ired": 963,
      "Ġter": 964,
      "Ġinf": 965,
      "Ġdesign": 966,
      "Ġmay": 967,
      "ccess": 968,
      "Ġfeat": 969,
      "Ġdep": 970,
      "ople": 971,
      "Ġepisode": 972,
      "une": 973,
      "ains": 974,
      "Ġrun": 975,
      "Ġdif": 976,
      "Ġob": 977,
      "Ġhist": 978,
      "Ġcalled": 979,
      "view": 980,
      "Ġhead": 981,
      "Ġdist": 982,
      "ĠAug": 983,
      "ĠShe": 984,
      "ĠAugust": 985,
      "Ġearly": 986,
      "led": 987,
      "ĠZ": 988,
      "Ġcrit": 989,
      "Ġmat": 990,
      "Ġcar": 991,
      "Ġinst": 992,
      "Ġdown": 993,
      "Ġrece": 994,
      "der": 995,
      "Ġuntil": 996,
      "ann": 997,
      "ange": 998,
      "ĠIs": 999,
      "ting": 1000,
      "ured": 1001,
      "Ġsaid": 1002,
      "Ġreturn": 1003,
      "Ġdescrib": 1004,
      "aking": 1005,
      "ĠUS": 1006,
      "Ġattack": 1007,
      "imes": 1008,
      "ided": 1009,
      "Ġdisc": 1010,
      "Ġland": 1011,
      "Ġarea": 1012,
      "Ġprev": 1013,
      "ments": 1014,
      "ven": 1015,
      "gest": 1016,
      "ajor": 1017,
      "Ġbro": 1018,
      "Ġrep": 1019,
      "Ġthough": 1020,
      "tend": 1021,
      "Ġany": 1022,
      "Ġgovern": 1023,
      "ĠWh": 1024,
      "ient": 1025,
      "Ġair": 1026,
      "Ġown": 1027,
      "erson": 1028,
      "oot": 1029,
      "ially": 1030,
      "Ġaround": 1031,
      "Ġmillion": 1032,
      "Ġnorth": 1033,
      "Ġsmall": 1034,
      "Ġsupport": 1035,
      "iam": 1036,
      "my": 1037,
      "Ġprov": 1038,
      "Ġgroup": 1039,
      "ĠSept": 1040,
      "ized": 1041,
      "Ġsame": 1042,
      "ped": 1043,
      "anc": 1044,
      "Ġlike": 1045,
      "ĠSeptember": 1046,
      "ook": 1047,
      "amed": 1048,
      "Ġgener": 1049,
      "ĠCon": 1050,
      "Ġstr": 1051,
      "Ġconst": 1052,
      "ull": 1053,
      "Ġmusic": 1054,
      "Ġsuccess": 1055,
      "chool": 1056,
      "Ġuse": 1057,
      "Ġstart": 1058,
      "Ġpeople": 1059,
      "Ġcount": 1060,
      "Ġbatt": 1061,
      "stem": 1062,
      "ĠThey": 1063,
      "ep": 1064,
      "Ġwin": 1065,
      "Ġadv": 1066,
      "Ġpass": 1067,
      "Ġeff": 1068,
      "Ġmet": 1069,
      "Ġoffic": 1070,
      "ty": 1071,
      "Ġsix": 1072,
      "ĠFr": 1073,
      "Ġimp": 1074,
      "ĠNorth": 1075,
      "az": 1076,
      "ley": 1077,
      "Ġocc": 1078,
      "Ġopen": 1079,
      "Ġbecause": 1080,
      "ĠBe": 1081,
      "ĠChr": 1082,
      "Ġfollowing": 1083,
      "aced": 1084,
      "xt": 1085,
      "Ġgu": 1086,
      "ible": 1087,
      "Ġreleased": 1088,
      "ĠWorld": 1089,
      "ove": 1090,
      "ropical": 1091,
      "Ġins": 1092,
      "rap": 1093,
      "ivision": 1094,
      "ĠJu": 1095,
      "ists": 1096,
      "Ġsouth": 1097,
      "ĠCol": 1098,
      "wards": 1099,
      "enn": 1100,
      "ĠHowever": 1101,
      "els": 1102,
      "osed": 1103,
      "ĠComm": 1104,
      "Ġlarge": 1105,
      "Ġlife": 1106,
      "gin": 1107,
      "ink": 1108,
      "Ġreport": 1109,
      "ets": 1110,
      "oman": 1111,
      "Ġconsid": 1112,
      "Ġdam": 1113,
      "ĠBl": 1114,
      "ĠAll": 1115,
      "Ġcontro": 1116,
      "hy": 1117,
      "Ġfam": 1118,
      "Ġ195": 1119,
      "aining": 1120,
      "Ġvar": 1121,
      "Ġfive": 1122,
      "ording": 1123,
      "Ġsim": 1124,
      "Ġmod": 1125,
      "ĠSouth": 1126,
      "Ġeach": 1127,
      "oss": 1128,
      "Ġconc": 1129,
      "Ġ13": 1130,
      "ilt": 1131,
      "ĠJune": 1132,
      "ms": 1133,
      "ĠCl": 1134,
      "med": 1135,
      "Ġever": 1136,
      "ĠJan": 1137,
      "Ġsince": 1138,
      "Ġgun": 1139,
      "Ġ191": 1140,
      "ution": 1141,
      "ĠFor": 1142,
      "ĠPl": 1143,
      "Ġann": 1144,
      "erv": 1145,
      "ium": 1146,
      "Ġpoin": 1147,
      "Ġ193": 1148,
      "ĠOct": 1149,
      "ĠCar": 1150,
      "ues": 1151,
      "Ġed": 1152,
      "Ġstate": 1153,
      "Ġweek": 1154,
      "ouse": 1155,
      "Ġprom": 1156,
      "Ġexp": 1157,
      "uc": 1158,
      "ĠII": 1159,
      "aving": 1160,
      "uary": 1161,
      "yl": 1162,
      "ately": 1163,
      "Ġmajor": 1164,
      "Ġcharacter": 1165,
      "ĠMe": 1166,
      "Ġpartic": 1167,
      "Ġdirect": 1168,
      "ĠFe": 1169,
      "ĠStates": 1170,
      "ĠOctober": 1171,
      "Ġclass": 1172,
      "ik": 1173,
      "uth": 1174,
      "Ġsystem": 1175,
      "ole": 1176,
      "avy": 1177,
      "Ġext": 1178,
      "ural": 1179,
      "Ġposition": 1180,
      "ah": 1181,
      "ales": 1182,
      "Ġtook": 1183,
      "ĠEu": 1184,
      "Ġline": 1185,
      "Ġwhat": 1186,
      "Ġfinal": 1187,
      "Ġ%": 1188,
      "Ġstorm": 1189,
      "dom": 1190,
      "row": 1191,
      "Ġ14": 1192,
      "ĠNov": 1193,
      "Ġstru": 1194,
      "ĠJuly": 1195,
      "ony": 1196,
      "Ġ$": 1197,
      "Ġnow": 1198,
      "ified": 1199,
      "Ġreceived": 1200,
      "empt": 1201,
      "ission": 1202,
      "ĠMan": 1203,
      "Ġpublic": 1204,
      "pect": 1205,
      "ideo": 1206,
      "ĠChrist": 1207,
      "Ġwill": 1208,
      "ash": 1209,
      "rote": 1210,
      "cess": 1211,
      "ĠAd": 1212,
      "Ġlast": 1213,
      "ians": 1214,
      "ology": 1215,
      "aim": 1216,
      "Ġtit": 1217,
      "ĠTe": 1218,
      "Ġ[": 1219,
      "Ġ]": 1220,
      "Ġgiv": 1221,
      "Ġjust": 1222,
      "Ġincre": 1223,
      "ple": 1224,
      "tle": 1225,
      "Ġcare": 1226,
      "ĠJanuary": 1227,
      "Ġlate": 1228,
      "Ġgovernment": 1229,
      "Ġrest": 1230,
      "ined": 1231,
      "Ġport": 1232,
      "abl": 1233,
      "Ġplayed": 1234,
      "ĠCan": 1235,
      "Ġmuch": 1236,
      "Ġbuild": 1237,
      "ĠKing": 1238,
      "ats": 1239,
      "Ġname": 1240,
      "Ġty": 1241,
      "Ġcamp": 1242,
      "Ġcommand": 1243,
      "Ġ30": 1244,
      "Ġbook": 1245,
      "ĠApr": 1246,
      "ĠApril": 1247,
      "ĠGu": 1248,
      "Ġappear": 1249,
      "Ġdescribed": 1250,
      "Ġleft": 1251,
      "ĠDuring": 1252,
      "aged": 1253,
      "Ġincluded": 1254,
      "Ġserv": 1255,
      "Ġwon": 1256,
      "ĠHer": 1257,
      "Ġdeath": 1258,
      "ages": 1259,
      "..": 1260,
      "ble": 1261,
      "ility": 1262,
      "Ġhel": 1263,
      "Ġalthough": 1264,
      "Ġresult": 1265,
      "Ġsingle": 1266,
      "ĠYork": 1267,
      "Ġappro": 1268,
      "ball": 1269,
      "Ġworld": 1270,
      "ently": 1271,
      "ively": 1272,
      "Ġattempt": 1273,
      "urther": 1274,
      "ĠJap": 1275,
      "ored": 1276,
      "ĠJapan": 1277,
      "ague": 1278,
      "Ġ...": 1279,
      "ĠTr": 1280,
      "Ġ25": 1281,
      "Ġkill": 1282,
      "Ġdue": 1283,
      "ina": 1284,
      "Ġconf": 1285,
      "Ġwithin": 1286,
      "Ġposs": 1287,
      "iod": 1288,
      "Ġold": 1289,
      "Ġbased": 1290,
      "Ġref": 1291,
      "Ġthird": 1292,
      "Ġshort": 1293,
      "ctions": 1294,
      "Ġarr": 1295,
      "Ġdr": 1296,
      "ĠNovember": 1297,
      "Ġif": 1298,
      "ional": 1299,
      "Ġorgan": 1300,
      "mber": 1301,
      "Ġway": 1302,
      "Ġmen": 1303,
      "ants": 1304,
      "rench": 1305,
      "ĠRo": 1306,
      "Ġresp": 1307,
      "Ġbuilt": 1308,
      "Ġturn": 1309,
      "ically": 1310,
      "Ġeven": 1311,
      "Ġestabl": 1312,
      "ĠEuro": 1313,
      "Ġnamed": 1314,
      "cember": 1315,
      "ody": 1316,
      "ĠDecember": 1317,
      "ĠGerman": 1318,
      "arl": 1319,
      "Ġallow": 1320,
      "ital": 1321,
      "Ġbelie": 1322,
      "Ġschool": 1323,
      "itary": 1324,
      "Ġwrote": 1325,
      "Ġanother": 1326,
      "Ġevent": 1327,
      "Ġhome": 1328,
      "ĠFrench": 1329,
      "Ġ192": 1330,
      "ĠPro": 1331,
      "ĠMarch": 1332,
      "omin": 1333,
      "akes": 1334,
      "Ġtrack": 1335,
      "Ġvers": 1336,
      "Ġspecies": 1337,
      "ery": 1338,
      "Ġvideo": 1339,
      "Ġvery": 1340,
      "hel": 1341,
      "Ġperson": 1342,
      "Ġsl": 1343,
      "Ġtri": 1344,
      "Ġpower": 1345,
      "Ġtop": 1346,
      "Ġvis": 1347,
      "Ġprevious": 1348,
      "ĠThere": 1349,
      "Ġgames": 1350,
      "ript": 1351,
      "Ġsent": 1352,
      "Ġthose": 1353,
      "ĠBy": 1354,
      "ĠBatt": 1355,
      "ĠEurope": 1356,
      "Ġ100": 1357,
      "ins": 1358,
      "Ġmar": 1359,
      "Ġplace": 1360,
      "ops": 1361,
      "ax": 1362,
      "Ġdiffer": 1363,
      "ret": 1364,
      "Ġchild": 1365,
      "ides": 1366,
      "Ġrequ": 1367,
      "Ġperiod": 1368,
      "ives": 1369,
      "ĠNational": 1370,
      "Ġcour": 1371,
      "ached": 1372,
      "raft": 1373,
      "Ġmonth": 1374,
      "ism": 1375,
      "ched": 1376,
      "Ġhal": 1377,
      "ĠRiver": 1378,
      "ulation": 1379,
      "Ġ2010": 1380,
      "Ġcolle": 1381,
      "get": 1382,
      "Ã©": 1383,
      "ature": 1384,
      "Ġrepl": 1385,
      "ĠCity": 1386,
      "ances": 1387,
      "ĠGe": 1388,
      "ĠWhen": 1389,
      "Ġled": 1390,
      "Ġcapt": 1391,
      "Ġopp": 1392,
      "idge": 1393,
      "aken": 1394,
      "Ġeng": 1395,
      "iversity": 1396,
      "Ġconstru": 1397,
      "ĠNo": 1398,
      "por": 1399,
      "Ġwind": 1400,
      "Ġhand": 1401,
      "ner": 1402,
      "Ġlit": 1403,
      "urric": 1404,
      "uss": 1405,
      "Ġcontinued": 1406,
      "Ġcame": 1407,
      "Ġwest": 1408,
      "Ġreview": 1409,
      "ences": 1410,
      "Ġmake": 1411,
      "ĠSp": 1412,
      "pend": 1413,
      "ĠQ": 1414,
      "ĠMus": 1415,
      "Ġforces": 1416,
      "Ġexpl": 1417,
      "Ġlist": 1418,
      "ĠPh": 1419,
      "Ġprog": 1420,
      "Ġdest": 1421,
      "ĠHis": 1422,
      "Ġcaus": 1423,
      "Ġmark": 1424,
      "ience": 1425,
      "Ġbest": 1426,
      "ented": 1427,
      "Ġlocal": 1428,
      "ĠEngland": 1429,
      "riend": 1430,
      "Ġ2008": 1431,
      "eder": 1432,
      "Ġrole": 1433,
      "ograp": 1434,
      "oci": 1435,
      "Ġoriginal": 1436,
      "by": 1437,
      "Ġbas": 1438,
      "Ġmoved": 1439,
      "self": 1440,
      "hest": 1441,
      "Ġhum": 1442,
      "ĠAnd": 1443,
      "ival": 1444,
      "ĠDivision": 1445,
      "ards": 1446,
      "Ġfew": 1447,
      "ilar": 1448,
      "astern": 1449,
      "uted": 1450,
      "Ġfamily": 1451,
      "Ġwater": 1452,
      "elt": 1453,
      "ĠÂ": 1454,
      "ont": 1455,
      "ention": 1456,
      "ĠChurch": 1457,
      "Ġhistory": 1458,
      "Ġcr": 1459,
      "Ġclaim": 1460,
      "Ġnext": 1461,
      "Ġgreat": 1462,
      "oung": 1463,
      "Ġiss": 1464,
      "ene": 1465,
      "Ġstill": 1466,
      "Ġaddition": 1467,
      "ged": 1468,
      "Ġleg": 1469,
      "Ġside": 1470,
      "ense": 1471,
      "Ġeast": 1472,
      "ĠGr": 1473,
      "Ġsold": 1474,
      "Ġview": 1475,
      "Ġinit": 1476,
      "Ġheld": 1477,
      "ior": 1478,
      "Ġfurther": 1479,
      "Ġsug": 1480,
      "side": 1481,
      "Ġtown": 1482,
      "Ġstory": 1483,
      "ĠComp": 1484,
      "Ġtem": 1485,
      "Ġmed": 1486,
      "embers": 1487,
      "Ġtro": 1488,
      "Ġoften": 1489,
      "ison": 1490,
      "Ġnort": 1491,
      "Ġright": 1492,
      "Ġcover": 1493,
      "Ġmid": 1494,
      "aff": 1495,
      "Ġtropical": 1496,
      "Ġbre": 1497,
      "Ġprote": 1498,
      "Ġ2009": 1499,
      "gy": 1500,
      "ling": 1501,
      "Ġformer": 1502,
      "ĠPr": 1503,
      "Ġdem": 1504,
      "Ġauth": 1505,
      "ĠSte": 1506,
      "ady": 1507,
      "ĠBo": 1508,
      "aster": 1509,
      "Ġstand": 1510,
      "Ġinfl": 1511,
      "aur": 1512,
      "arr": 1513,
      "Ġroad": 1514,
      "Ġeffect": 1515,
      "ese": 1516,
      "Ġtrad": 1517,
      "atter": 1518,
      "Ġplayer": 1519,
      "ront": 1520,
      "oon": 1521,
      "ĠOne": 1522,
      "urricane": 1523,
      "ĠCount": 1524,
      "Ġjoin": 1525,
      "Ġstrong": 1526,
      "Ġconsidered": 1527,
      "Ġdeb": 1528,
      "Ġexper": 1529,
      "ĠAustralian": 1530,
      "ler": 1531,
      "iving": 1532,
      "ĠGener": 1533,
      "Ġcareer": 1534,
      "bru": 1535,
      "Ġcontr": 1536,
      "ĠWith": 1537,
      "Ġsuggest": 1538,
      "min": 1539,
      "ĠAcc": 1540,
      "Ġmilitary": 1541,
      "tended": 1542,
      "rew": 1543,
      "Ġrefer": 1544,
      "ternational": 1545,
      "Ġbegin": 1546,
      "ĠFebru": 1547,
      "ĠFebruary": 1548,
      "Ġsay": 1549,
      "Ġhowever": 1550,
      "Ġhalf": 1551,
      "ories": 1552,
      "lev": 1553,
      "Ġph": 1554,
      "Ġplan": 1555,
      "Ġ2011": 1556,
      "ĠBro": 1557,
      "Ġ23": 1558,
      "Ġmy": 1559,
      "Ġcommun": 1560,
      "ampions": 1561,
      "ps": 1562,
      "ĠWill": 1563,
      "Ġtake": 1564,
      "estern": 1565,
      "ĠOr": 1566,
      "Ġdefe": 1567,
      "ham": 1568,
      "Ġarch": 1569,
      "Ġband": 1570,
      "Ġlevel": 1571,
      "Ġ2007": 1572,
      "Ġmatch": 1573,
      "Ġreal": 1574,
      "Ġyou": 1575,
      "Ġdel": 1576,
      "Ġwithout": 1577,
      "Ġ2006": 1578,
      "itar": 1579,
      "alion": 1580,
      "Ġtot": 1581,
      "Ġ21": 1582,
      "Ġpolit": 1583,
      "Ġrepres": 1584,
      "Ġimport": 1585,
      "alk": 1586,
      "Ġes": 1587,
      "ĠAlthough": 1588,
      "Ġreported": 1589,
      "Ġevery": 1590,
      "ĠAccording": 1591,
      "Ġmembers": 1592,
      "Ġvict": 1593,
      "Ġchang": 1594,
      "ness": 1595,
      "Ġfire": 1596,
      "Ġcompany": 1597,
      "ung": 1598,
      "eng": 1599,
      "amb": 1600,
      "Ġbeh": 1601,
      "ĠWe": 1602,
      "ĠFl": 1603,
      "yle": 1604,
      "let": 1605,
      "Ġcommon": 1606,
      "Ġamong": 1607,
      "Ġparticular": 1608,
      "mp": 1609,
      "Ġtw": 1610,
      "Ġav": 1611,
      "Ġ24": 1612,
      "Ġlow": 1613,
      "thing": 1614,
      "ae": 1615,
      "Ġ22": 1616,
      "roy": 1617,
      "Ġfind": 1618,
      "Ġships": 1619,
      "Ġsimilar": 1620,
      "pite": 1621,
      "ĠMc": 1622,
      "Ġtitle": 1623,
      "Ġlost": 1624,
      "Ġclub": 1625,
      "ensive": 1626,
      "Ġstat": 1627,
      "Ġdays": 1628,
      "ĠAustralia": 1629,
      "ai": 1630,
      "Ġorder": 1631,
      "Ġinvol": 1632,
      "ĠCanad": 1633,
      "par": 1634,
      "ression": 1635,
      "Ġrelease": 1636,
      "lear": 1637,
      "ne": 1638,
      "ister": 1639,
      "Ġprop": 1640,
      "ĠGeneral": 1641,
      "Ġfr": 1642,
      "ots": 1643,
      "arch": 1644,
      "Ġ2012": 1645,
      "Ġsongs": 1646,
      "Ġstar": 1647,
      "hern": 1648,
      "Ġcompet": 1649,
      "iment": 1650,
      "ĠState": 1651,
      "ĠMin": 1652,
      "Ġdifferent": 1653,
      "ves": 1654,
      "ĠPe": 1655,
      "iety": 1656,
      "fric": 1657,
      "Ġ26": 1658,
      "que": 1659,
      "Ġsit": 1660,
      "Ġrecorded": 1661,
      "Ġwritten": 1662,
      "ĠThese": 1663,
      "Ġant": 1664,
      "Ġcomb": 1665,
      "ried": 1666,
      "ĠEd": 1667,
      "ĠCent": 1668,
      "aces": 1669,
      "ott": 1670,
      "sequ": 1671,
      "ches": 1672,
      "omet": 1673,
      "Ġord": 1674,
      "ering": 1675,
      "Ġfoot": 1676,
      "Ġpar": 1677,
      "iron": 1678,
      "rodu": 1679,
      "Ġgave": 1680,
      "Ġsignific": 1681,
      "ead": 1682,
      "augh": 1683,
      "ĠMich": 1684,
      "ĠPort": 1685,
      "Ġinclude": 1686,
      "lish": 1687,
      "ĠPer": 1688,
      "ĠEar": 1689,
      "Ġpublished": 1690,
      "Ġtimes": 1691,
      "Ġless": 1692,
      "ĠDes": 1693,
      "quad": 1694,
      "raw": 1695,
      "Ġcontrol": 1696,
      "bs": 1697,
      "Ġwant": 1698,
      "Ġinflu": 1699,
      "Ġft": 1700,
      "Ġpat": 1701,
      "Ġfre": 1702,
      "Ġfield": 1703,
      "Ġpost": 1704,
      "Ġdecl": 1705,
      "Ġbecome": 1706,
      "Ġnever": 1707,
      "Ġcur": 1708,
      "ploy": 1709,
      "ĠEnglish": 1710,
      "Ġpopular": 1711,
      "Ġmiles": 1712,
      "Ġgiven": 1713,
      "Ġcountry": 1714,
      "ampionship": 1715,
      "ailed": 1716,
      "Ġmaking": 1717,
      "ĠPark": 1718,
      "Ġtoo": 1719,
      "Ġhaving": 1720,
      "Ġtotal": 1721,
      "rest": 1722,
      "Ġeight": 1723,
      "Ġfore": 1724,
      "Ġlight": 1725,
      "pec": 1726,
      "Ġversion": 1727,
      "ĠRoman": 1728,
      "Ġproduced": 1729,
      "ĠGeor": 1730,
      "itions": 1731,
      "levision": 1732,
      "outher": 1733,
      "ĠAm": 1734,
      "ĠSong": 1735,
      "Ġel": 1736,
      "igade": 1737,
      "outhern": 1738,
      "antry": 1739,
      "rent": 1740,
      "Ġproduction": 1741,
      "Ġdevelopment": 1742,
      "Ġcritic": 1743,
      "Ġhour": 1744,
      "Ġ28": 1745,
      "Ġstruct": 1746,
      "Ġauthor": 1747,
      "Ġmag": 1748,
      "Ġforce": 1749,
      "Ġ2013": 1750,
      "reet": 1751,
      "ĠPar": 1752,
      "ize": 1753,
      "ĠUniversity": 1754,
      "aly": 1755,
      "ĠAfric": 1756,
      "Ġequ": 1757,
      "Ġ27": 1758,
      "reen": 1759,
      "ĠBar": 1760,
      "vers": 1761,
      "ape": 1762,
      "Ġarm": 1763,
      "Ġdeveloped": 1764,
      "Ġsignificant": 1765,
      "craft": 1766,
      "Ġ&": 1767,
      "Ġstated": 1768,
      "ĠWest": 1769,
      "Ġreturned": 1770,
      "fic": 1771,
      "ither": 1772,
      "Ġseen": 1773,
      "ĠAss": 1774,
      "aul": 1775,
      "Ġsite": 1776,
      "Ġpress": 1777,
      "Ġobs": 1778,
      "Ġsol": 1779,
      "used": 1780,
      "enc": 1781,
      "ception": 1782,
      "ĠWhile": 1783,
      "Ġnight": 1784,
      "Ġproject": 1785,
      "Ġhistor": 1786,
      "Ġaff": 1787,
      "inc": 1788,
      "Ġfriend": 1789,
      "ades": 1790,
      "ĠAng": 1791,
      "Ġguns": 1792,
      "Ġannoun": 1793,
      "Ġreached": 1794,
      "ĠMiss": 1795,
      "Ġpoint": 1796,
      "Ġdestroy": 1797,
      "urs": 1798,
      "reek": 1799,
      "ĠCounty": 1800,
      "be": 1801,
      "Ġ!": 1802,
      "Ġlim": 1803,
      "Ġperformance": 1804,
      "ctor": 1805,
      "Ġhimself": 1806,
      "ĠJapanese": 1807,
      "ĠRoad": 1808,
      "Ġestablished": 1809,
      "ĠWilliam": 1810,
      "aign": 1811,
      "ĠX": 1812,
      "ĠAir": 1813,
      "ising": 1814,
      "Ġground": 1815,
      "ĠReg": 1816,
      "Ġacross": 1817,
      "Ġpresent": 1818,
      "sh": 1819,
      "Ġdiv": 1820,
      "ĠRoy": 1821,
      "Ġformed": 1822,
      "Ġfar": 1823,
      "Ġfact": 1824,
      "Ġla": 1825,
      "Ġlaw": 1826,
      "Ġpopulation": 1827,
      "ger": 1828,
      "Ġcult": 1829,
      "Ġdet": 1830,
      "ices": 1831,
      "imately": 1832,
      "ĠRich": 1833,
      "vent": 1834,
      "Ġcross": 1835,
      "Ġchart": 1836,
      "Ġsoc": 1837,
      "Ġpain": 1838,
      "Ġnov": 1839,
      "Ġisland": 1840,
      "aves": 1841,
      "Ġ50": 1842,
      "ĠAmerica": 1843,
      "Ġpit": 1844,
      "omen": 1845,
      "ivil": 1846,
      "ĠDav": 1847,
      "Ġrad": 1848,
      "line": 1849,
      "ream": 1850,
      "Ġthought": 1851,
      "Ġsuccessful": 1852,
      "Ġbattle": 1853,
      "arn": 1854,
      "Ġste": 1855,
      "ably": 1856,
      "Ġmodern": 1857,
      "Ġide": 1858,
      "atic": 1859,
      "Ġfront": 1860,
      "Ġ190": 1861,
      "Ġyoung": 1862,
      "Ġusing": 1863,
      "ĠLeague": 1864,
      "Ġcy": 1865,
      "osp": 1866,
      "Ġearl": 1867,
      "ĠCompany": 1868,
      "ones": 1869,
      "Ġwent": 1870,
      "Ġfight": 1871,
      "Ġfelt": 1872,
      "ĠJack": 1873,
      "Ġprof": 1874,
      "Ġmanag": 1875,
      "Ġlocated": 1876,
      "Ġchildren": 1877,
      "most": 1878,
      "chn": 1879,
      "Ġhig": 1880,
      "Ġhow": 1881,
      "ĠOld": 1882,
      "Ġprim": 1883,
      "Ġkilled": 1884,
      "ĠPol": 1885,
      "ief": 1886,
      "Ġwat": 1887,
      "Ġbody": 1888,
      "ĠSim": 1889,
      "ument": 1890,
      "Ġneed": 1891,
      "Ġfeet": 1892,
      "Ġpeak": 1893,
      "ground": 1894,
      "Ġ29": 1895,
      "ĠLond": 1896,
      "ĠLondon": 1897,
      "Ġaway": 1898,
      "isted": 1899,
      "Ġvarious": 1900,
      "Ġcaused": 1901,
      "me": 1902,
      "yn": 1903,
      "Ġrange": 1904,
      "ublic": 1905,
      "Ġintrodu": 1906,
      "Ġprogram": 1907,
      "ask": 1908,
      "ĠAb": 1909,
      "Ġstyle": 1910,
      "Ġsuff": 1911,
      "Ġnoted": 1912,
      "Ġsurv": 1913,
      "Ġgood": 1914,
      "Ġareas": 1915,
      "Ġfull": 1916,
      "Ġgod": 1917,
      "Ġgen": 1918,
      "ological": 1919,
      "ĠPhil": 1920,
      "ration": 1921,
      "ges": 1922,
      "ox": 1923,
      "alth": 1924,
      "ĠJames": 1925,
      "ĠChar": 1926,
      "play": 1927,
      "Ġremained": 1928,
      "Ġcoast": 1929,
      "work": 1930,
      "reland": 1931,
      "Ġdied": 1932,
      "ĠIreland": 1933,
      "Ġperformed": 1934,
      "Ġdiscover": 1935,
      "Ġcreated": 1936,
      "Ġofficial": 1937,
      "idence": 1938,
      "utes": 1939,
      "ĠArmy": 1940,
      "Ġfather": 1941,
      "Ġlook": 1942,
      "Ġchurch": 1943,
      "Ġthroughout": 1944,
      "ec": 1945,
      "iers": 1946,
      "Ġpra": 1947,
      "Ġshould": 1948,
      "Ġget": 1949,
      "Ġwriting": 1950,
      "Ġimportant": 1951,
      "na": 1952,
      "omb": 1953,
      "Ġplayers": 1954,
      "Ġblack": 1955,
      "quadron": 1956,
      "Ġten": 1957,
      "Ġput": 1958,
      "Ġnational": 1959,
      "Ġregion": 1960,
      "Ġage": 1961,
      "Ġmm": 1962,
      "Ġwhite": 1963,
      "Ġke": 1964,
      "ords": 1965,
      "Ġ189": 1966,
      "Ġactiv": 1967,
      "ĠScient": 1968,
      "fall": 1969,
      "Ġcas": 1970,
      "Ġheavy": 1971,
      "Ġpoem": 1972,
      "Ġtour": 1973,
      "Ġbuilding": 1974,
      "ope": 1975,
      "itted": 1976,
      "ster": 1977,
      "ĠBut": 1978,
      "ĠHigh": 1979,
      "Ġtroops": 1980,
      "Ġcor": 1981,
      "ĠTo": 1982,
      "ĠIsland": 1983,
      "Ġhuman": 1984,
      "nt": 1985,
      "Ġsk": 1986,
      "ĠDyl": 1987,
      "Ġtelevision": 1988,
      "ĠDylan": 1989,
      "ying": 1990,
      "reg": 1991,
      "acy": 1992,
      "ĠNe": 1993,
      "Ġprot": 1994,
      "Ġcert": 1995,
      "oll": 1996,
      "ĠRou": 1997,
      "Ġ2005": 1998,
      "Ġserved": 1999,
      "Ġevents": 2000,
      "ĠRec": 2001,
      "Ġhighway": 2002,
      "Ġentire": 2003,
      "Ġcampaign": 2004,
      "Ġlik": 2005,
      "ĠCal": 2006,
      "Ġtrav": 2007,
      "Ġtyp": 2008,
      "tain": 2009,
      "Ġbar": 2010,
      "ĠHist": 2011,
      "ĠFeder": 2012,
      "ico": 2013,
      "ĠCare": 2014,
      "ĠHa": 2015,
      "Ġ2004": 2016,
      "Ġconstruction": 2017,
      "ael": 2018,
      "Ġfav": 2019,
      "ĠYou": 2020,
      "Ġstarted": 2021,
      "Ġcast": 2022,
      "Ġfem": 2023,
      "Ġread": 2024,
      "ĠCor": 2025,
      "Ġsee": 2026,
      "Ġseven": 2027,
      "ĠâĢĻ": 2028,
      "Ġothers": 2029,
      "Ġinterest": 2030,
      "Ġdoes": 2031,
      "Ġoriginally": 2032,
      "Ġpolitical": 2033,
      "Ġfig": 2034,
      "ford": 2035,
      "ping": 2036,
      "irc": 2037,
      "Ġpromot": 2038,
      "iness": 2039,
      "Ġmix": 2040,
      "Ġhouse": 2041,
      "Ġdamage": 2042,
      "ĠBlack": 2043,
      "enced": 2044,
      "Ġpri": 2045,
      "Ġstri": 2046,
      "Ġprocess": 2047,
      "ĠRoute": 2048,
      "int": 2049,
      "onom": 2050,
      "Ġsound": 2051,
      "Ġrelig": 2052,
      "ination": 2053,
      "Ġmeet": 2054,
      "au": 2055,
      "ĠRober": 2056,
      "ĠEv": 2057,
      "ourn": 2058,
      "Ġ31": 2059,
      "Ġfollowed": 2060,
      "ĠBattalion": 2061,
      "br": 2062,
      "Ġcat": 2063,
      "asing": 2064,
      "ected": 2065,
      "Ġproduc": 2066,
      "Ġmonths": 2067,
      "itive": 2068,
      "Ġbus": 2069,
      "Ġonce": 2070,
      "Ġworks": 2071,
      "Ġdiffic": 2072,
      "Ġdifficult": 2073,
      "ament": 2074,
      "ĠSec": 2075,
      "ĠRoyal": 2076,
      "ĠEl": 2077,
      "ishing": 2078,
      "Ġroute": 2079,
      "ample": 2080,
      "Ġrelations": 2081,
      "ĠKingdom": 2082,
      "Ġannounced": 2083,
      "Ġable": 2084,
      "Ġtechn": 2085,
      "uck": 2086,
      "orse": 2087,
      "iting": 2088,
      "Ġcond": 2089,
      "ressed": 2090,
      "Ġestim": 2091,
      "mar": 2092,
      "Ġer": 2093,
      "Ġround": 2094,
      "ogn": 2095,
      "Ġoccur": 2096,
      "Ġtradition": 2097,
      "Ġsum": 2098,
      "ĠMag": 2099,
      "Ġcomment": 2100,
      "rie": 2101,
      "Ġking": 2102,
      "Ġcompleted": 2103,
      "bo": 2104,
      "Ġcou": 2105,
      "ald": 2106,
      "odes": 2107,
      "rick": 2108,
      "Ġident": 2109,
      "ivid": 2110,
      "Ġrank": 2111,
      "af": 2112,
      "isc": 2113,
      "leet": 2114,
      "oming": 2115,
      "Ġlet": 2116,
      "epend": 2117,
      "Ġhold": 2118,
      "Ġhurricane": 2119,
      "ĠSome": 2120,
      "ization": 2121,
      "Ġservice": 2122,
      "Ġaction": 2123,
      "ĠTown": 2124,
      "Ġagre": 2125,
      "rict": 2126,
      "ĠAtl": 2127,
      "Ġfeatures": 2128,
      "ĠOther": 2129,
      "Ġval": 2130,
      "Ġspecial": 2131,
      "Ġcharacters": 2132,
      "Ġbehind": 2133,
      "Ġtaken": 2134,
      "Ġson": 2135,
      "Ġfun": 2136,
      "Ġredu": 2137,
      "ĠCro": 2138,
      "Ġknow": 2139,
      "Ġdecided": 2140,
      "Ġche": 2141,
      "Ġleast": 2142,
      "Ġrock": 2143,
      "Ġaccom": 2144,
      "Ġball": 2145,
      "Ġpred": 2146,
      "Ġmi": 2147,
      "Ġvill": 2148,
      "ipp": 2149,
      "Ġnovel": 2150,
      "day": 2151,
      "Ġlack": 2152,
      "ĠPal": 2153,
      "rought": 2154,
      "Ġassoci": 2155,
      "Ġadded": 2156,
      "Ġfif": 2157,
      "Ġloss": 2158,
      "Ġec": 2159,
      "Ġ40": 2160,
      "Ġ188": 2161,
      "Ġlittle": 2162,
      "gr": 2163,
      "here": 2164,
      "heast": 2165,
      "antic": 2166,
      "ĠSup": 2167,
      "Ġsouthern": 2168,
      "Ġtowards": 2169,
      "Ġred": 2170,
      "Ġeastern": 2171,
      "Ġenc": 2172,
      "Ġgrow": 2173,
      "Ġinstead": 2174,
      "ĠTwo": 2175,
      "abor": 2176,
      "Ġclose": 2177,
      "eal": 2178,
      "Ġsaw": 2179,
      "ĠBill": 2180,
      "Ġ2003": 2181,
      "Ġ185": 2182,
      "ountain": 2183,
      "Ġsubsequ": 2184,
      "Ġfourth": 2185,
      "Ġbase": 2186,
      "Ġmass": 2187,
      "ĠWales": 2188,
      "ought": 2189,
      "aching": 2190,
      "emy": 2191,
      "ounted": 2192,
      "ĠRep": 2193,
      "ality": 2194,
      "Ġgl": 2195,
      "Ġfeatured": 2196,
      "ĠDavid": 2197,
      "ington": 2198,
      "Ġrev": 2199,
      "ays": 2200,
      "ries": 2201,
      "Ġaircraft": 2202,
      "ĠFrance": 2203,
      "Ġsw": 2204,
      "Ġwife": 2205,
      "Ġbird": 2206,
      "Ġalmost": 2207,
      "Ġaud": 2208,
      "ush": 2209,
      "ements": 2210,
      "Ġ2015": 2211,
      "ĠMex": 2212,
      "Ġlive": 2213,
      "Ġeither": 2214,
      "Ġintens": 2215,
      "igned": 2216,
      "Ġappoin": 2217,
      "Ġappeared": 2218,
      "Ġbroad": 2219,
      "Ġmother": 2220,
      "acing": 2221,
      "Ġstage": 2222,
      "ĠGl": 2223,
      "Ġriver": 2224,
      "Ġplaying": 2225,
      "Ġweeks": 2226,
      "Ġeventually": 2227,
      "Ġtre": 2228,
      "ĠSan": 2229,
      "ĠSom": 2230,
      "Ġrul": 2231,
      "Ġproble": 2232,
      "Ġsuper": 2233,
      "angu": 2234,
      "ĠBrigade": 2235,
      "Ġprovided": 2236,
      "medi": 2237,
      "Ġrepresent": 2238,
      "Ġlaun": 2239,
      "ĠScientology": 2240,
      "oice": 2241,
      "Ġfort": 2242,
      "ounc": 2243,
      "west": 2244,
      "Ġaward": 2245,
      "Ġborn": 2246,
      "lect": 2247,
      "Ġrather": 2248,
      "ĠKe": 2249,
      "ator": 2250,
      "Ġmor": 2251,
      "Ġclos": 2252,
      "Ġ186": 2253,
      "Ġfall": 2254,
      "ĠPres": 2255,
      "Ġanim": 2256,
      "ĠOl": 2257,
      "Ġrecogn": 2258,
      "Ġcritics": 2259,
      "Ġcourt": 2260,
      "Ġwinds": 2261,
      "Ġiron": 2262,
      "Ġcirc": 2263,
      "icated": 2264,
      "ĠFirst": 2265,
      "Ġwomen": 2266,
      "Ġcut": 2267,
      "Ġhit": 2268,
      "ully": 2269,
      "Ġsepar": 2270,
      "Ġplaced": 2271,
      "Ġarg": 2272,
      "Ġupon": 2273,
      "Ġcentral": 2274,
      "Ġindivid": 2275,
      "Ġimpro": 2276,
      "Ġappearance": 2277,
      "Ġnorthern": 2278,
      "Ġtest": 2279,
      "Ġmiss": 2280,
      "Ġconv": 2281,
      "aval": 2282,
      "ency": 2283,
      "ĠCarey": 2284,
      "Ġask": 2285,
      "ĠStreet": 2286,
      "Ġoperations": 2287,
      "ĠMusic": 2288,
      "dle": 2289,
      "uation": 2290,
      "ĠMor": 2291,
      "Ġvol": 2292,
      "Ġcrew": 2293,
      "Ġdirector": 2294,
      "off": 2295,
      "ota": 2296,
      "ĠInternational": 2297,
      "ĠChampionship": 2298,
      "Ġrespect": 2299,
      "ĠMon": 2300,
      "Ġve": 2301,
      "Ġvoc": 2302,
      "Ġeffort": 2303,
      "ned": 2304,
      "Ġnon": 2305,
      "ĠGod": 2306,
      "ĠEast": 2307,
      "Ġ500": 2308,
      "Ġdesigned": 2309,
      "Ġbelieved": 2310,
      "omes": 2311,
      "Ġstars": 2312,
      "Ġexample": 2313,
      "Ġ35": 2314,
      "Ġunits": 2315,
      "Ġmove": 2316,
      "ĠIndian": 2317,
      "Ġmph": 2318,
      "Ġcommer": 2319,
      "Ġgoal": 2320,
      "Ġsour": 2321,
      "Ġwall": 2322,
      "Ġce": 2323,
      "asion": 2324,
      "Ġhost": 2325,
      "olution": 2326,
      "Ġgeneral": 2327,
      "azine": 2328,
      "Ġrespons": 2329,
      "Ġbrought": 2330,
      "ĠJew": 2331,
      "Ġra": 2332,
      "aper": 2333,
      "action": 2334,
      "Ġlargest": 2335,
      "ĠGerm": 2336,
      "field": 2337,
      "ĠDu": 2338,
      "ĠEx": 2339,
      "Ġscored": 2340,
      "Ġaccept": 2341,
      "Ġrelationship": 2342,
      "Ġmember": 2343,
      "Ġreve": 2344,
      "ille": 2345,
      "ĠSy": 2346,
      "Ġstren": 2347,
      "ĠHen": 2348,
      "ĠHam": 2349,
      "ĠFollow": 2350,
      "ĠEuropean": 2351,
      "ique": 2352,
      "ĠPaul": 2353,
      "ĠFin": 2354,
      "Ġvictory": 2355,
      "ĠFollowing": 2356,
      "eum": 2357,
      "Äģ": 2358,
      "Ġcreat": 2359,
      "Ġnuc": 2360,
      "Ġleading": 2361,
      "oo": 2362,
      "atin": 2363,
      "Ġtoget": 2364,
      "Ġdou": 2365,
      "ĠSw": 2366,
      "Ġey": 2367,
      "ĠIm": 2368,
      "ĠBer": 2369,
      "ĠFrom": 2370,
      "Ġdefend": 2371,
      "ĠBritain": 2372,
      "Ġinvest": 2373,
      "Ġdirected": 2374,
      "Ġcurrent": 2375,
      "Ġtogether": 2376,
      "Ġlangu": 2377,
      "ĠHar": 2378,
      "ĠViet": 2379,
      "Ġmean": 2380,
      "Ġhours": 2381,
      "Ġforced": 2382,
      "ĠHill": 2383,
      "Ġfinished": 2384,
      "ĠChristian": 2385,
      "Ġparticularly": 2386,
      "Ġwanted": 2387,
      "ring": 2388,
      "Ġsex": 2389,
      "hys": 2390,
      "Ġstreng": 2391,
      "erous": 2392,
      "urb": 2393,
      "ĠMer": 2394,
      "ceed": 2395,
      "Ġexc": 2396,
      "Ġmeas": 2397,
      "Ġflood": 2398,
      "Ġpossible": 2399,
      "ĠRobert": 2400,
      "ÃŃ": 2401,
      "Ġaver": 2402,
      "chie": 2403,
      "ĠInf": 2404,
      "iation": 2405,
      "ze": 2406,
      "ĠMad": 2407,
      "Ġcondu": 2408,
      "Ġquick": 2409,
      "Ġindust": 2410,
      "Ã¡": 2411,
      "Ġhy": 2412,
      "Ġoutside": 2413,
      "Ġterrit": 2414,
      "Ġopened": 2415,
      "Ġhelp": 2416,
      "arliam": 2417,
      "Ġcycl": 2418,
      "Ġearlier": 2419,
      "ĠCo": 2420,
      "ĠThom": 2421,
      "Ġcoll": 2422,
      "Ġsaying": 2423,
      "ĠDespite": 2424,
      "ouncil": 2425,
      "read": 2426,
      "Ġwid": 2427,
      "Ġcase": 2428,
      "Ġfoc": 2429,
      "Ġstation": 2430,
      "ĠNY": 2431,
      "osaur": 2432,
      "ession": 2433,
      "Ġ187": 2434,
      "ways": 2435,
      "Ġregular": 2436,
      "Ġallowed": 2437,
      "Ġengine": 2438,
      "Ġavail": 2439,
      "hic": 2440,
      "ties": 2441,
      "Ġhon": 2442,
      "ĠIr": 2443,
      "ellow": 2444,
      "ports": 2445,
      "Ġworking": 2446,
      "Ġgenerally": 2447,
      "arliament": 2448,
      "ĠSer": 2449,
      "Ġexist": 2450,
      "Ġshot": 2451,
      "ounter": 2452,
      "ĠZeal": 2453,
      "ĠZealand": 2454,
      "AA": 2455,
      "Ġdeter": 2456,
      "Ġsequ": 2457,
      "iction": 2458,
      "Ġelect": 2459,
      "Ġemb": 2460,
      "iol": 2461,
      "Ġill": 2462,
      "artment": 2463,
      "ude": 2464,
      "Ġmetres": 2465,
      "Ġreplaced": 2466,
      "Ġjoined": 2467,
      "cast": 2468,
      "oid": 2469,
      "Ġcost": 2470,
      "ania": 2471,
      "Ġthink": 2472,
      "ĠRuss": 2473,
      "ĠPac": 2474,
      "Ġdev": 2475,
      "Ġsoon": 2476,
      "Ġemploy": 2477,
      "Ġpoints": 2478,
      "Ġinvolved": 2479,
      "Ġestimated": 2480,
      "ĠRepublic": 2481,
      "aut": 2482,
      "cher": 2483,
      "Ġachie": 2484,
      "Ġclear": 2485,
      "Ġmater": 2486,
      "Ġcondom": 2487,
      "Ġevidence": 2488,
      "Ġworked": 2489,
      "Ġelements": 2490,
      "sel": 2491,
      "Ġfund": 2492,
      "ĠCup": 2493,
      "ĠMark": 2494,
      "Ġseem": 2495,
      "elling": 2496,
      "Ġ2014": 2497,
      "Ġgold": 2498,
      "emor": 2499,
      "ĠDep": 2500,
      "Ġopening": 2501,
      "Ġincreased": 2502,
      "ography": 2503,
      "Ġclaimed": 2504,
      "Ġyards": 2505,
      "Ġ2001": 2506,
      "ĠWhite": 2507,
      "cript": 2508,
      "ray": 2509,
      "Ġren": 2510,
      "ential": 2511,
      "ĠAct": 2512,
      "ĠHouse": 2513,
      "ĠWal": 2514,
      "ĠChines": 2515,
      "ributed": 2516,
      "ĠChinese": 2517,
      "cial": 2518,
      "Ġcivil": 2519,
      "stit": 2520,
      "ĠMed": 2521,
      "iber": 2522,
      "ule": 2523,
      "ving": 2524,
      "Ġburn": 2525,
      "Ġmot": 2526,
      "Ġthreat": 2527,
      "ĠRock": 2528,
      "ĠOff": 2529,
      "Ġexec": 2530,
      "Ġstudy": 2531,
      "Ġ1970": 2532,
      "Ġordered": 2533,
      "ĠEarly": 2534,
      "board": 2535,
      "ĠPacific": 2536,
      "ius": 2537,
      "Ġtrib": 2538,
      "ĠNavy": 2539,
      "Ġprob": 2540,
      "Ġitself": 2541,
      "ĠMichael": 2542,
      "Ġtreat": 2543,
      "Ġinform": 2544,
      "Ġdraw": 2545,
      "ĠDr": 2546,
      "ĠDay": 2547,
      "Ġrain": 2548,
      "illa": 2549,
      "Ġremov": 2550,
      "Ġquar": 2551,
      "Ġpreviously": 2552,
      "Ġpraised": 2553,
      "enes": 2554,
      "Ġpers": 2555,
      "Ġreason": 2556,
      "ĠEgy": 2557,
      "Ġpract": 2558,
      "ĠÂ°": 2559,
      "ĠEgypt": 2560,
      "nder": 2561,
      "Ġcop": 2562,
      "ica": 2563,
      "Ġrese": 2564,
      "Ġwithd": 2565,
      "ago": 2566,
      "clus": 2567,
      "Ġ2000": 2568,
      "Ġsubject": 2569,
      "bit": 2570,
      "gg": 2571,
      "xas": 2572,
      "aps": 2573,
      "Ġremains": 2574,
      "Ġnews": 2575,
      "Ġavailable": 2576,
      "den": 2577,
      "Ġz": 2578,
      "anch": 2579,
      "Ġnet": 2580,
      "Ġnomin": 2581,
      "ĠBus": 2582,
      "Ġwhom": 2583,
      "ĠOper": 2584,
      "Ġregard": 2585,
      "Ġcontract": 2586,
      "Ġcommunity": 2587,
      "ĠFlor": 2588,
      "ĠFederer": 2589,
      "less": 2590,
      "ming": 2591,
      "nel": 2592,
      "Ġdi": 2593,
      "Ġreb": 2594,
      "ĠCap": 2595,
      "ama": 2596,
      "eler": 2597,
      "ida": 2598,
      "ĠPart": 2599,
      "ights": 2600,
      "Ġabove": 2601,
      "ibility": 2602,
      "Ġcenter": 2603,
      "ĠCommand": 2604,
      "ĠGrand": 2605,
      "rated": 2606,
      "ĠCr": 2607,
      "ĠLove": 2608,
      "ĠEm": 2609,
      "Ġpoor": 2610,
      "Ġesc": 2611,
      "ĠMexico": 2612,
      "Ġwestern": 2613,
      "Ġpie": 2614,
      "Ġlove": 2615,
      "ĠRed": 2616,
      "osition": 2617,
      "umb": 2618,
      "Ġrap": 2619,
      "quar": 2620,
      "Ġneg": 2621,
      "ĠHero": 2622,
      "Ġbreak": 2623,
      "ĠGeorge": 2624,
      "ĠAngel": 2625,
      "Ġmanager": 2626,
      "ls": 2627,
      "uel": 2628,
      "Ġwide": 2629,
      "Ġcell": 2630,
      "Ġfree": 2631,
      "ĠMost": 2632,
      "Ġstop": 2633,
      "ĠKore": 2634,
      "Ġblock": 2635,
      "ĠHenry": 2636,
      "nes": 2637,
      "ximately": 2638,
      "ĠSm": 2639,
      "ĠFilm": 2640,
      "ĠGame": 2641,
      "ĠGold": 2642,
      "Ġ2002": 2643,
      "Ġimmedi": 2644,
      "Ġinterview": 2645,
      "Ġsurround": 2646,
      "Ġinsp": 2647,
      "wh": 2648,
      "ators": 2649,
      "Ġpast": 2650,
      "ĠAc": 2651,
      "anned": 2652,
      "ault": 2653,
      "bor": 2654,
      "cent": 2655,
      "ready": 2656,
      "iter": 2657,
      "Ġmer": 2658,
      "Ġdon": 2659,
      "Ġlo": 2660,
      "Ġlines": 2661,
      "Ġnine": 2662,
      "Ġturned": 2663,
      "ĠBattle": 2664,
      "Ġchanges": 2665,
      "Ġbusiness": 2666,
      "ĠOliv": 2667,
      "to": 2668,
      "val": 2669,
      "Ġslow": 2670,
      "Ġmach": 2671,
      "Ġhous": 2672,
      "ĠSchool": 2673,
      "utive": 2674,
      "Ġheav": 2675,
      "ĠLater": 2676,
      "Ġchange": 2677,
      "elled": 2678,
      "ĠVietn": 2679,
      "erved": 2680,
      "Ġwood": 2681,
      "arily": 2682,
      "lected": 2683,
      "ston": 2684,
      "thod": 2685,
      "ĠHall": 2686,
      "Ġdead": 2687,
      "ometimes": 2688,
      "ĠPresident": 2689,
      "atural": 2690,
      "ened": 2691,
      "Ġlatter": 2692,
      "Ġleng": 2693,
      "ĠCreek": 2694,
      "ĠMy": 2695,
      "ĠMary": 2696,
      "Ġgive": 2697,
      "ĠFort": 2698,
      "porary": 2699,
      "Ġsoldiers": 2700,
      "Ġinitially": 2701,
      "ĠAtlantic": 2702,
      "ĠInfantry": 2703,
      "hib": 2704,
      "Ġbur": 2705,
      "urity": 2706,
      "ĠBest": 2707,
      "Ġ45": 2708,
      "Ġdepression": 2709,
      "Ġparticip": 2710,
      "head": 2711,
      "Ġly": 2712,
      "osing": 2713,
      "ores": 2714,
      "app": 2715,
      "Ġ1990": 2716,
      "Ġsigned": 2717,
      "ĠRegiment": 2718,
      "Ġhighest": 2719,
      "Ġfemale": 2720,
      "Ġfac": 2721,
      "aled": 2722,
      "ĠGreat": 2723,
      "ĠGovern": 2724,
      "ordan": 2725,
      "Ġarmy": 2726,
      "Ġdamaged": 2727,
      "Ġissue": 2728,
      "Ġbeginning": 2729,
      "Ġdefeated": 2730,
      "tar": 2731,
      "ouri": 2732,
      "ĠSing": 2733,
      "vert": 2734,
      "Ġalready": 2735,
      "ĠJordan": 2736,
      "uments": 2737,
      "Ġviol": 2738,
      "Ġgroups": 2739,
      "Ġprofess": 2740,
      "Ġmaterial": 2741,
      "Ġlength": 2742,
      "itor": 2743,
      "Ġbi": 2744,
      "Ġinj": 2745,
      "Ġstates": 2746,
      "aint": 2747,
      "Ġpoet": 2748,
      "Ġarrived": 2749,
      "Ġfootball": 2750,
      "Ġstructure": 2751,
      "ĠCharles": 2752,
      "ĠFlorida": 2753,
      "oney": 2754,
      "ĠPlay": 2755,
      "Ġincreasing": 2756,
      "ĠCanada": 2757,
      "Ġtaking": 2758,
      "ino": 2759,
      "Ġface": 2760,
      "Ġdeal": 2761,
      "pected": 2762,
      "Ġcomplet": 2763,
      "Ġop": 2764,
      "Ġcome": 2765,
      "Ġpriv": 2766,
      "Ġsurf": 2767,
      "Ġdiscuss": 2768,
      "Ġoccup": 2769,
      "ĠQue": 2770,
      "onst": 2771,
      "Ġsize": 2772,
      "ĠBay": 2773,
      "ĠOd": 2774,
      "Ġtraining": 2775,
      "Ġcapital": 2776,
      "Ġstudio": 2777,
      "Ġsupported": 2778,
      "Ġpassed": 2779,
      "ĠÂ£": 2780,
      "ĠAfrica": 2781,
      "ĠRichard": 2782,
      "Ġmult": 2783,
      "ĠAward": 2784,
      "ateg": 2785,
      "Ġparts": 2786,
      "Ġscene": 2787,
      "ference": 2788,
      "Ġnearly": 2789,
      "Ġobject": 2790,
      "Ġrequired": 2791,
      "ĠMissouri": 2792,
      "Ġappointed": 2793,
      "Ġforward": 2794,
      "Ġkey": 2795,
      "ĠVal": 2796,
      "Ġaccount": 2797,
      "Ġaccording": 2798,
      "Ġrunning": 2799,
      "Ġbrother": 2800,
      "lo": 2801,
      "anish": 2802,
      "iding": 2803,
      "Ġconn": 2804,
      "istic": 2805,
      "Ġkil": 2806,
      "Ġassist": 2807,
      "Ġtransfer": 2808,
      "Ġcertain": 2809,
      "Ġbill": 2810,
      "Ġinternational": 2811,
      "anding": 2812,
      "Ġdiss": 2813,
      "Ġ60": 2814,
      "Ġtransport": 2815,
      "ĠCarol": 2816,
      "Ġcaptured": 2817,
      "Ġeconom": 2818,
      "Ġaverage": 2819,
      "uz": 2820,
      "ĠAg": 2821,
      "ĠSquadron": 2822,
      "omm": 2823,
      "ĠGal": 2824,
      "Ġproper": 2825,
      "ruction": 2826,
      "Ġapproximately": 2827,
      "ĠCanadian": 2828,
      "Ġlimited": 2829,
      "ĠThomas": 2830,
      "for": 2831,
      "mb": 2832,
      "Ġtank": 2833,
      "Ġcru": 2834,
      "Ġtow": 2835,
      "Ġhard": 2836,
      "thlet": 2837,
      "Ġstay": 2838,
      "Ġscript": 2839,
      "Ġincludes": 2840,
      "ĠYear": 2841,
      "Ġbetter": 2842,
      "Ġwriter": 2843,
      "Ġsuggested": 2844,
      "ĠAssoci": 2845,
      "Ġreligious": 2846,
      "vest": 2847,
      "Ġtold": 2848,
      "Ġmight": 2849,
      "ests": 2850,
      "ĠUnion": 2851,
      "Ġindic": 2852,
      "ĠIndia": 2853,
      "Ġdebut": 2854,
      "rd": 2855,
      "Ġsection": 2856,
      "illery": 2857,
      "ĠVer": 2858,
      "Ġdisp": 2859,
      "Ġremaining": 2860,
      "ronic": 2861,
      "Ġgoing": 2862,
      "Ġguitar": 2863,
      "ĠBrown": 2864,
      "Ġsometimes": 2865,
      "ata": 2866,
      "Ġintended": 2867,
      "Ġden": 2868,
      "Ġdro": 2869,
      "Ġdivision": 2870,
      "urt": 2871,
      "ĠRes": 2872,
      "ands": 2873,
      "ĠNot": 2874,
      "Ġrail": 2875,
      "ĠThat": 2876,
      "Ġshows": 2877,
      "Ġpolice": 2878,
      "ĠColle": 2879,
      "pecially": 2880,
      "ĠGermany": 2881,
      "co": 2882,
      "Ġ?": 2883,
      "aded": 2884,
      "olic": 2885,
      "ĠWhe": 2886,
      "abit": 2887,
      "Ġfeel": 2888,
      "Ġcomplete": 2889,
      "Ġwinning": 2890,
      "Ġtravel": 2891,
      "ĠIrish": 2892,
      "go": 2893,
      "ship": 2894,
      "onse": 2895,
      "aries": 2896,
      "ĠCong": 2897,
      "ĠDon": 2898,
      "ĠLa": 2899,
      "Ġunc": 2900,
      "ples": 2901,
      "Ġ1960": 2902,
      "Ġterm": 2903,
      "Ġespecially": 2904,
      "Ġcommercial": 2905,
      "eth": 2906,
      "Ġmust": 2907,
      "ĠMid": 2908,
      "idents": 2909,
      "Ġ183": 2910,
      "Ġ184": 2911,
      "Ġmostly": 2912,
      "Ġdecision": 2913,
      "Ġliter": 2914,
      "Ġlanguage": 2915,
      "uter": 2916,
      "ana": 2917,
      "Ġphys": 2918,
      "Ġdate": 2919,
      "ĠTimes": 2920,
      "ĠMany": 2921,
      "ett": 2922,
      "Ġabs": 2923,
      "Ġ80": 2924,
      "Ġsocial": 2925,
      "Ġintroduced": 2926,
      "Ġprobably": 2927,
      "Ġfood": 2928,
      "Ġnames": 2929,
      "irth": 2930,
      "ulated": 2931,
      "Ġanc": 2932,
      "ĠArab": 2933,
      "Ġcolon": 2934,
      "Ġrecording": 2935,
      "Ġminor": 2936,
      "Ġeduc": 2937,
      "Ġresponse": 2938,
      "BC": 2939,
      "Ġfailed": 2940,
      "oms": 2941,
      "ĠMac": 2942,
      "Ġgre": 2943,
      "ĠWestern": 2944,
      "ĠJin": 2945,
      "ĠGro": 2946,
      "Ġjourn": 2947,
      "Ġadditional": 2948,
      "Ġmale": 2949,
      "ilities": 2950,
      "irt": 2951,
      "Ġstaff": 2952,
      "Ġwhose": 2953,
      "odies": 2954,
      "iff": 2955,
      "Ġ36": 2956,
      "Ġended": 2957,
      "ĠHistory": 2958,
      "Ġfleet": 2959,
      "Ġpen": 2960,
      "ĠSoc": 2961,
      "ĠMo": 2962,
      "chol": 2963,
      "change": 2964,
      "ĠLight": 2965,
      "ĠChina": 2966,
      "ĠVict": 2967,
      "ĠArt": 2968,
      "Ġtype": 2969,
      "Ġvillage": 2970,
      "now": 2971,
      "Ġdaugh": 2972,
      "Ġdoll": 2973,
      "ila": 2974,
      "ĠWil": 2975,
      "Ġrace": 2976,
      "ĠOt": 2977,
      "quare": 2978,
      "Ġdespite": 2979,
      "Ġenough": 2980,
      "Ġremain": 2981,
      "Ġidea": 2982,
      "Ġdiscovered": 2983,
      "Ġmixed": 2984,
      "Ġprior": 2985,
      "ĠOlivier": 2986,
      "Ġword": 2987,
      "Ġhar": 2988,
      "ĠAwards": 2989,
      "ume": 2990,
      "Ġchap": 2991,
      "Ġyard": 2992,
      "Ġ38": 2993,
      "Ġ75": 2994,
      "ĠScott": 2995,
      "ĠIII": 2996,
      "Ġanti": 2997,
      "Ġradio": 2998,
      "fect": 2999,
      "ita": 3000,
      "ara": 3001,
      "Ġlower": 3002,
      "ĠCour": 3003,
      "ĠBra": 3004,
      "uture": 3005,
      "ulf": 3006,
      "Ġexam": 3007,
      "Ġlarger": 3008,
      "Ġindepend": 3009,
      "hens": 3010,
      "Ġarchae": 3011,
      "Ġcal": 3012,
      "ases": 3013,
      "Ġmakes": 3014,
      "Ġdomin": 3015,
      "ĠTy": 3016,
      "ĠTropical": 3017,
      "rian": 3018,
      "aker": 3019,
      "Ġoffice": 3020,
      "Ġgoals": 3021,
      "Ġruns": 3022,
      "ĠStev": 3023,
      "Ġdestroyed": 3024,
      "Ġprimary": 3025,
      "Ġlikely": 3026,
      "Ġsubsequently": 3027,
      "lic": 3028,
      "uing": 3029,
      "Ġ-": 3030,
      "anies": 3031,
      "Ġpot": 3032,
      "Ġdoc": 3033,
      "Ġadop": 3034,
      "Ġreviews": 3035,
      "quarters": 3036,
      "ĠStevens": 3037,
      "Ġsat": 3038,
      "Ġpur": 3039,
      "Ġnotes": 3040,
      "wood": 3041,
      "Ġminutes": 3042,
      "Ġpositions": 3043,
      "ĠSpanish": 3044,
      "Ġpressure": 3045,
      "Ġproblems": 3046,
      "sc": 3047,
      "aring": 3048,
      "Ġpair": 3049,
      "Ġmention": 3050,
      "ĠCamp": 3051,
      "imin": 3052,
      "ĠPre": 3053,
      "ula": 3054,
      "ĠNort": 3055,
      "Ġusually": 3056,
      "Ġspent": 3057,
      "Ġ1980": 3058,
      "Ġfeature": 3059,
      "Ġcontroll": 3060,
      "Ġfavor": 3061,
      "Ġagreed": 3062,
      "Ġquickly": 3063,
      "Ġnetwork": 3064,
      "ma": 3065,
      "Ġmur": 3066,
      "ĠTor": 3067,
      "enth": 3068,
      "ĠMos": 3069,
      "Ġvot": 3070,
      "order": 3071,
      "Ġdisplay": 3072,
      "Ġenv": 3073,
      "ails": 3074,
      "Ġminute": 3075,
      "Ġcarried": 3076,
      "ĠGuitar": 3077,
      "ĠMcC": 3078,
      "Ġequip": 3079,
      "Ġfighting": 3080,
      "ĠBillboard": 3081,
      "Ġquarter": 3082,
      "men": 3083,
      "oor": 3084,
      "uf": 3085,
      "Ġaut": 3086,
      "Ġfir": 3087,
      "Ġtouch": 3088,
      "stant": 3089,
      "Ġdeep": 3090,
      "ump": 3091,
      "ĠVir": 3092,
      "Ġpositive": 3093,
      "Ġmoving": 3094,
      "Ġgrad": 3095,
      "ĠJewish": 3096,
      "ĠAssociation": 3097,
      "band": 3098,
      "inct": 3099,
      "Ġsus": 3100,
      "ĠSince": 3101,
      "ĠCard": 3102,
      "ĠHot": 3103,
      "ĠHurricane": 3104,
      "Ġconclud": 3105,
      "Ġoverall": 3106,
      "Ġ1999": 3107,
      "ĠManila": 3108,
      "Ġfrequ": 3109,
      "Ġkeep": 3110,
      "Ġlyric": 3111,
      "mitted": 3112,
      "ĠÃ": 3113,
      "Ġflow": 3114,
      "Ġbomb": 3115,
      "leg": 3116,
      "ĠCath": 3117,
      "ching": 3118,
      "ĠKh": 3119,
      "teen": 3120,
      "peror": 3121,
      "Ġbecoming": 3122,
      "Ġscreen": 3123,
      "Ġens": 3124,
      "Ġthemsel": 3125,
      "Ġconsist": 3126,
      "Ġquest": 3127,
      "ification": 3128,
      "Ġtemper": 3129,
      "ĠOldham": 3130,
      "Ġfifth": 3131,
      "ĠWheeler": 3132,
      "Ġthemselves": 3133,
      "bers": 3134,
      "Ġcoin": 3135,
      "ĠTom": 3136,
      "ĠSun": 3137,
      "imate": 3138,
      "andon": 3139,
      "ĠJer": 3140,
      "sec": 3141,
      "Ġshown": 3142,
      "ĠStud": 3143,
      "Ġmajority": 3144,
      "Ġstatus": 3145,
      "gely": 3146,
      "Ġwoman": 3147,
      "Ġlay": 3148,
      "Ġlab": 3149,
      "ĠMal": 3150,
      "ĠMont": 3151,
      "cean": 3152,
      "Ġleague": 3153,
      "Ġcontem": 3154,
      "hedral": 3155,
      "Ġadap": 3156,
      "ruct": 3157,
      "ĠVar": 3158,
      "Ġ400": 3159,
      "Ġexperience": 3160,
      "ĠPeter": 3161,
      "ĠSuper": 3162,
      "Ġinvestig": 3163,
      "Ġcm": 3164,
      "ĠTV": 3165,
      "ĠLatin": 3166,
      "iforn": 3167,
      "bert": 3168,
      "ĠUK": 3169,
      "ĠStorm": 3170,
      "Ġscore": 3171,
      "Ġsett": 3172,
      "ĠFrank": 3173,
      "Ġconsider": 3174,
      "Ġconcern": 3175,
      "rief": 3176,
      "ney": 3177,
      "Ġfans": 3178,
      "Ġbow": 3179,
      "imum": 3180,
      "Ġsea": 3181,
      "ishop": 3182,
      "Ġspace": 3183,
      "Ġentered": 3184,
      "Ġteams": 3185,
      "Ġartillery": 3186,
      "Ġsmaller": 3187,
      "Ġreferred": 3188,
      "Ġrapid": 3189,
      "gl": 3190,
      "oring": 3191,
      "ites": 3192,
      "Ġfly": 3193,
      "Ġfuture": 3194,
      "acted": 3195,
      "ĠHel": 3196,
      "ĠPenn": 3197,
      "umn": 3198,
      "ĠEver": 3199,
      "Ġcontains": 3200,
      "Ġlargely": 3201,
      "Ġinfantry": 3202,
      "ĠForce": 3203,
      "Ġwound": 3204,
      "atory": 3205,
      "Ġmoney": 3206,
      "ĠTem": 3207,
      "ĠHow": 3208,
      "ills": 3209,
      "Ġshoot": 3210,
      "rael": 3211,
      "ĠAnother": 3212,
      "Ġ90": 3213,
      "Ġofficers": 3214,
      "ĠCaliforn": 3215,
      "Ġschol": 3216,
      "ĠTer": 3217,
      "ĠServ": 3218,
      "igan": 3219,
      "Ġlearn": 3220,
      "minist": 3221,
      "Ġmagazine": 3222,
      "Ġsuffered": 3223,
      "Ġgods": 3224,
      "ĠCroat": 3225,
      "lor": 3226,
      "rup": 3227,
      "onna": 3228,
      "itte": 3229,
      "itect": 3230,
      "ĠAle": 3231,
      "ads": 3232,
      "Ġcommission": 3233,
      "Ġvisit": 3234,
      "ĠCentral": 3235,
      "Ġforest": 3236,
      "ĠSecond": 3237,
      "ĠVictor": 3238,
      "inent": 3239,
      "Ġcer": 3240,
      "lymp": 3241,
      "ĠMount": 3242,
      "ĠHol": 3243,
      "ĠOlymp": 3244,
      "Ġleaving": 3245,
      "ĠIsrael": 3246,
      "Ġdefeat": 3247,
      "Ġinfluence": 3248,
      "Ġoccurred": 3249,
      "Ġlaunched": 3250,
      "gen": 3251,
      "uals": 3252,
      "ĠApp": 3253,
      "ĠMr": 3254,
      "ĠMil": 3255,
      "ĠOver": 3256,
      "Ġcompl": 3257,
      "Ġ70": 3258,
      "Ġconcert": 3259,
      "Ġmedia": 3260,
      "ky": 3261,
      "icted": 3262,
      "ĠTur": 3263,
      "Ġlink": 3264,
      "Ġalways": 3265,
      "undred": 3266,
      "Ġparty": 3267,
      "arent": 3268,
      "Ġscenes": 3269,
      "Ġfilms": 3270,
      "Ġpresident": 3271,
      "Ġattacked": 3272,
      "hester": 3273,
      "Ġlyrics": 3274,
      "ĠCalifornia": 3275,
      "down": 3276,
      "pan": 3277,
      "ror": 3278,
      "asy": 3279,
      "ĠTour": 3280,
      "ĠBack": 3281,
      "ership": 3282,
      "ĠLou": 3283,
      "Ġfinally": 3284,
      "Ġmeant": 3285,
      "Ġassigned": 3286,
      "Ġamount": 3287,
      "Ġattacks": 3288,
      "Ġprovide": 3289,
      "Ġchanged": 3290,
      "Ġresearch": 3291,
      "atively": 3292,
      "Ġbrief": 3293,
      "Ġinn": 3294,
      "urg": 3295,
      "ĠJe": 3296,
      "Ġunit": 3297,
      "Ġjob": 3298,
      "Ġnumbers": 3299,
      "Ġappears": 3300,
      "Ġepisodes": 3301,
      "Ġarrang": 3302,
      "ospital": 3303,
      "Ġcasual": 3304,
      "Ġranked": 3305,
      "iest": 3306,
      "Ã³": 3307,
      "Ġcred": 3308,
      "itz": 3309,
      "Ġthus": 3310,
      "ĠBoy": 3311,
      "ifa": 3312,
      "Ġyet": 3313,
      "pped": 3314,
      "Ġ1995": 3315,
      "Ġ1998": 3316,
      "Ġending": 3317,
      "Ġelection": 3318,
      "ergy": 3319,
      "ĠSov": 3320,
      "ĠMajor": 3321,
      "ĠPo": 3322,
      "Ġdeg": 3323,
      "agon": 3324,
      "Ġuns": 3325,
      "Ġabandon": 3326,
      "Ġprem": 3327,
      "Ġmovement": 3328,
      "Ġlocation": 3329,
      "Ġstudents": 3330,
      "Ġcritical": 3331,
      "Ġslight": 3332,
      "Ġeffects": 3333,
      "aught": 3334,
      "Ġasked": 3335,
      "Ġcele": 3336,
      "Ġsurface": 3337,
      "Ġtor": 3338,
      "ises": 3339,
      "Ġpay": 3340,
      "ĠMa": 3341,
      "ĠLaw": 3342,
      "Ġ32": 3343,
      "Ġcann": 3344,
      "Ġrecords": 3345,
      "Ġaccess": 3346,
      "Ġ1950": 3347,
      "ĠChristm": 3348,
      "Ġcommander": 3349,
      "Ġrequest": 3350,
      "ĠHaifa": 3351,
      "Ġremoved": 3352,
      "II": 3353,
      "MS": 3354,
      "isions": 3355,
      "Ġpurch": 3356,
      "Ġreach": 3357,
      "Ġgot": 3358,
      "Ġran": 3359,
      "Ġchall": 3360,
      "Ġ300": 3361,
      "key": 3362,
      "Ġweaken": 3363,
      "Ġinterse": 3364,
      "Ġperformances": 3365,
      "Ġmaint": 3366,
      "Ġnortheast": 3367,
      "ĠCenter": 3368,
      "Ġcyclone": 3369,
      "tation": 3370,
      "edy": 3371,
      "Ġfail": 3372,
      "Ġpun": 3373,
      "Ġdram": 3374,
      "Ġemer": 3375,
      "aph": 3376,
      "Ġtraff": 3377,
      "Ġlonger": 3378,
      "Ġbelow": 3379,
      "Ġbattles": 3380,
      "Ġattempted": 3381,
      "Ġpersonal": 3382,
      "Ġproposed": 3383,
      "ĠMichigan": 3384,
      "Ġassociated": 3385,
      "Ġtraffic": 3386,
      "ee": 3387,
      "well": 3388,
      "Ġmom": 3389,
      "Ġreally": 3390,
      "ĠSl": 3391,
      "Ġnature": 3392,
      "ulted": 3393,
      "ortun": 3394,
      "Ġplans": 3395,
      "ĠThree": 3396,
      "Ġearth": 3397,
      "Ġrelated": 3398,
      "Ġcomplex": 3399,
      "Ġmarked": 3400,
      "Ġsummer": 3401,
      "Ġdeterm": 3402,
      "ĠNorthern": 3403,
      "back": 3404,
      "Ġsil": 3405,
      "ĠRh": 3406,
      "Ġplat": 3407,
      "Ġtrade": 3408,
      "Ġpercent": 3409,
      "Ġimm": 3410,
      "Ġterms": 3411,
      "ĠClub": 3412,
      "Ġestablish": 3413,
      "Ġconstructed": 3414,
      "ĠGeorg": 3415,
      "NA": 3416,
      "gu": 3417,
      "Ġult": 3418,
      "Ġtar": 3419,
      "reak": 3420,
      "Ġbirth": 3421,
      "ĠTay": 3422,
      "Ġlif": 3423,
      "Ġnaval": 3424,
      "ĠCouncil": 3425,
      "ĠWood": 3426,
      "Ġrare": 3427,
      "ĠChic": 3428,
      "Ġwhether": 3429,
      "ĠItal": 3430,
      "Ġ2016": 3431,
      "Ġweap": 3432,
      "Ġspeed": 3433,
      "ervation": 3434,
      "Ġculture": 3435,
      "ĠChristmas": 3436,
      "mond": 3437,
      "Ġder": 3438,
      "Ġded": 3439,
      "aches": 3440,
      "ĠParliament": 3441,
      "ĠFore": 3442,
      "ĠLake": 3443,
      "ĠEmp": 3444,
      "Ġplot": 3445,
      "Ġcompared": 3446,
      "Ġgrant": 3447,
      "Ġpolic": 3448,
      "Ġoperation": 3449,
      "Ġ1930": 3450,
      "Ġincrease": 3451,
      "Ġbirds": 3452,
      "Ġawarded": 3453,
      "Ġfocus": 3454,
      "cing": 3455,
      "ville": 3456,
      "Ġtell": 3457,
      "iser": 3458,
      "Ġthick": 3459,
      "ste": 3460,
      "achel": 3461,
      "Ġunable": 3462,
      "aren": 3463,
      "Ġattr": 3464,
      "Ġnumerous": 3465,
      "Ġflight": 3466,
      "anna": 3467,
      "Ġprevent": 3468,
      "ĠCommission": 3469,
      "Ġbuildings": 3470,
      "Ġtwent": 3471,
      "ĠEarth": 3472,
      "Ġwaters": 3473,
      "ĠPhilipp": 3474,
      "Ġmeaning": 3475,
      "erve": 3476,
      "Ġsem": 3477,
      "anced": 3478,
      "ĠMet": 3479,
      "ĠPri": 3480,
      "ĠFI": 3481,
      "ulpt": 3482,
      "Ġextended": 3483,
      "Ġbound": 3484,
      "Ġsculpt": 3485,
      "Ġserious": 3486,
      "Ġ1993": 3487,
      "ĠArch": 3488,
      "Ġcompetition": 3489,
      "ĠCorps": 3490,
      "Ġcommented": 3491,
      "Ġintensity": 3492,
      "Ġmorning": 3493,
      "ĠChicago": 3494,
      "gar": 3495,
      "Ġ+": 3496,
      "Ġund": 3497,
      "isl": 3498,
      "Ġlived": 3499,
      "ĠInter": 3500,
      "alled": 3501,
      "ability": 3502,
      "ocr": 3503,
      "ellig": 3504,
      "ruit": 3505,
      "oke": 3506,
      "ĠThrough": 3507,
      "Ġfigure": 3508,
      "Ġbroadcast": 3509,
      "ĠBusch": 3510,
      "ĠOperation": 3511,
      "Ġprofessional": 3512,
      "ĠCourt": 3513,
      "ĠVirgin": 3514,
      "ĠCatholic": 3515,
      "ittee": 3516,
      "ĠTaylor": 3517,
      "hew": 3518,
      "onc": 3519,
      "eding": 3520,
      "atre": 3521,
      "Ġpian": 3522,
      "Ġtourn": 3523,
      "ĠRose": 3524,
      "ĠDist": 3525,
      "ĠGo": 3526,
      "ipal": 3527,
      "Ġcompanies": 3528,
      "Ġdism": 3529,
      "aily": 3530,
      "Ġforms": 3531,
      "Ġcoach": 3532,
      "Ġhighly": 3533,
      "Ġsettle": 3534,
      "Ġcreate": 3535,
      "ylv": 3536,
      "Ġschools": 3537,
      "Ġexperi": 3538,
      "Ġdouble": 3539,
      "Ġeye": 3540,
      "Ġprivate": 3541,
      "Ġdark": 3542,
      "Ġhundred": 3543,
      "Ġplanned": 3544,
      "Ġleave": 3545,
      "Ġimage": 3546,
      "ĠSever": 3547,
      "Ġ1991": 3548,
      "Ġbring": 3549,
      "Ġconstit": 3550,
      "Ġadvant": 3551,
      "Ġadvance": 3552,
      "Ġinitial": 3553,
      "Ġstrength": 3554,
      "Ġdaughter": 3555,
      "Ġtons": 3556,
      "Ġtakes": 3557,
      "Ġliving": 3558,
      "ĠMart": 3559,
      "ĠBen": 3560,
      "estival": 3561,
      "umed": 3562,
      "riage": 3563,
      "istics": 3564,
      "eway": 3565,
      "Ġoffered": 3566,
      "Ġprep": 3567,
      "vey": 3568,
      "Ġ1940": 3569,
      "ĠBrad": 3570,
      "ĠTexas": 3571,
      "Ġcovered": 3572,
      "ĠBoth": 3573,
      "Ġconducted": 3574,
      "osaurus": 3575,
      "Ġnewsp": 3576,
      "Ġimmediately": 3577,
      "amer": 3578,
      "ĠIf": 3579,
      "Ġanaly": 3580,
      "Ġ33": 3581,
      "Ġ42": 3582,
      "Ġmethod": 3583,
      "Ġmatches": 3584,
      "Ġgiving": 3585,
      "Ġcourse": 3586,
      "Ġissued": 3587,
      "Ġfigures": 3588,
      "ĠEmpire": 3589,
      "itude": 3590,
      "enon": 3591,
      "Ġrein": 3592,
      "ĠBey": 3593,
      "ids": 3594,
      "ĠHaw": 3595,
      "ĠIts": 3596,
      "Ġsched": 3597,
      "ĠAlice": 3598,
      "Ġcentre": 3599,
      "ĠAfrican": 3600,
      "ires": 3601,
      "Ġself": 3602,
      "Ġcause": 3603,
      "Ġhealth": 3604,
      "ria": 3605,
      "Ġcontrovers": 3606,
      "Ġdirectly": 3607,
      "Ġattempts": 3608,
      "Ġproducer": 3609,
      "Ġresponsible": 3610,
      "AS": 3611,
      "bar": 3612,
      "hou": 3613,
      "ios": 3614,
      "tr": 3615,
      "Ġtalk": 3616,
      "Ġsal": 3617,
      "Ġcounter": 3618,
      "Ġdig": 3619,
      "oul": 3620,
      "Ġstating": 3621,
      "cend": 3622,
      "rial": 3623,
      "Ġjud": 3624,
      "Ġ1997": 3625,
      "Ġactive": 3626,
      "Ġmusical": 3627,
      "Ġpresence": 3628,
      "Ġlisted": 3629,
      "Ġtraditional": 3630,
      "Ġindividual": 3631,
      "Ġterritory": 3632,
      "hem": 3633,
      "ĠTre": 3634,
      "cts": 3635,
      "Ġstone": 3636,
      "Ġdeploy": 3637,
      "ĠLos": 3638,
      "ĠUp": 3639,
      "ĠStar": 3640,
      "Ġcomposed": 3641,
      "ĠYoung": 3642,
      "embly": 3643,
      "Ġcounty": 3644,
      "Ġapproach": 3645,
      "Ġrefused": 3646,
      "Ġarchitect": 3647,
      "Ġcopies": 3648,
      "ĠOtt": 3649,
      "Ġcasualties": 3650,
      "ĠSoviet": 3651,
      "ĠSeveral": 3652,
      "oir": 3653,
      "Ġbad": 3654,
      "Ġpurs": 3655,
      "ĠRob": 3656,
      "ĠNic": 3657,
      "ĠLady": 3658,
      "aped": 3659,
      "Ġnecess": 3660,
      "Ġcontinue": 3661,
      "Ġdistance": 3662,
      "Ġera": 3663,
      "Ġseparate": 3664,
      "Ġsource": 3665,
      "ĠDepartment": 3666,
      "Ġmachine": 3667,
      "Ġeducation": 3668,
      "Ġgreater": 3669,
      "ĠGroup": 3670,
      "Ġmurder": 3671,
      "stein": 3672,
      "awn": 3673,
      "ih": 3674,
      "uk": 3675,
      "Ġsout": 3676,
      "Ġbatter": 3677,
      "Ġbodies": 3678,
      "ĠCross": 3679,
      "Ġstories": 3680,
      "aven": 3681,
      "Ġsevent": 3682,
      "ĠJust": 3683,
      "Ġresulted": 3684,
      "Ġshell": 3685,
      "Ġrelief": 3686,
      "ĠScot": 3687,
      "Ġheadquarters": 3688,
      "Ġbattalion": 3689,
      "Ġmetal": 3690,
      "Ġstruck": 3691,
      "onym": 3692,
      "Ġindustry": 3693,
      "emorial": 3694,
      "ken": 3695,
      "sis": 3696,
      "Ġdone": 3697,
      "Ġnatural": 3698,
      "olk": 3699,
      "ĠSea": 3700,
      "Ġsecret": 3701,
      "Ġ1994": 3702,
      "Ġ1996": 3703,
      "Ġdefence": 3704,
      "Ġnearby": 3705,
      "venue": 3706,
      "ĠMuseum": 3707,
      "Ġcombined": 3708,
      "Ġneeded": 3709,
      "Ġraised": 3710,
      "ĠGalvest": 3711,
      "ĠGalveston": 3712,
      "com": 3713,
      "Ġthings": 3714,
      "Ġgir": 3715,
      "ĠRachel": 3716,
      "ĠPat": 3717,
      "ĠLive": 3718,
      "anta": 3719,
      "Ġstudies": 3720,
      "Ġcarry": 3721,
      "Ġbegins": 3722,
      "Ġsituation": 3723,
      "Ġhigher": 3724,
      "Ġpeaked": 3725,
      "Ġgenus": 3726,
      "Ġrespectively": 3727,
      "ĠCollege": 3728,
      "een": 3729,
      "ushed": 3730,
      "ĠDem": 3731,
      "Ġchampionship": 3732,
      "ĠUnder": 3733,
      "iple": 3734,
      "Ġ39": 3735,
      "Ġrecover": 3736,
      "ĠAnt": 3737,
      "Ġearned": 3738,
      "Ġpresented": 3739,
      "Ġsixth": 3740,
      "Ġhelped": 3741,
      "Ġcollection": 3742,
      "ĠPrince": 3743,
      "ĠParis": 3744,
      "ĠJackson": 3745,
      "Ġreduced": 3746,
      "Ġhouses": 3747,
      "bour": 3748,
      "pole": 3749,
      "Ġess": 3750,
      "Ġfell": 3751,
      "Ġdra": 3752,
      "Ġdyn": 3753,
      "Ġlog": 3754,
      "ĠCamb": 3755,
      "adium": 3756,
      "usband": 3757,
      "Ġconcept": 3758,
      "ĠDire": 3759,
      "Ġselected": 3760,
      "Ġrule": 3761,
      "Ġkind": 3762,
      "ĠCharl": 3763,
      "Ġuses": 3764,
      "ĠEnter": 3765,
      "Ġspecific": 3766,
      "Ġacqu": 3767,
      "ĠTech": 3768,
      "Ġconfir": 3769,
      "Ġmarket": 3770,
      "ĠPolish": 3771,
      "eter": 3772,
      "iated": 3773,
      "vement": 3774,
      "Ġbig": 3775,
      "oud": 3776,
      "ĠSix": 3777,
      "ĠTheir": 3778,
      "ĠPit": 3779,
      "ĠJane": 3780,
      "Ġplant": 3781,
      "ĠStr": 3782,
      "Ġ180": 3783,
      "Ġunderst": 3784,
      "Ġdefense": 3785,
      "Ġinside": 3786,
      "Ġannual": 3787,
      "Ġcombat": 3788,
      "Ġfriends": 3789,
      "ĠSeries": 3790,
      "ĠSmith": 3791,
      "ĠAlex": 3792,
      "atives": 3793,
      "enant": 3794,
      "Ġmountain": 3795,
      "Ġnorm": 3796,
      "ĠBob": 3797,
      "ĠRoss": 3798,
      "ĠFoot": 3799,
      "anded": 3800,
      "Ġsearch": 3801,
      "arts": 3802,
      "ously": 3803,
      "Ġ47": 3804,
      "Ġboats": 3805,
      "Ġsecurity": 3806,
      "hips": 3807,
      "Ġprinc": 3808,
      "Ġmanaged": 3809,
      "Ġartist": 3810,
      "Ġallowing": 3811,
      "Ġactivity": 3812,
      "Ġrevealed": 3813,
      "ĠAcad": 3814,
      "Ġheavily": 3815,
      "ĠCarolina": 3816,
      "ĠItalian": 3817,
      "joy": 3818,
      "Ġsquare": 3819,
      "Ġwalk": 3820,
      "ĠSen": 3821,
      "ĠSam": 3822,
      "ĠDan": 3823,
      "ĠJim": 3824,
      "Ġresc": 3825,
      "Ġenjoy": 3826,
      "Ġpeace": 3827,
      "Ġactually": 3828,
      "phoon": 3829,
      "Ġmainly": 3830,
      "Ġvariety": 3831,
      "Ġconfl": 3832,
      "Ġpowerful": 3833,
      "Ġhands": 3834,
      "Ġstandard": 3835,
      "Ġironcl": 3836,
      "stitute": 3837,
      "Ġcelebr": 3838,
      "ks": 3839,
      "like": 3840,
      "uff": 3841,
      "Ġtask": 3842,
      "ĠTw": 3843,
      "Ġnative": 3844,
      "ĠBC": 3845,
      "ander": 3846,
      "Ġvoice": 3847,
      "aby": 3848,
      "Ġsomething": 3849,
      "Ġbridge": 3850,
      "Ġdescribes": 3851,
      "pedo": 3852,
      "Ġmarried": 3853,
      "Ġmiddle": 3854,
      "Ġconditions": 3855,
      "Ġwithdraw": 3856,
      "ĠVietnam": 3857,
      "ĠService": 3858,
      "Ġslightly": 3859,
      "ylvania": 3860,
      "iant": 3861,
      "kan": 3862,
      "of": 3863,
      "rical": 3864,
      "Ġbank": 3865,
      "Ġmount": 3866,
      "Ġhop": 3867,
      "ĠSaint": 3868,
      "ĠBel": 3869,
      "ĠFour": 3870,
      "ĠForm": 3871,
      "Ġattend": 3872,
      "andid": 3873,
      "Ġang": 3874,
      "Ġdepend": 3875,
      "Ġvess": 3876,
      "Ġroom": 3877,
      "ĠHead": 3878,
      "Ġboy": 3879,
      "Ġfinanc": 3880,
      "Ġamb": 3881,
      "Ġnorthwest": 3882,
      "Ġimpact": 3883,
      "rowd": 3884,
      "Ġefforts": 3885,
      "Ġcompletely": 3886,
      "Ġpurp": 3887,
      "Ġcontemporary": 3888,
      "ĠPenns": 3889,
      "Ã³n": 3890,
      "mon": 3891,
      "Ġtur": 3892,
      "unic": 3893,
      "reme": 3894,
      "Ġour": 3895,
      "Ġcle": 3896,
      "Ġfeder": 3897,
      "Ġhot": 3898,
      "ĠTenn": 3899,
      "ams": 3900,
      "ĠBow": 3901,
      "Ġhero": 3902,
      "ether": 3903,
      "ĠDel": 3904,
      "ĠLit": 3905,
      "Ġvia": 3906,
      "Ġ37": 3907,
      "Ġclosed": 3908,
      "Ġ48": 3909,
      "Ġwhole": 3910,
      "Ġinvasion": 3911,
      "Ġgreatest": 3912,
      "Ġmeeting": 3913,
      "Ġnucle": 3914,
      "Ġinspired": 3915,
      "Ġadvantage": 3916,
      "Ġsquadron": 3917,
      "Ġpick": 3918,
      "Ġhusband": 3919,
      "ĠAre": 3920,
      "ĠBig": 3921,
      "ĠHMS": 3922,
      "ify": 3923,
      "ĠInn": 3924,
      "lands": 3925,
      "oint": 3926,
      "orship": 3927,
      "Ġelected": 3928,
      "ĠAustralians": 3929,
      "Ġdesignated": 3930,
      "ĠColon": 3931,
      "Ġextr": 3932,
      "Ġorganization": 3933,
      "Ġopportun": 3934,
      "ĠQu": 3935,
      "Ġcontrast": 3936,
      "Ġphot": 3937,
      "ĠHistor": 3938,
      "ĠMosley": 3939,
      "Ġtorpedo": 3940,
      "Ġpiano": 3941,
      "pool": 3942,
      "vin": 3943,
      "Ġopt": 3944,
      "itation": 3945,
      "Ġmission": 3946,
      "Ġrear": 3947,
      "imb": 3948,
      "ĠLong": 3949,
      "aging": 3950,
      "Ġrate": 3951,
      "Ġsust": 3952,
      "Ġexhib": 3953,
      "Ġarmed": 3954,
      "Ġupper": 3955,
      "Ġattention": 3956,
      "Ġspir": 3957,
      "ologist": 3958,
      "Ġconcent": 3959,
      "Ġtracks": 3960,
      "ĠSpain": 3961,
      "ĠMinnes": 3962,
      "Ġaudience": 3963,
      "ĠSomal": 3964,
      "Ġvehic": 3965,
      "Ġexcav": 3966,
      "ĠWalpole": 3967,
      "Ġenviron": 3968,
      "Ġwounded": 3969,
      "ĠMinnesota": 3970,
      "Ġhun": 3971,
      "Ġthrow": 3972,
      "ĠAI": 3973,
      "Ġbeat": 3974,
      "Ġexcept": 3975,
      "Ġ34": 3976,
      "Ġresidents": 3977,
      "ibly": 3978,
      "Ġ76": 3979,
      "Ġincor": 3980,
      "Ġ150": 3981,
      "Ġstarting": 3982,
      "Ġcountries": 3983,
      "ĠFranc": 3984,
      "Ġportray": 3985,
      "Ġwidely": 3986,
      "ĠRussian": 3987,
      "ĠParty": 3988,
      "ĠQueen": 3989,
      "ĠLouis": 3990,
      "ging": 3991,
      "ha": 3992,
      "lin": 3993,
      "light": 3994,
      "sen": 3995,
      "Ġcrowd": 3996,
      "Ġtoday": 3997,
      "icient": 3998,
      "Ġdom": 3999,
      "ĠCivil": 4000,
      "ĠManc": 4001,
      "ols": 4002,
      "Ġaspect": 4003,
      "ĠNor": 4004,
      "Ġris": 4005,
      "Ġtrue": 4006,
      "Ġuniversity": 4007,
      "Ġability": 4008,
      "Ġbox": 4009,
      "Ġprison": 4010,
      "Ġcontinues": 4011,
      "Ġrepresented": 4012,
      "Ġobserved": 4013,
      "ĠPennsylvania": 4014,
      "Ġfill": 4015,
      "Ġpark": 4016,
      "ils": 4017,
      "uries": 4018,
      "ĠGames": 4019,
      "Ġrecomm": 4020,
      "Ġevac": 4021,
      "ribution": 4022,
      "Ġtheme": 4023,
      "Ġgrand": 4024,
      "Ġtransl": 4025,
      "ĠChris": 4026,
      "Ġ1920": 4027,
      "Ġlegisl": 4028,
      "Ġlevels": 4029,
      "Ġrainfall": 4030,
      "ĠAngeles": 4031,
      "while": 4032,
      "ĠFootball": 4033,
      "Ġsense": 4034,
      "isher": 4035,
      "Ġintern": 4036,
      "arrow": 4037,
      "Ġmax": 4038,
      "ĠTurn": 4039,
      "Ġreject": 4040,
      "ĠCast": 4041,
      "ĠCrit": 4042,
      "ĠIll": 4043,
      "olf": 4044,
      "ĠBook": 4045,
      "utch": 4046,
      "Ġconsec": 4047,
      "ems": 4048,
      "ĠJose": 4049,
      "ĠLes": 4050,
      "ĠAlkan": 4051,
      "Ġ1992": 4052,
      "Ġblue": 4053,
      "Ġblood": 4054,
      "ĠConf": 4055,
      "ĠColumb": 4056,
      "Ġstrugg": 4057,
      "ĠPortug": 4058,
      "Ġdeclared": 4059,
      "ĠHighway": 4060,
      "Ġvocal": 4061,
      "Ġvocals": 4062,
      "Ġinformation": 4063,
      "Ġsurrounding": 4064,
      "Ġkilomet": 4065,
      "uzz": 4066,
      "Ġancient": 4067,
      "Ġconcluded": 4068,
      "Ġquestion": 4069,
      "ĠLittle": 4070,
      "ĠManchester": 4071,
      "bury": 4072,
      "cer": 4073,
      "mium": 4074,
      "nown": 4075,
      "Ġsaf": 4076,
      "Ġborder": 4077,
      "Ġpow": 4078,
      "Ġpound": 4079,
      "ingu": 4080,
      "Ġtoward": 4081,
      "Ġmem": 4082,
      "ĠCer": 4083,
      "ims": 4084,
      "ĠHorse": 4085,
      "ĠFow": 4086,
      "bery": 4087,
      "Ġadult": 4088,
      "Ġprec": 4089,
      "ixon": 4090,
      "Ġquality": 4091,
      "Ġsuppl": 4092,
      "Ġ1942": 4093,
      "Ġdescript": 4094,
      "Ġofficer": 4095,
      "Ġbooks": 4096,
      "Ġsays": 4097,
      "ĠSociety": 4098,
      "Ġadopted": 4099,
      "lers": 4100,
      "rate": 4101,
      "zy": 4102,
      "Ġx": 4103,
      "Ġmole": 4104,
      "ĠFred": 4105,
      "ĠLiver": 4106,
      "Ġexpected": 4107,
      "Ġtext": 4108,
      "Ġassault": 4109,
      "Ġinches": 4110,
      "Ġfeaturing": 4111,
      "Ġrespond": 4112,
      "Ġinfluenced": 4113,
      "Ġprimarily": 4114,
      "Ġaccepted": 4115,
      "Ġtouchdown": 4116,
      "ĠTemple": 4117,
      "arents": 4118,
      "ĠLiverpool": 4119,
      "Ġcandid": 4120,
      "Ġfully": 4121,
      "Ġinh": 4122,
      "Ġhorse": 4123,
      "Ġhomes": 4124,
      "lement": 4125,
      "Ġthous": 4126,
      "ĠSur": 4127,
      "Ġnin": 4128,
      "ĠMill": 4129,
      "iva": 4130,
      "ĠFam": 4131,
      "ĠNations": 4132,
      "erset": 4133,
      "Ġraid": 4134,
      "Ġcompos": 4135,
      "Ġroles": 4136,
      "Ġadminist": 4137,
      "Ġ49": 4138,
      "Ġneigh": 4139,
      "ension": 4140,
      "Ġmeans": 4141,
      "Ġapparent": 4142,
      "Ġqual": 4143,
      "Ġalongside": 4144,
      "Ġorganized": 4145,
      "Ġcathedral": 4146,
      "ĠSomerset": 4147,
      "Ġcondoms": 4148,
      "Ġpractice": 4149,
      "force": 4150,
      "oncÃ©": 4151,
      "ĠBeyoncÃ©": 4152,
      "ĠScotland": 4153,
      "AF": 4154,
      "TV": 4155,
      "uated": 4156,
      "Ġlb": 4157,
      "ĠBet": 4158,
      "asty": 4159,
      "Ġrough": 4160,
      "athan": 4161,
      "Ġheads": 4162,
      "Ġinstit": 4163,
      "annel": 4164,
      "ĠBlue": 4165,
      "Ġexpressed": 4166,
      "Ġmarriage": 4167,
      "Ġstructures": 4168,
      "Ġnuclear": 4169,
      "ĠCaptain": 4170,
      "ĠKorean": 4171,
      "elligence": 4172,
      "ĠHawai": 4173,
      "ĠFowler": 4174,
      "iqu": 4175,
      "ny": 4176,
      "tic": 4177,
      "uit": 4178,
      "Ġaid": 4179,
      "Ġsides": 4180,
      "oration": 4181,
      "Ġfaced": 4182,
      "Ġthr": 4183,
      "Ġnation": 4184,
      "Ġnarrow": 4185,
      "admium": 4186,
      "Ġonto": 4187,
      "ĠHo": 4188,
      "ĠWash": 4189,
      "ummer": 4190,
      "Ġ182": 4191,
      "Ġrecent": 4192,
      "ĠYue": 4193,
      "ĠDef": 4194,
      "Ġseconds": 4195,
      "Ġwrite": 4196,
      "Ġartists": 4197,
      "Ġowned": 4198,
      "Ġactivities": 4199,
      "Ġtypically": 4200,
      "Ġrecommend": 4201,
      "ĠWashington": 4202,
      "aen": 4203,
      "ket": 4204,
      "ners": 4205,
      "Ġtax": 4206,
      "Ġwear": 4207,
      "ĠTod": 4208,
      "ĠSir": 4209,
      "ĠSpec": 4210,
      "ado": 4211,
      "acement": 4212,
      "ĠMatt": 4213,
      "ĠBal": 4214,
      "idian": 4215,
      "ĠOf": 4216,
      "ĠOut": 4217,
      "Ġvo": 4218,
      "essa": 4219,
      "perial": 4220,
      "Ġboard": 4221,
      "ĠEngine": 4222,
      "Ġ1988": 4223,
      "Ġ1941": 4224,
      "Ġbrigade": 4225,
      "Ġoperated": 4226,
      "Ġdepart": 4227,
      "ledge": 4228,
      "ĠCommon": 4229,
      "ĠClass": 4230,
      "Ġappearances": 4231,
      "Ġcapture": 4232,
      "Ġoppon": 4233,
      "ĠAnderson": 4234,
      "Ġissues": 4235,
      "Ġrights": 4236,
      "Ġprotect": 4237,
      "Ġstrike": 4238,
      "Ġsequence": 4239,
      "ufact": 4240,
      "Ġdedicated": 4241,
      "Ġfederal": 4242,
      "RA": 4243,
      "mir": 4244,
      "Ġathlet": 4245,
      "Ġpil": 4246,
      "Ġpath": 4247,
      "Ġreception": 4248,
      "Ġnarr": 4249,
      "acher": 4250,
      "Ġconver": 4251,
      "emic": 4252,
      "appen": 4253,
      "Ġkick": 4254,
      "ĠKent": 4255,
      "Ġ181": 4256,
      "ĠThough": 4257,
      "Ġoffer": 4258,
      "athus": 4259,
      "Ġdirection": 4260,
      "Ġemph": 4261,
      "Ġinstr": 4262,
      "ĠCont": 4263,
      "Ġpersonnel": 4264,
      "Ġavoid": 4265,
      "Ġsociety": 4266,
      "ĠGovernment": 4267,
      "Ġtower": 4268,
      "Ġcannot": 4269,
      "ĠDistrict": 4270,
      "Ġmaximum": 4271,
      "kin": 4272,
      "met": 4273,
      "rey": 4274,
      "Ġpaper": 4275,
      "Ġmouth": 4276,
      "ĠTime": 4277,
      "oured": 4278,
      "ading": 4279,
      "Ġaltern": 4280,
      "ĠWater": 4281,
      "ĠNixon": 4282,
      "ĠOs": 4283,
      "apo": 4284,
      "oph": 4285,
      "Ġscale": 4286,
      "Ġsinger": 4287,
      "ĠBec": 4288,
      "Ġportion": 4289,
      "ĠProdu": 4290,
      "Ġdemonst": 4291,
      "Ġaffected": 4292,
      "Ġofficials": 4293,
      "Ġtransferred": 4294,
      "mit": 4295,
      "ĠSol": 4296,
      "Ġlosing": 4297,
      "ĠMey": 4298,
      "chan": 4299,
      "Ġcoming": 4300,
      "ĠEr": 4301,
      "ift": 4302,
      "abama": 4303,
      "gend": 4304,
      "Ġ44": 4305,
      "ĠAlabama": 4306,
      "Ġwebs": 4307,
      "Ġ65": 4308,
      "ĠReview": 4309,
      "Ġdefensive": 4310,
      "Ġfamil": 4311,
      "Ġresulting": 4312,
      "Ġshortly": 4313,
      "Ġcollect": 4314,
      "Ġlegal": 4315,
      "Ġplanet": 4316,
      "Ġpaint": 4317,
      "ĠRecords": 4318,
      "ĠEva": 4319,
      "ĠMeridian": 4320,
      "ĠOttoman": 4321,
      "Ġemphas": 4322,
      "hood": 4323,
      "writ": 4324,
      "ware": 4325,
      "Ġcrick": 4326,
      "anz": 4327,
      "etts": 4328,
      "ĠDj": 4329,
      "ĠEastern": 4330,
      "Ġyour": 4331,
      "ĠVilla": 4332,
      "Ġimages": 4333,
      "ĠNews": 4334,
      "Ġdistinct": 4335,
      "ĠZhou": 4336,
      "ĠMean": 4337,
      "Ġtried": 4338,
      "Ġprogress": 4339,
      "Ġtypes": 4340,
      "Ġletters": 4341,
      "cription": 4342,
      "ĠVirginia": 4343,
      "Ġtournament": 4344,
      "BA": 4345,
      "Ġspl": 4346,
      "Ġwave": 4347,
      "Ġbene": 4348,
      "ari": 4349,
      "Ġparents": 4350,
      "iven": 4351,
      "ĠDou": 4352,
      "osen": 4353,
      "ĠJul": 4354,
      "ĠJos": 4355,
      "ĠLand": 4356,
      "agan": 4357,
      "Ġdise": 4358,
      "Ġoffensive": 4359,
      "Ġenemy": 4360,
      "Ġprepar": 4361,
      "Ġweak": 4362,
      "ĠAmericans": 4363,
      "Ġwriters": 4364,
      "Ġsymb": 4365,
      "Ġbroken": 4366,
      "Ġprominent": 4367,
      "Ġservices": 4368,
      "Ġtemple": 4369,
      "Ġtrees": 4370,
      "Ġconflict": 4371,
      "Ġkilometres": 4372,
      "ĠBecause": 4373,
      "ding": 4374,
      "rain": 4375,
      "Ġactions": 4376,
      "alions": 4377,
      "alty": 4378,
      "Ġlives": 4379,
      "omer": 4380,
      "Ġalone": 4381,
      "oses": 4382,
      "ĠJup": 4383,
      "Ġarrest": 4384,
      "ieut": 4385,
      "Ġperman": 4386,
      "Ġ52": 4387,
      "Ġbecomes": 4388,
      "Ġsets": 4389,
      "Ġemot": 4390,
      "Ġbasket": 4391,
      "Ġdivided": 4392,
      "Ġdissip": 4393,
      "Ġphysical": 4394,
      "ĠApple": 4395,
      "ĠRosebery": 4396,
      "ĠAcademy": 4397,
      "Ġwit": 4398,
      "Ġfit": 4399,
      "Ġinch": 4400,
      "rown": 4401,
      "roll": 4402,
      "Ġhair": 4403,
      "Ġhabit": 4404,
      "Ġthir": 4405,
      "imony": 4406,
      "Ġstep": 4407,
      "ĠPost": 4408,
      "ĠWW": 4409,
      "ĠWild": 4410,
      "akapo": 4411,
      "Ġplaces": 4412,
      "Ġcompound": 4413,
      "Ġplays": 4414,
      "Ġremark": 4415,
      "Ġfollows": 4416,
      "Ġcausing": 4417,
      "Ġpattern": 4418,
      "Ġobserv": 4419,
      "Ġsexual": 4420,
      "Ġabandoned": 4421,
      "ĠPhilippines": 4422,
      "Ġnewspaper": 4423,
      "Ġincorpor": 4424,
      "bed": 4425,
      "mission": 4426,
      "Ġcorn": 4427,
      "anes": 4428,
      "Ġple": 4429,
      "Ġrepe": 4430,
      "Ġreaction": 4431,
      "iled": 4432,
      "ĠHum": 4433,
      "ĠField": 4434,
      "ĠDo": 4435,
      "ĠDer": 4436,
      "ĠDam": 4437,
      "Ġrang": 4438,
      "Ġshape": 4439,
      "acks": 4440,
      "Ġyellow": 4441,
      "Ġ51": 4442,
      "Ġscoring": 4443,
      "ĠOnly": 4444,
      "ampion": 4445,
      "Ġinterp": 4446,
      "Ġsubs": 4447,
      "ocks": 4448,
      "Ġacting": 4449,
      "Ġentr": 4450,
      "Ġshowed": 4451,
      "Ġdepth": 4452,
      "Ġoccasion": 4453,
      "Ġedition": 4454,
      "ĠTrans": 4455,
      "ograph": 4456,
      "Ġbasis": 4457,
      "Ġkept": 4458,
      "Ġcondition": 4459,
      "Ġflooding": 4460,
      "AAF": 4461,
      "Ġpiece": 4462,
      "ĠRhodes": 4463,
      "Ġultimately": 4464,
      "ieutenant": 4465,
      "cle": 4466,
      "gs": 4467,
      "ply": 4468,
      "anas": 4469,
      "room": 4470,
      "ican": 4471,
      "ĠTessa": 4472,
      "utions": 4473,
      "ĠFurther": 4474,
      "ĠGreen": 4475,
      "ĠLi": 4476,
      "ricult": 4477,
      "ĠRev": 4478,
      "Ġthemes": 4479,
      "Ġconsisted": 4480,
      "Ġdefin": 4481,
      "Ġmanufact": 4482,
      "Ġenter": 4483,
      "Ġbackground": 4484,
      "Ġ1985": 4485,
      "Ġlandfall": 4486,
      "Ġpassing": 4487,
      "Ġolder": 4488,
      "Ġclaims": 4489,
      "ĠEdward": 4490,
      "Ġorders": 4491,
      "Ġhonor": 4492,
      "Ġachieved": 4493,
      "Ġpieces": 4494,
      "ĠMiddle": 4495,
      "Ġxenon": 4496,
      "ĠJupiter": 4497,
      "VD": 4498,
      "Ġunk": 4499,
      "Ġwing": 4500,
      "Ġwords": 4501,
      "Ġfiction": 4502,
      "Ġmile": 4503,
      "road": 4504,
      "ication": 4505,
      "Ġreign": 4506,
      "usion": 4507,
      "ĠDue": 4508,
      "ĠDVD": 4509,
      "ĠJam": 4510,
      "ĠGall": 4511,
      "ĠOpen": 4512,
      "ĠOcean": 4513,
      "send": 4514,
      "essions": 4515,
      "Ġroll": 4516,
      "issipp": 4517,
      "Ġrelatively": 4518,
      "Ġseasons": 4519,
      "Ġdoing": 4520,
      "Ġsyn": 4521,
      "Ġ1986": 4522,
      "ĠIndepend": 4523,
      "ĠMississipp": 4524,
      "Ġearliest": 4525,
      "Ġcases": 4526,
      "ĠHait": 4527,
      "ĠTownsend": 4528,
      "Ġillust": 4529,
      "Ġmentioned": 4530,
      "Ġtwenty": 4531,
      "Ġfinancial": 4532,
      "Ġenvironment": 4533,
      "ĠMississippi": 4534,
      "right": 4535,
      "heastern": 4536,
      "Ġwars": 4537,
      "Ġcities": 4538,
      "itual": 4539,
      "Ġpaid": 4540,
      "ĠSouthern": 4541,
      "ĠMog": 4542,
      "ĠBol": 4543,
      "use": 4544,
      "Ġchosen": 4545,
      "Ġcontain": 4546,
      "Ġ46": 4547,
      "Ġcolumn": 4548,
      "Ġmovie": 4549,
      "Ġcalling": 4550,
      "Ġmuseum": 4551,
      "Ġsupporting": 4552,
      "Ġedge": 4553,
      "Ġwindow": 4554,
      "ĠChurchill": 4555,
      "Ġhistorical": 4556,
      "shire": 4557,
      "Äģd": 4558,
      "Ġmeasure": 4559,
      "Ġopin": 4560,
      "ĠValley": 4561,
      "Ġcerem": 4562,
      "ga": 4563,
      "wide": 4564,
      "iny": 4565,
      "Ġsales": 4566,
      "Ġfa": 4567,
      "Ġreact": 4568,
      "ĠSal": 4569,
      "Ġlot": 4570,
      "ĠMax": 4571,
      "Ġattended": 4572,
      "ĠLike": 4573,
      "ipl": 4574,
      "Ġroy": 4575,
      "Ġ41": 4576,
      "ibr": 4577,
      "Ġnewly": 4578,
      "Ġactor": 4579,
      "ĠAtt": 4580,
      "ĠLeg": 4581,
      "Ġ1944": 4582,
      "ĠShort": 4583,
      "ĠJohnson": 4584,
      "Ġversions": 4585,
      "Ġsuggests": 4586,
      "Ġletter": 4587,
      "Ġsources": 4588,
      "ceeded": 4589,
      "ĠOdaen": 4590,
      "Ġequipment": 4591,
      "ĠHelms": 4592,
      "Ġchallen": 4593,
      "Ġdetermined": 4594,
      "ĠOdaenathus": 4595,
      "iate": 4596,
      "the": 4597,
      "unte": 4598,
      "Ġcore": 4599,
      "Ġfired": 4600,
      "Ġfruit": 4601,
      "Ġhospital": 4602,
      "ulations": 4603,
      "claim": 4604,
      "Ġadvert": 4605,
      "Ġ43": 4606,
      "Ġ55": 4607,
      "Ġscient": 4608,
      "Ġserve": 4609,
      "Ġfounded": 4610,
      "Ġartic": 4611,
      "Ġreports": 4612,
      "Ġkilling": 4613,
      "Ġrequire": 4614,
      "Ġdebuted": 4615,
      "Ġchem": 4616,
      "Ġpotential": 4617,
      "Ġtemperature": 4618,
      "Ġrapidly": 4619,
      "ĠMogad": 4620,
      "je": 4621,
      "err": 4622,
      "Ġsport": 4623,
      "Ġsister": 4624,
      "Ġmel": 4625,
      "Ġdut": 4626,
      "ĠMD": 4627,
      "ĠMounted": 4628,
      "ĠBond": 4629,
      "ĠNes": 4630,
      "Ġseek": 4631,
      "ishu": 4632,
      "ĠThunder": 4633,
      "Ġagg": 4634,
      "Ġjun": 4635,
      "Ġworkers": 4636,
      "ugby": 4637,
      "Ġsubmar": 4638,
      "Ġelev": 4639,
      "Ġ1972": 4640,
      "iami": 4641,
      "Ġmodel": 4642,
      "Ġvisited": 4643,
      "ĠAndrew": 4644,
      "Ġdeliver": 4645,
      "Ġencour": 4646,
      "Ġconnected": 4647,
      "Ġgirl": 4648,
      "ĠMogadishu": 4649,
      "ares": 4650,
      "uge": 4651,
      "Ġahead": 4652,
      "onic": 4653,
      "isters": 4654,
      "ĠTint": 4655,
      "ĠMiami": 4656,
      "thur": 4657,
      "Ġenergy": 4658,
      "anger": 4659,
      "Ġ64": 4660,
      "Ġprin": 4661,
      "Ġflank": 4662,
      "Ġspecim": 4663,
      "orney": 4664,
      "Ġgraph": 4665,
      "Ġ1987": 4666,
      "Ġtermin": 4667,
      "ĠConstant": 4668,
      "ĠAdd": 4669,
      "Ġresults": 4670,
      "heless": 4671,
      "Ġauthorities": 4672,
      "Ġmagn": 4673,
      "Ġmanagement": 4674,
      "Ġcouple": 4675,
      "Ġvalue": 4676,
      "ĠBackground": 4677,
      "Ġweakened": 4678,
      "Ġdismiss": 4679,
      "ĠNicole": 4680,
      "ĠDemocr": 4681,
      "ĠIllino": 4682,
      "Ġconsecutive": 4683,
      "Ġunknown": 4684,
      "ĠTintin": 4685,
      "ex": 4686,
      "ech": 4687,
      "Ġmess": 4688,
      "Ġmounted": 4689,
      "lection": 4690,
      "ĠSil": 4691,
      "Ġgained": 4692,
      "Ġheart": 4693,
      "Ġheight": 4694,
      "ĠGar": 4695,
      "ĠGreek": 4696,
      "Ġsuc": 4697,
      "ighth": 4698,
      "Ġchief": 4699,
      "Ġshare": 4700,
      "ĠStone": 4701,
      "Ġunivers": 4702,
      "Ġremix": 4703,
      "Ġproduce": 4704,
      "Ġcharge": 4705,
      "Ġsetting": 4706,
      "Ġalbums": 4707,
      "Ġmonument": 4708,
      "Ġ1947": 4709,
      "prise": 4710,
      "airs": 4711,
      "Ġ1969": 4712,
      "Ġreturning": 4713,
      "Ġwinter": 4714,
      "Ġtitled": 4715,
      "Ġpossibly": 4716,
      "Ġbelieve": 4717,
      "ĠOrigin": 4718,
      "Ġsites": 4719,
      "Ġpitched": 4720,
      "Ġindividuals": 4721,
      "Ġcontrolled": 4722,
      "Ġweapons": 4723,
      "onymous": 4724,
      "ĠCeres": 4725,
      "ĠFamily": 4726,
      "hold": 4727,
      "pass": 4728,
      "Ġtact": 4729,
      "erbe": 4730,
      "Ġsen": 4731,
      "eds": 4732,
      "atch": 4733,
      "Ġdu": 4734,
      "ĠAvenue": 4735,
      "adel": 4736,
      "ĠBu": 4737,
      "ĠHome": 4738,
      "Ġrhy": 4739,
      "ordon": 4740,
      "Ġcompar": 4741,
      "Ġcontributed": 4742,
      "ogue": 4743,
      "Ġ600": 4744,
      "Ġspread": 4745,
      "Ġ95": 4746,
      "Ġretired": 4747,
      "Ġfloor": 4748,
      "ologists": 4749,
      "Ġtherefore": 4750,
      "ĠShiva": 4751,
      "ĠIndust": 4752,
      "Ġbelong": 4753,
      "Ġreference": 4754,
      "Ġbehav": 4755,
      "Ġcultural": 4756,
      "Ġlooking": 4757,
      "Ġidentified": 4758,
      "Ġanimal": 4759,
      "Ġseems": 4760,
      "ĠInnis": 4761,
      "ĠMeanwhile": 4762,
      "rane": 4763,
      "uccess": 4764,
      "inal": 4765,
      "Ġsought": 4766,
      "edar": 4767,
      "Ġcadmium": 4768,
      "Ġfle": 4769,
      "Ġpup": 4770,
      "Ġhol": 4771,
      "ental": 4772,
      "ĠHal": 4773,
      "ĠRad": 4774,
      "ĠWels": 4775,
      "andy": 4776,
      "ĠNaz": 4777,
      "Ġsend": 4778,
      "Ġrat": 4779,
      "Ġproved": 4780,
      "Ġshaped": 4781,
      "Ġcompr": 4782,
      "Ġcontact": 4783,
      "Ġweight": 4784,
      "Ġ120": 4785,
      "Ġbrown": 4786,
      "Ġpasses": 4787,
      "Ġofficially": 4788,
      "ĠAllied": 4789,
      "Ġviewers": 4790,
      "Ġtwice": 4791,
      "ĠPerÃ³n": 4792,
      "ĠVictoria": 4793,
      "ĠForest": 4794,
      "Ġschedul": 4795,
      "Ġconfirmed": 4796,
      "Ġsustained": 4797,
      "ĠTurner": 4798,
      "ĠWelsh": 4799,
      "mes": 4800,
      "Ġoil": 4801,
      "Ġwor": 4802,
      "ening": 4803,
      "Ġmind": 4804,
      "Ġdated": 4805,
      "ĠMass": 4806,
      "ĠBost": 4807,
      "Ġstra": 4808,
      "Ġhere": 4809,
      "ĠFleet": 4810,
      "Ġven": 4811,
      "Ġboat": 4812,
      "Ġregions": 4813,
      "ĠBridge": 4814,
      "Ġ179": 4815,
      "ĠBefore": 4816,
      "inkel": 4817,
      "aha": 4818,
      "helm": 4819,
      "Ġstanding": 4820,
      "arrison": 4821,
      "Ġfrag": 4822,
      "Ġcriticized": 4823,
      "Ġauthority": 4824,
      "ĠAssembly": 4825,
      "Ġknowledge": 4826,
      "Ġaccompan": 4827,
      "Ġargued": 4828,
      "Ġwalls": 4829,
      "ĠEgyptian": 4830,
      "bitt": 4831,
      "Ġlabel": 4832,
      "Ġscholars": 4833,
      "Ġmoment": 4834,
      "Ġwebsite": 4835,
      "ĠNesbitt": 4836,
      "ĠBoston": 4837,
      "Ġstraight": 4838,
      "Ġfear": 4839,
      "Ġfought": 4840,
      "Ġhappen": 4841,
      "Ġreaching": 4842,
      "ĠAp": 4843,
      "ĠBur": 4844,
      "etic": 4845,
      "estic": 4846,
      "ĠLar": 4847,
      "umber": 4848,
      "ĠEc": 4849,
      "ĠEach": 4850,
      "ĠAlbum": 4851,
      "ĠArg": 4852,
      "Ġbroke": 4853,
      "Ġsouthwest": 4854,
      "ĠCommun": 4855,
      "ĠMinister": 4856,
      "Ġpitcher": 4857,
      "ĠCongress": 4858,
      "ĠBraat": 4859,
      "rupt": 4860,
      "Ġrisk": 4861,
      "house": 4862,
      "town": 4863,
      "uous": 4864,
      "Ġir": 4865,
      "Ġwa": 4866,
      "ĠMountain": 4867,
      "Ġgrew": 4868,
      "ĠBall": 4869,
      "ĠBBC": 4870,
      "ĠHu": 4871,
      "ĠFinkel": 4872,
      "ĠDutch": 4873,
      "ĠNative": 4874,
      "ĠGordon": 4875,
      "ĠLew": 4876,
      "ĠLieutenant": 4877,
      "Ġridge": 4878,
      "ĠOx": 4879,
      "Ġchoice": 4880,
      "Ġtry": 4881,
      "Ġcontent": 4882,
      "Ġtend": 4883,
      "Ġweather": 4884,
      "Ġ62": 4885,
      "Ġspeak": 4886,
      "Ġfilmed": 4887,
      "Ġsecondary": 4888,
      "Ġemperor": 4889,
      "Ġproteins": 4890,
      "Ġsubsequent": 4891,
      "Ġdoub": 4892,
      "clusion": 4893,
      "Ġtarget": 4894,
      "Ġgranted": 4895,
      "Ġnecessary": 4896,
      "ĠFinkelstein": 4897,
      "FA": 4898,
      "ev": 4899,
      "wen": 4900,
      "yond": 4901,
      "Ġsac": 4902,
      "Ġsail": 4903,
      "Ġfast": 4904,
      "rol": 4905,
      "ros": 4906,
      "ĠTim": 4907,
      "Ġbeyond": 4908,
      "iments": 4909,
      "ĠFant": 4910,
      "agement": 4911,
      "ĠUl": 4912,
      "Ġtrain": 4913,
      "ordin": 4914,
      "Ġ53": 4915,
      "Ġ700": 4916,
      "Ġmechan": 4917,
      "ĠAnn": 4918,
      "ĠAsia": 4919,
      "Ġwrites": 4920,
      "Ġactors": 4921,
      "Ġcoal": 4922,
      "Ġ1989": 4923,
      "Ġbattalions": 4924,
      "Ġadvanced": 4925,
      "Ġextra": 4926,
      "Ġtitles": 4927,
      "Ġtrial": 4928,
      "ĠAmong": 4929,
      "Ã¡n": 4930,
      "auty": 4931,
      "Ġtanks": 4932,
      "Ġdescription": 4933,
      "Ġroyal": 4934,
      "TC": 4935,
      "Ġwild": 4936,
      "Ġbott": 4937,
      "asc": 4938,
      "Ġlaid": 4939,
      "ĠCons": 4940,
      "olved": 4941,
      "Ġconne": 4942,
      "ĠFestival": 4943,
      "Ġsuit": 4944,
      "Ġkg": 4945,
      "eller": 4946,
      "Ġscience": 4947,
      "Ġ97": 4948,
      "Ġcolor": 4949,
      "Ġformation": 4950,
      "Ġstudent": 4951,
      "Ġmatter": 4952,
      "Ġlanding": 4953,
      "ĠGuard": 4954,
      "Ġarrival": 4955,
      "Ġbelief": 4956,
      "Ġopposed": 4957,
      "Ġeffective": 4958,
      "Ġfreeway": 4959,
      "Ġpromoted": 4960,
      "ĠSecret": 4961,
      "Ġgrowing": 4962,
      "Ġgrowth": 4963,
      "Ġeconomic": 4964,
      "ĠWilhelm": 4965,
      "Ġpolicy": 4966,
      "Ġbasketball": 4967,
      "bird": 4968,
      "mark": 4969,
      "Ġfolk": 4970,
      "ĠSo": 4971,
      "ela": 4972,
      "ĠBon": 4973,
      "ĠBir": 4974,
      "oted": 4975,
      "ĠPop": 4976,
      "Ġconve": 4977,
      "ĠGib": 4978,
      "ĠEven": 4979,
      "Ġperfect": 4980,
      "Ġ54": 4981,
      "ĠItaly": 4982,
      "ĠOnce": 4983,
      "Ġacad": 4984,
      "Ġelement": 4985,
      "ĠConference": 4986,
      "Ġsystems": 4987,
      "Ġexplained": 4988,
      "Ġprotein": 4989,
      "Ġsignificantly": 4990,
      "ĠWilliams": 4991,
      "ĠSystem": 4992,
      "Ġinjury": 4993,
      "Ġfrequently": 4994,
      "Ġmaintained": 4995,
      "ĠBetween": 4996,
      "ĠMeyerbe": 4997,
      "ĠThunderbird": 4998,
      "ĠIllinois": 4999,
      "uccessful": 5000,
      "ĠMeyerbeer": 5001,
      "bon": 5002,
      "orus": 5003,
      "ĠCre": 5004,
      "ĠMore": 5005,
      "uting": 5006,
      "ĠNBA": 5007,
      "ĠLord": 5008,
      "resh": 5009,
      "oper": 5010,
      "ocated": 5011,
      "astic": 5012,
      "ĠKn": 5013,
      "Ġcontaining": 5014,
      "ĠAlso": 5015,
      "Ġspot": 5016,
      "ĠReception": 5017,
      "Ġconsp": 5018,
      "ĠDevelop": 5019,
      "phia": 5020,
      "Ġ1964": 5021,
      "ĠTeam": 5022,
      "Ġorganis": 5023,
      "Ġorganiz": 5024,
      "Ġmedical": 5025,
      "ĠWeek": 5026,
      "Ġhistorian": 5027,
      "ĠRichmond": 5028,
      "Ġfunction": 5029,
      "ushing": 5030,
      "ĠOffice": 5031,
      "Ġincreasingly": 5032,
      "Ġprepared": 5033,
      "adelphia": 5034,
      "gal": 5035,
      "nest": 5036,
      "Ġtheory": 5037,
      "atops": 5038,
      "Ġfix": 5039,
      "Ġbud": 5040,
      "asure": 5041,
      "ĠAv": 5042,
      "Ġegg": 5043,
      "urches": 5044,
      "ĠMike": 5045,
      "Ġgas": 5046,
      "ĠHorn": 5047,
      "ĠRome": 5048,
      "ĠPublic": 5049,
      "ĠWay": 5050,
      "ĠWrit": 5051,
      "ersey": 5052,
      "ĠOm": 5053,
      "Ġkakapo": 5054,
      "Ġshr": 5055,
      "ĠKr": 5056,
      "Ġcontained": 5057,
      "Ġspend": 5058,
      "ĠArm": 5059,
      "Ġassass": 5060,
      "ocked": 5061,
      "Ġsupply": 5062,
      "Ġlands": 5063,
      "ĠClark": 5064,
      "Ġcommanded": 5065,
      "Ġdelay": 5066,
      "Ġprojects": 5067,
      "Ġfavour": 5068,
      "Ġparticipated": 5069,
      "Ġmultiple": 5070,
      "Ġjournal": 5071,
      "ĠJeff": 5072,
      "Ġplatform": 5073,
      "Ġexperienced": 5074,
      "Ġrejected": 5075,
      "ĠJoseph": 5076,
      "Ġentrance": 5077,
      "Ġsenior": 5078,
      "ĠArgent": 5079,
      "ĠOxford": 5080,
      "cy": 5081,
      "Ġtall": 5082,
      "Ġsports": 5083,
      "Ġwides": 5084,
      "Ġcust": 5085,
      "Ġcamer": 5086,
      "ano": 5087,
      "Ġhors": 5088,
      "ĠTra": 5089,
      "ĠSch": 5090,
      "ĠRail": 5091,
      "Ġalter": 5092,
      "Ġconvers": 5093,
      "ĠNever": 5094,
      "Ġseat": 5095,
      "umes": 5096,
      "Ġrival": 5097,
      "appe": 5098,
      "Ġnote": 5099,
      "Ġresemb": 5100,
      "ansas": 5101,
      "Ġteacher": 5102,
      "Ġimag": 5103,
      "Ġspring": 5104,
      "Ġcolour": 5105,
      "Ġ1984": 5106,
      "Ġ177": 5107,
      "Ġcreation": 5108,
      "Ġleader": 5109,
      "insula": 5110,
      "Ġsuccessfully": 5111,
      "Ġprotest": 5112,
      "Ġentirely": 5113,
      "ĠFinal": 5114,
      "Ġexecutive": 5115,
      "white": 5116,
      "Ġslowly": 5117,
      "Ġconnect": 5118,
      "Ġdropped": 5119,
      "Ġdocument": 5120,
      "Ġfailure": 5121,
      "Ġmolec": 5122,
      "Ġconverted": 5123,
      "ĠApplewhite": 5124,
      "ĠAddition": 5125,
      "Ġfung": 5126,
      "Ġbass": 5127,
      "aling": 5128,
      "Ġmaster": 5129,
      "iles": 5130,
      "adow": 5131,
      "ĠPet": 5132,
      "ĠDen": 5133,
      "Ġdeities": 5134,
      "Ġseg": 5135,
      "ĠLo": 5136,
      "ĠEnd": 5137,
      "alls": 5138,
      "Ġ61": 5139,
      "Ġ93": 5140,
      "Ġflag": 5141,
      "Ġappl": 5142,
      "Ġgrass": 5143,
      "ertain": 5144,
      "Ġsingles": 5145,
      "Ġ130": 5146,
      "Ġprompt": 5147,
      "Ġoldest": 5148,
      "Ġdrum": 5149,
      "Ġturns": 5150,
      "Ġstrik": 5151,
      "Ġreligion": 5152,
      "Ġproblem": 5153,
      "Ġnominated": 5154,
      "Ġindependent": 5155,
      "Ġdegree": 5156,
      "Ġunsuccessful": 5157,
      "Ġsemi": 5158,
      "Ġdomestic": 5159,
      "Ġdisease": 5160,
      "ĠBraathens": 5161,
      "ĠOmaha": 5162,
      "pread": 5163,
      "Ġox": 5164,
      "alle": 5165,
      "Ġpict": 5166,
      "Ġdraft": 5167,
      "ĠSky": 5168,
      "amic": 5169,
      "Ġones": 5170,
      "iring": 5171,
      "ĠHart": 5172,
      "ĠHib": 5173,
      "ĠFar": 5174,
      "ĠGulf": 5175,
      "istry": 5176,
      "Ġvirt": 5177,
      "ĠUs": 5178,
      "ĠStan": 5179,
      "ĠKa": 5180,
      "Ġdescend": 5181,
      "Ġunderground": 5182,
      "Ġsole": 5183,
      "Ġsevere": 5184,
      "ĠUSA": 5185,
      "Ġguest": 5186,
      "Ġfamous": 5187,
      "Ġsimple": 5188,
      "uese": 5189,
      "ĠAdmir": 5190,
      "Ġfinds": 5191,
      "Ġideas": 5192,
      "ĠPhiladelphia": 5193,
      "ĠPalest": 5194,
      "ĠType": 5195,
      "ructure": 5196,
      "ĠVaranas": 5197,
      "Ġbattery": 5198,
      "Ġseventh": 5199,
      "ĠPortuguese": 5200,
      "ĠVaranasi": 5201,
      "hu": 5202,
      "haps": 5203,
      "ining": 5204,
      "ora": 5205,
      "Ġnest": 5206,
      "ĠBank": 5207,
      "oty": 5208,
      "ĠPen": 5209,
      "ĠJur": 5210,
      "ĠJourn": 5211,
      "Ġring": 5212,
      "Ġrise": 5213,
      "Ġcomes": 5214,
      "Ġextend": 5215,
      "antly": 5216,
      "ĠUN": 5217,
      "ovic": 5218,
      "Ġ56": 5219,
      "Ġremn": 5220,
      "Ġdeveloping": 5221,
      "Ġeditor": 5222,
      "Ġgives": 5223,
      "Ġserving": 5224,
      "Ġdeaths": 5225,
      "ĠProv": 5226,
      "Ġcollected": 5227,
      "ĠAndy": 5228,
      "Ġphil": 5229,
      "Ġfinding": 5230,
      "Ġforeign": 5231,
      "Ġsolo": 5232,
      "Ġpromotion": 5233,
      "Ġanimals": 5234,
      "Ġcurrently": 5235,
      "Ġtreatment": 5236,
      "Ġregarded": 5237,
      "Ġstopped": 5238,
      "ĠCardiff": 5239,
      "ĠOlympic": 5240,
      "Le": 5241,
      "gn": 5242,
      "more": 5243,
      "Ġtim": 5244,
      "inem": 5245,
      "Ġcouncil": 5246,
      "Ġbit": 5247,
      "Ġdrop": 5248,
      "ĠTri": 5249,
      "stream": 5250,
      "ĠSummer": 5251,
      "ĠBas": 5252,
      "ĠBurn": 5253,
      "idges": 5254,
      "Ġstations": 5255,
      "Ġstages": 5256,
      "ety": 5257,
      "ĠNight": 5258,
      "ĠLine": 5259,
      "ĠLock": 5260,
      "Ġexclus": 5261,
      "ĠUTC": 5262,
      "Ġnotable": 5263,
      "Ġunique": 5264,
      "ĠVen": 5265,
      "ansion": 5266,
      "Ġ1946": 5267,
      "Ġ164": 5268,
      "Ġ1918": 5269,
      "Ġextensive": 5270,
      "Ġpublication": 5271,
      "Ġrestaur": 5272,
      "restling": 5273,
      "Ġcoastal": 5274,
      "Ġcertified": 5275,
      "Ġsoundtr": 5276,
      "ĠMagazine": 5277,
      "ĠSwed": 5278,
      "Ġburied": 5279,
      "Ġpoetry": 5280,
      "Ġoccupied": 5281,
      "Ġpremi": 5282,
      "Ġpurchased": 5283,
      "ĠBowl": 5284,
      "Ġscheduled": 5285,
      "iot": 5286,
      "iations": 5287,
      "mosp": 5288,
      "Ġere": 5289,
      "Ġaired": 5290,
      "Ġtheat": 5291,
      "erick": 5292,
      "Ġparliament": 5293,
      "ĠAD": 5294,
      "ĠFey": 5295,
      "Ġatmosp": 5296,
      "ĠWork": 5297,
      "ĠJon": 5298,
      "ĠGood": 5299,
      "Ġcomedy": 5300,
      "ĠERA": 5301,
      "ĠInstitute": 5302,
      "Ġchose": 5303,
      "Ġexped": 5304,
      "Ġrecently": 5305,
      "Ġagricult": 5306,
      "Ġoverse": 5307,
      "Ġ72": 5308,
      "Ġ800": 5309,
      "Ġfilming": 5310,
      "ĠMarine": 5311,
      "Ġdecades": 5312,
      "ĠSha": 5313,
      "Ġleaders": 5314,
      "Ġ1965": 5315,
      "Ġheaded": 5316,
      "Ġguard": 5317,
      "Ġcampus": 5318,
      "Ġworldwide": 5319,
      "Ġphase": 5320,
      "Ġpropos": 5321,
      "Ġpopularity": 5322,
      "Ġpainting": 5323,
      "ĠButler": 5324,
      "Ġencounter": 5325,
      "Ġdollar": 5326,
      "ĠCroatia": 5327,
      "Ġearthqu": 5328,
      "Ġanalysis": 5329,
      "Ġsoutheast": 5330,
      "Ġsupplies": 5331,
      "ĠToday": 5332,
      "ĠProduction": 5333,
      "ibrary": 5334,
      "Ġaccompanied": 5335,
      "Ġwidespread": 5336,
      "crib": 5337,
      "iable": 5338,
      "Ġselling": 5339,
      "Ġcited": 5340,
      "Ġfan": 5341,
      "stead": 5342,
      "ĠSar": 5343,
      "ĠSarn": 5344,
      "ĠChe": 5345,
      "Ġstarl": 5346,
      "ĠFox": 5347,
      "Ġrif": 5348,
      "ella": 5349,
      "Ġherself": 5350,
      "Ġfinals": 5351,
      "issance": 5352,
      "Ġaccident": 5353,
      "Ġacres": 5354,
      "Ġincident": 5355,
      "Ġ1943": 5356,
      "Ġ1971": 5357,
      "Ġ110": 5358,
      "Ġstarts": 5359,
      "Ġsimply": 5360,
      "Ġ1914": 5361,
      "ĠCarl": 5362,
      "ĠProject": 5363,
      "Ġprotection": 5364,
      "Ġdeclined": 5365,
      "graded": 5366,
      "Ġrecognized": 5367,
      "Ġvolunte": 5368,
      "Ġcreating": 5369,
      "Ġcolonial": 5370,
      "Ġcommissioned": 5371,
      "ĠHolly": 5372,
      "Ġbriefly": 5373,
      "Ġsilver": 5374,
      "Ġvehicles": 5375,
      "Ġresponded": 5376,
      "ĠLewis": 5377,
      "Ġbottom": 5378,
      "ĠSarnia": 5379,
      "come": 5380,
      "iences": 5381,
      "Ġsens": 5382,
      "Ġbid": 5383,
      "ani": 5384,
      "Ġmig": 5385,
      "Ġmob": 5386,
      "Ġdates": 5387,
      "Ġhor": 5388,
      "Ġreform": 5389,
      "Ġheard": 5390,
      "ĠFriend": 5391,
      "aine": 5392,
      "ĠNC": 5393,
      "ĠGreg": 5394,
      "iance": 5395,
      "Ġintelligence": 5396,
      "Ġrow": 5397,
      "Ġadj": 5398,
      "Ġ57": 5399,
      "Ġ73": 5400,
      "Ġ1981": 5401,
      "Ġprovides": 5402,
      "Ġclassified": 5403,
      "Ġreflect": 5404,
      "Ġcollege": 5405,
      "Ġbreeding": 5406,
      "Ġlaws": 5407,
      "Ġpoems": 5408,
      "Ġlosses": 5409,
      "Ġemployed": 5410,
      "Ġliterature": 5411,
      "Ġjourney": 5412,
      "ĠTorres": 5413,
      "Ġflying": 5414,
      "Ġinnings": 5415,
      "Ġsettlement": 5416,
      "ĠColonel": 5417,
      "Ġpaintings": 5418,
      "Ġbudget": 5419,
      "mun": 5420,
      "Ġtun": 5421,
      "Ġawards": 5422,
      "inity": 5423,
      "iced": 5424,
      "ĠCub": 5425,
      "ĠTheatre": 5426,
      "Ġbeg": 5427,
      "ĠMov": 5428,
      "ĠBan": 5429,
      "ĠBand": 5430,
      "ĠRam": 5431,
      "ĠNorm": 5432,
      "ĠGard": 5433,
      "ichol": 5434,
      "udd": 5435,
      "ĠChart": 5436,
      "assy": 5437,
      "ĠVan": 5438,
      "Ġoverl": 5439,
      "ĠArthur": 5440,
      "Ġsinging": 5441,
      "Ġdistingu": 5442,
      "Ġcarri": 5443,
      "ĠWhat": 5444,
      "Ġoccas": 5445,
      "ĠJuan": 5446,
      "Ġpossibility": 5447,
      "Ġcriticism": 5448,
      "Ġsurviv": 5449,
      "Ġtechnique": 5450,
      "Ġnegot": 5451,
      "ĠGovernor": 5452,
      "Ġdominated": 5453,
      "Ġattract": 5454,
      "ĠThroughout": 5455,
      "Ġnucleus": 5456,
      "Ġaspects": 5457,
      "eer": 5458,
      "ture": 5459,
      "uate": 5460,
      "Ġut": 5461,
      "Ġrom": 5462,
      "Ġtree": 5463,
      "Ġaim": 5464,
      "rets": 5465,
      "isf": 5466,
      "Ġbats": 5467,
      "Ġpan": 5468,
      "Ġmort": 5469,
      "Ġmales": 5470,
      "ĠAM": 5471,
      "Ġeas": 5472,
      "Ġeth": 5473,
      "ĠBul": 5474,
      "ĠBishop": 5475,
      "ĠRet": 5476,
      "ĠPress": 5477,
      "ĠFive": 5478,
      "ĠWell": 5479,
      "ĠLis": 5480,
      "ifically": 5481,
      "Ġunp": 5482,
      "Ġunus": 5483,
      "Ġspeaking": 5484,
      "Ġ96": 5485,
      "Ġcolony": 5486,
      "Ġinterchange": 5487,
      "amese": 5488,
      "Ġnothing": 5489,
      "ĠBrig": 5490,
      "ancy": 5491,
      "ancing": 5492,
      "Ġstrateg": 5493,
      "ulls": 5494,
      "ĠSteve": 5495,
      "Ġplanning": 5496,
      "Ġfocused": 5497,
      "Ġexisting": 5498,
      "ĠVietnamese": 5499,
      "Ġbillion": 5500,
      "Ġproperty": 5501,
      "ĠMacLe": 5502,
      "Ġdrama": 5503,
      "ĠEntertain": 5504,
      "ĠDaniel": 5505,
      "Ġroughly": 5506,
      "Ġconvection": 5507,
      "ien": 5508,
      "lim": 5509,
      "ero": 5510,
      "reets": 5511,
      "Ġpul": 5512,
      "Ġdry": 5513,
      "Ġdress": 5514,
      "Ġhom": 5515,
      "ĠTru": 5516,
      "ĠSund": 5517,
      "ador": 5518,
      "lythe": 5519,
      "ura": 5520,
      "ĠMat": 5521,
      "Ġstret": 5522,
      "utation": 5523,
      "ulate": 5524,
      "opes": 5525,
      "Ġchair": 5526,
      "Ġchurches": 5527,
      "ĠChild": 5528,
      "izes": 5529,
      "Ġneither": 5530,
      "Ġfinishing": 5531,
      "Ġspect": 5532,
      "Ġcenturies": 5533,
      "oys": 5534,
      "Ġends": 5535,
      "Ġassemb": 5536,
      "Ġcool": 5537,
      "Ġmush": 5538,
      "Ġlocations": 5539,
      "orne": 5540,
      "Ġadding": 5541,
      "Ġ1974": 5542,
      "Ġ1968": 5543,
      "Ġopera": 5544,
      "Ġ1939": 5545,
      "ĠBarrow": 5546,
      "Ġsurvived": 5547,
      "ĠCrown": 5548,
      "Ġruled": 5549,
      "Ġhyd": 5550,
      "ĠCoast": 5551,
      "Ġcollabor": 5552,
      "Ġarchaeological": 5553,
      "Ġathletes": 5554,
      "Ġfamilies": 5555,
      "ĠDougl": 5556,
      "ĠDevelopment": 5557,
      "Ġphilos": 5558,
      "Station": 5559,
      "de": 5560,
      "pond": 5561,
      "rid": 5562,
      "Ġice": 5563,
      "orter": 5564,
      "Ġcaught": 5565,
      "Ġfat": 5566,
      "isers": 5567,
      "Ġdaily": 5568,
      "ĠAthlet": 5569,
      "ĠCold": 5570,
      "Ġge": 5571,
      "ĠIra": 5572,
      "ivered": 5573,
      "ĠBre": 5574,
      "Ġstream": 5575,
      "ĠHaven": 5576,
      "ĠRog": 5577,
      "iana": 5578,
      "ĠChap": 5579,
      "Ġarts": 5580,
      "Ġreserv": 5581,
      "izing": 5582,
      "wealth": 5583,
      "Ġ98": 5584,
      "Ġ81": 5585,
      "Ġmoves": 5586,
      "Ġ1975": 5587,
      "Ġ1967": 5588,
      "Ġturning": 5589,
      "Ġsentence": 5590,
      "Ġreplacement": 5591,
      "ographer": 5592,
      "Ġviews": 5593,
      "Ġroads": 5594,
      "Ġdelivered": 5595,
      "ĠAirport": 5596,
      "Ġsteel": 5597,
      "ĠHamels": 5598,
      "urban": 5599,
      "Ġburns": 5600,
      "Ġescape": 5601,
      "Ġviolence": 5602,
      "ĠPlayStation": 5603,
      "Ġshooting": 5604,
      "Ġsculpture": 5605,
      "Ġcricket": 5606,
      "Äģda": 5607,
      "erc": 5608,
      "rete": 5609,
      "Ġsand": 5610,
      "Ġsort": 5611,
      "Ġworship": 5612,
      "Ġcrop": 5613,
      "arian": 5614,
      "Ġpal": 5615,
      "Ġham": 5616,
      "ĠCra": 5617,
      "usal": 5618,
      "Ġwhy": 5619,
      "ĠFer": 5620,
      "ules": 5621,
      "estone": 5622,
      "umpt": 5623,
      "Ġrating": 5624,
      "Ġcho": 5625,
      "Ġtrying": 5626,
      "Ġcontrib": 5627,
      "rait": 5628,
      "uble": 5629,
      "outs": 5630,
      "ĠVideo": 5631,
      "Ġneut": 5632,
      "ilding": 5633,
      "Ġconsists": 5634,
      "ĠArts": 5635,
      "Ġdefined": 5636,
      "Ġcalls": 5637,
      "Ġ1945": 5638,
      "Ġadvent": 5639,
      "Ġpasseng": 5640,
      "Ġexpress": 5641,
      "Ġexpanded": 5642,
      "Ġdrive": 5643,
      "Ġtrip": 5644,
      "Ġengaged": 5645,
      "Ġhumans": 5646,
      "Ġimportance": 5647,
      "ĠSongs": 5648,
      "ĠIslands": 5649,
      "Ġproducing": 5650,
      "Ġproducers": 5651,
      "appy": 5652,
      "Ġfacilities": 5653,
      "Ġlearned": 5654,
      "ĠMilitary": 5655,
      "ĠFrederick": 5656,
      "Ġwitness": 5657,
      "ĠRevolution": 5658,
      "Ġfaith": 5659,
      "Ġhorses": 5660,
      "Ġbegun": 5661,
      "bl": 5662,
      "hat": 5663,
      "pet": 5664,
      "rong": 5665,
      "tim": 5666,
      "win": 5667,
      "Ġcit": 5668,
      "itch": 5669,
      "Ġfox": 5670,
      "Ġtomb": 5671,
      "Ġdata": 5672,
      "ĠSpr": 5673,
      "ĠSanta": 5674,
      "iday": 5675,
      "Ġstreet": 5676,
      "Ġisol": 5677,
      "ĠRon": 5678,
      "ĠRih": 5679,
      "ĠDream": 5680,
      "aved": 5681,
      "ĠLiber": 5682,
      "odon": 5683,
      "oren": 5684,
      "Ġleaves": 5685,
      "Ġlegend": 5686,
      "ĠAlf": 5687,
      "Ġcommit": 5688,
      "Ġcharges": 5689,
      "Ġsurre": 5690,
      "Ġdecor": 5691,
      "Ġminer": 5692,
      "Ġdistrict": 5693,
      "Ġ1915": 5694,
      "ashion": 5695,
      "Ġtyphoon": 5696,
      "Ġviewed": 5697,
      "Ġparalle": 5698,
      "Ġcorre": 5699,
      "Ġprotagon": 5700,
      "Ġmissing": 5701,
      "Ġeyes": 5702,
      "ĠImperial": 5703,
      "Ġexistence": 5704,
      "Ġregarding": 5705,
      "ĠEmperor": 5706,
      "Ġnegative": 5707,
      "Ġgradually": 5708,
      "Ġadapted": 5709,
      "ĠHoward": 5710,
      "ĠCroatian": 5711,
      "Ġpermanent": 5712,
      "ĠJurc": 5713,
      "Ġsoundtrack": 5714,
      "Ġearthquake": 5715,
      "ĠMacLeod": 5716,
      "ĠEntertainment": 5717,
      "ĠIraq": 5718,
      "ĠRihanna": 5719,
      "cel": 5720,
      "eed": 5721,
      "fort": 5722,
      "set": 5723,
      "Ġast": 5724,
      "unt": 5725,
      "Ġsave": 5726,
      "Ġmist": 5727,
      "Ġmine": 5728,
      "Ġdance": 5729,
      "Ġdrew": 5730,
      "Ġrend": 5731,
      "Ġthing": 5732,
      "ĠSAF": 5733,
      "ĠCD": 5734,
      "ĠCole": 5735,
      "ada": 5736,
      "Ġbeach": 5737,
      "ĠRy": 5738,
      "ĠRAAF": 5739,
      "ĠFA": 5740,
      "Ġdeck": 5741,
      "Ġrac": 5742,
      "ighter": 5743,
      "essed": 5744,
      "ĠStadium": 5745,
      "Ġcomposition": 5746,
      "Ġroof": 5747,
      "ieval": 5748,
      "Ġfinish": 5749,
      "Ġ94": 5750,
      "Ġknots": 5751,
      "Ġ85": 5752,
      "icks": 5753,
      "Ġ1979": 5754,
      "Ġbranch": 5755,
      "Ġreputation": 5756,
      "Ġ1916": 5757,
      "Ġcamps": 5758,
      "Ġtowns": 5759,
      "Ġcommonly": 5760,
      "ĠPeople": 5761,
      "ĠPerry": 5762,
      "Ġdecline": 5763,
      "Ġsteam": 5764,
      "Ġsurviving": 5765,
      "Ġfemales": 5766,
      "ĠEvita": 5767,
      "Ġmotion": 5768,
      "Ġcells": 5769,
      "ĠScottish": 5770,
      "ĠMcCall": 5771,
      "Ġfirm": 5772,
      "ĠMartin": 5773,
      "Ġdigital": 5774,
      "ĠArea": 5775,
      "ĠWWE": 5776,
      "Ġconspir": 5777,
      "ĠSAFE": 5778,
      "ees": 5779,
      "then": 5780,
      "ym": 5781,
      "Ġton": 5782,
      "Ġtip": 5783,
      "Ġfellow": 5784,
      "ĠSus": 5785,
      "lyss": 5786,
      "ĠRod": 5787,
      "Ġitems": 5788,
      "ĠNathan": 5789,
      "ĠGir": 5790,
      "ĠKenn": 5791,
      "Ġ59": 5792,
      "Ġagent": 5793,
      "Ġneck": 5794,
      "Ġcommittee": 5795,
      "Ġprefer": 5796,
      "Ġ77": 5797,
      "Ġsecure": 5798,
      "ĠAnth": 5799,
      "Ġundert": 5800,
      "ĠMario": 5801,
      "ĠJoe": 5802,
      "Ġsynt": 5803,
      "Ġtransit": 5804,
      "Ġdisturb": 5805,
      "Ġgovernor": 5806,
      "Ġsuccessor": 5807,
      "Ġlasted": 5808,
      "Ġserves": 5809,
      "ĠRoxas": 5810,
      "Ġevening": 5811,
      "Ġjoint": 5812,
      "Ġcombination": 5813,
      "Ġislands": 5814,
      "ĠKeats": 5815,
      "Ġimproved": 5816,
      "Ġrenamed": 5817,
      "ategory": 5818,
      "Ġconcerns": 5819,
      "Ġdeployed": 5820,
      "Ġdrawn": 5821,
      "ĠCambod": 5822,
      "Ġenjoyed": 5823,
      "Ġopportunity": 5824,
      "Ġpilot": 5825,
      "ĠThunderbirds": 5826,
      "ĠDouglas": 5827,
      "chest": 5828,
      "kish": 5829,
      "rul": 5830,
      "Ġfuel": 5831,
      "Ġfresh": 5832,
      "Ġmo": 5833,
      "icial": 5834,
      "ĠSub": 5835,
      "Ġnor": 5836,
      "ĠId": 5837,
      "ĠBase": 5838,
      "emeter": 5839,
      "ĠLife": 5840,
      "respond": 5841,
      "apes": 5842,
      "ĠInstead": 5843,
      "usted": 5844,
      "ĠKey": 5845,
      "ĠChains": 5846,
      "ĠChief": 5847,
      "Ġarms": 5848,
      "Ġperhaps": 5849,
      "Ġ71": 5850,
      "awa": 5851,
      "Ġ1948": 5852,
      "Ġanything": 5853,
      "pective": 5854,
      "Ġcaptain": 5855,
      "ĠBoard": 5856,
      "Ġinvolvement": 5857,
      "sequently": 5858,
      "ĠRomani": 5859,
      "Ġfarm": 5860,
      "Ġdetails": 5861,
      "Ġcrossing": 5862,
      "Ġcorrespond": 5863,
      "Ġaccompl": 5864,
      "Ġ1880": 5865,
      "Ġreasons": 5866,
      "ĠCommander": 5867,
      "ĠGolden": 5868,
      "Ġwooden": 5869,
      "Ġconsisting": 5870,
      "Ġsettlers": 5871,
      "ĠTurkish": 5872,
      "ĠGeorgian": 5873,
      "ĠDirector": 5874,
      "Ġthousands": 5875,
      "ĠCommonwealth": 5876,
      "emetery": 5877,
      "Mont": 5878,
      "OT": 5879,
      "ridge": 5880,
      "ux": 5881,
      "uan": 5882,
      "yr": 5883,
      "yson": 5884,
      "Ġtied": 5885,
      "erted": 5886,
      "rem": 5887,
      "Ġsn": 5888,
      "Ġindu": 5889,
      "asters": 5890,
      "stone": 5891,
      "stances": 5892,
      "ĠSR": 5893,
      "ĠSat": 5894,
      "elve": 5895,
      "ĠMur": 5896,
      "ĠMort": 5897,
      "ĠHomer": 5898,
      "ĠRidge": 5899,
      "ĠWars": 5900,
      "Ġsections": 5901,
      "ĠJun": 5902,
      "ĠLu": 5903,
      "ĠLate": 5904,
      "ewhere": 5905,
      "ĠUlyss": 5906,
      "Ġarc": 5907,
      "Ġenl": 5908,
      "attle": 5909,
      "Ġretreat": 5910,
      "Ġperforming": 5911,
      "Ġlongest": 5912,
      "Ġlanded": 5913,
      "azz": 5914,
      "ĠColor": 5915,
      "ĠCommittee": 5916,
      "Ġconcrete": 5917,
      "Ġ1936": 5918,
      "Ġcharacteristics": 5919,
      "Ġallows": 5920,
      "Ġfrig": 5921,
      "Ġcrossed": 5922,
      "Ġcrosses": 5923,
      "Ġyounger": 5924,
      "Ġintroduction": 5925,
      "ĠAbu": 5926,
      "Ġsufficient": 5927,
      "Ġholding": 5928,
      "Ġmassive": 5929,
      "Ġlaunch": 5930,
      "Ġclosely": 5931,
      "Ġresponsibility": 5932,
      "ĠDuMont": 5933,
      "Ġconduct": 5934,
      "ĠDepression": 5935,
      "ĠStudios": 5936,
      "Ġconsiderable": 5937,
      "Ġcontroversy": 5938,
      "ĠUpon": 5939,
      "ĠTennyson": 5940,
      "Ġdissipated": 5941,
      "Ġrepeated": 5942,
      "ĠShortly": 5943,
      "ĠUlysses": 5944,
      "pson": 5945,
      "Ġ#": 5946,
      "era": 5947,
      "Ġouter": 5948,
      "Ġwed": 5949,
      "Ġfict": 5950,
      "ala": 5951,
      "Ġdial": 5952,
      "ĠTen": 5953,
      "entially": 5954,
      "ĠAge": 5955,
      "ĠCa": 5956,
      "lying": 5957,
      "Ġgain": 5958,
      "ĠBart": 5959,
      "idden": 5960,
      "ĠHung": 5961,
      "ĠDubl": 5962,
      "Ġ1900": 5963,
      "ĠJes": 5964,
      "ĠJud": 5965,
      "agre": 5966,
      "Ġexact": 5967,
      "Ġcomputer": 5968,
      "Ġrose": 5969,
      "okes": 5970,
      "rence": 5971,
      "aware": 5972,
      "ĠMaria": 5973,
      "Ġsurvey": 5974,
      "ĠLee": 5975,
      "Ġdecre": 5976,
      "Ġdecade": 5977,
      "Ġ1982": 5978,
      "Ġreceive": 5979,
      "anny": 5980,
      "Ġproviding": 5981,
      "ĠConst": 5982,
      "Ġreplace": 5983,
      "Ġstoryline": 5984,
      "Ġtypical": 5985,
      "Ġcougar": 5986,
      "Ġglass": 5987,
      "Ġvolume": 5988,
      "Ġchapel": 5989,
      "Ġindependence": 5990,
      "Ġtells": 5991,
      "Ġconstitution": 5992,
      "Ġnormal": 5993,
      "Ġpurpose": 5994,
      "ĠColumbia": 5995,
      "Ġoccasionally": 5996,
      "Ġopinion": 5997,
      "Ġarticle": 5998,
      "ĠHollywood": 5999,
      "ĠDublin": 6000,
      "aver": 6001,
      "ki": 6002,
      "pany": 6003,
      "sw": 6004,
      "Ġswe": 6005,
      "ishes": 6006,
      "standing": 6007,
      "Ġlob": 6008,
      "ĠMod": 6009,
      "ivity": 6010,
      "ayer": 6011,
      "Ġconference": 6012,
      "ĠNH": 6013,
      "ĠOh": 6014,
      "Ġvon": 6015,
      "ĠStep": 6016,
      "ĠStarr": 6017,
      "Ġtruth": 6018,
      "Ġcloud": 6019,
      "Ġresist": 6020,
      "ibbe": 6021,
      "angers": 6022,
      "weight": 6023,
      "Ġshel": 6024,
      "Ġretained": 6025,
      "Ġproduct": 6026,
      "Ġregiment": 6027,
      "Ġactress": 6028,
      "Ġinvited": 6029,
      "Ġtransform": 6030,
      "Ġgoes": 6031,
      "Ġ1976": 6032,
      "Ġreceiving": 6033,
      "ĠIsab": 6034,
      "Ġ1952": 6035,
      "ĠCaribbe": 6036,
      "Ġ250": 6037,
      "Ġways": 6038,
      "Ġopposition": 6039,
      "Ġexplos": 6040,
      "Ġreferences": 6041,
      "Ġmyth": 6042,
      "Ġclubs": 6043,
      "Ġarmor": 6044,
      "Ġhistoric": 6045,
      "Ġ1890": 6046,
      "Ġcastle": 6047,
      "Ġstrengthen": 6048,
      "Ġarranged": 6049,
      "ĠBaltim": 6050,
      "Ġbenef": 6051,
      "ĠCaribbean": 6052,
      "ĠBaltimore": 6053,
      "kare": 6054,
      "noon": 6055,
      "rig": 6056,
      "rum": 6057,
      "tical": 6058,
      "inn": 6059,
      "Ġsom": 6060,
      "edkare": 6061,
      "Ġfashion": 6062,
      "Ġmemorial": 6063,
      "Ġdub": 6064,
      "Ġhired": 6065,
      "state": 6066,
      "ĠMTV": 6067,
      "Ġgreen": 6068,
      "ĠBru": 6069,
      "ĠHan": 6070,
      "ĠRun": 6071,
      "ĠFu": 6072,
      "ĠDun": 6073,
      "ĠGab": 6074,
      "ĠOp": 6075,
      "ifying": 6076,
      "Ġplum": 6077,
      "sea": 6078,
      "Ġexerc": 6079,
      "Ġcompon": 6080,
      "raf": 6081,
      "Ġresident": 6082,
      "Ġafternoon": 6083,
      "Ġteaching": 6084,
      "Ġattributed": 6085,
      "ĠLeon": 6086,
      "Ġcapable": 6087,
      "Ġdidn": 6088,
      "Ġ1978": 6089,
      "Ġattacking": 6090,
      "Ġconcer": 6091,
      "Ġ1917": 6092,
      "Ġbelieves": 6093,
      "ĠProt": 6094,
      "ographic": 6095,
      "Ġcrime": 6096,
      "Ġgreatly": 6097,
      "ĠBoise": 6098,
      "ĠWithin": 6099,
      "Ġpolitics": 6100,
      "Ġwatched": 6101,
      "Ġgetting": 6102,
      "ĠTownship": 6103,
      "Ġagreement": 6104,
      "Ġliterary": 6105,
      "Ġcalc": 6106,
      "Ġimmig": 6107,
      "Ġreinforce": 6108,
      "ĠCharlie": 6109,
      "Ġrescue": 6110,
      "unicipal": 6111,
      "Ġsafety": 6112,
      "ĠDjedkare": 6113,
      "Ġorganizations": 6114,
      "Ġapplied": 6115,
      "Ġerected": 6116,
      "lines": 6117,
      "lik": 6118,
      "theless": 6119,
      "Ġtaught": 6120,
      "Ġworth": 6121,
      "itled": 6122,
      "icro": 6123,
      "Ġdru": 6124,
      "Ġthin": 6125,
      "amin": 6126,
      "ĠMen": 6127,
      "ĠBlythe": 6128,
      "ceived": 6129,
      "ĠRol": 6130,
      "ĠRow": 6131,
      "ĠFre": 6132,
      "ĠJones": 6133,
      "ĠLl": 6134,
      "Ġrural": 6135,
      "ĠOreg": 6136,
      "ardo": 6137,
      "Ġshared": 6138,
      "ources": 6139,
      "Ġyouth": 6140,
      "Ġcontest": 6141,
      "Ġunf": 6142,
      "aret": 6143,
      "Ġjump": 6144,
      "Ġwealth": 6145,
      "Ġ66": 6146,
      "Ġmeets": 6147,
      "ropol": 6148,
      "Ġapplic": 6149,
      "Ġapart": 6150,
      "Ġ1966": 6151,
      "Ġ1951": 6152,
      "Ġauthors": 6153,
      "psons": 6154,
      "Ġvictims": 6155,
      "ĠSimpsons": 6156,
      "ĠMorr": 6157,
      "Ġindustrial": 6158,
      "Ġfunding": 6159,
      "Ġimmediate": 6160,
      "Ġdollars": 6161,
      "ĠCampb": 6162,
      "onnaissance": 6163,
      "ĠArchae": 6164,
      "Ġfilled": 6165,
      "Ġinhabit": 6166,
      "ĠSpecial": 6167,
      "ĠSunday": 6168,
      "ĠOregon": 6169,
      "gie": 6170,
      "rang": 6171,
      "uct": 6172,
      "yc": 6173,
      "Ġi": 6174,
      "Ġaware": 6175,
      "ato": 6176,
      "Ġfaces": 6177,
      "Ġbought": 6178,
      "aser": 6179,
      "Ġhill": 6180,
      "Ġlane": 6181,
      "Ġlabor": 6182,
      "ĠChel": 6183,
      "amy": 6184,
      "aming": 6185,
      "ĠMaster": 6186,
      "ĠPope": 6187,
      "eman": 6188,
      "ĠDod": 6189,
      "ĠDown": 6190,
      "ĠDaily": 6191,
      "ĠWat": 6192,
      "ĠGi": 6193,
      "ĠGil": 6194,
      "ĠObs": 6195,
      "ĠEll": 6196,
      "istan": 6197,
      "ĠInit": 6198,
      "berg": 6199,
      "Ġchance": 6200,
      "Ġchannel": 6201,
      "iege": 6202,
      "ĠAlan": 6203,
      "Ġcommitted": 6204,
      "ĠYe": 6205,
      "Ġspons": 6206,
      "ĠAnonymous": 6207,
      "Ġwhereas": 6208,
      "Ġsubstant": 6209,
      "ropri": 6210,
      "ropium": 6211,
      "Ġquite": 6212,
      "Ġdoor": 6213,
      "Ġ1983": 6214,
      "Ġ1949": 6215,
      "Ġleadership": 6216,
      "Ġdownlo": 6217,
      "ĠIsl": 6218,
      "Ġ1953": 6219,
      "ĠTelevision": 6220,
      "Ġiniti": 6221,
      "ĠBroad": 6222,
      "ĠSimone": 6223,
      "ĠAbout": 6224,
      "Ġskin": 6225,
      "Ġpromote": 6226,
      "Ġglob": 6227,
      "Ġcirculation": 6228,
      "Ġembassy": 6229,
      "Ġrebu": 6230,
      "ĠOlympics": 6231,
      "Ġintersection": 6232,
      "Ġestablishment": 6233,
      "Ġderived": 6234,
      "hews": 6235,
      "ĠBelg": 6236,
      "Ġclean": 6237,
      "ĠFrancisc": 6238,
      "ĠEngineer": 6239,
      "Ġsplit": 6240,
      "ĠRadio": 6241,
      "ĠAnthony": 6242,
      "ruli": 6243,
      "Ġfictional": 6244,
      "GN": 6245,
      "eenth": 6246,
      "iar": 6247,
      "war": 6248,
      "indu": 6249,
      "Ġcrown": 6250,
      "itors": 6251,
      "Ġpuzz": 6252,
      "Ġha": 6253,
      "ĠAri": 6254,
      "Ġeighth": 6255,
      "ĠCook": 6256,
      "ĠIgu": 6257,
      "ĠIGN": 6258,
      "Ġstem": 6259,
      "ĠHindu": 6260,
      "ĠGram": 6261,
      "ĠLenn": 6262,
      "ager": 6263,
      "Ġru": 6264,
      "Ġrub": 6265,
      "istol": 6266,
      "Ġvary": 6267,
      "illo": 6268,
      "apt": 6269,
      "apped": 6270,
      "Ġexpect": 6271,
      "Ġtrail": 6272,
      "Ġrob": 6273,
      "ĠVill": 6274,
      "Ġprey": 6275,
      "Ġ82": 6276,
      "Ġfollowers": 6277,
      "Ġflights": 6278,
      "Ġamph": 6279,
      "Ġindig": 6280,
      "Ġfoundation": 6281,
      "Ġpool": 6282,
      "ĠGerard": 6283,
      "Ġ176": 6284,
      "Ġ1973": 6285,
      "Ġleads": 6286,
      "Ġ1963": 6287,
      "Ġdowntown": 6288,
      "Ġoccurs": 6289,
      "Ġ1913": 6290,
      "Ġapproached": 6291,
      "ĠSpace": 6292,
      "ĠPho": 6293,
      "Ġstatement": 6294,
      "Ġelimin": 6295,
      "ĠRecording": 6296,
      "Ġdifficulty": 6297,
      "Ġfalling": 6298,
      "ĠDuke": 6299,
      "Ġterritories": 6300,
      "ĠWalter": 6301,
      "Ġinspir": 6302,
      "Ġindicate": 6303,
      "Ġdenied": 6304,
      "Ġequipped": 6305,
      "Ġcredited": 6306,
      "Ġdynasty": 6307,
      "Ġironclads": 6308,
      "Ġvessels": 6309,
      "Ġpowers": 6310,
      "Ġadministration": 6311,
      "ĠTransport": 6312,
      "Ġduties": 6313,
      "ĠConstantine": 6314,
      "ranean": 6315,
      "Ġworst": 6316,
      "Ġremnants": 6317,
      "ĠColorado": 6318,
      "body": 6319,
      "can": 6320,
      "host": 6321,
      "var": 6322,
      "Ġsquad": 6323,
      "Ġcinem": 6324,
      "ena": 6325,
      "Ġpushed": 6326,
      "acity": 6327,
      "ĠIV": 6328,
      "ĠIron": 6329,
      "ĠBrian": 6330,
      "ĠBaby": 6331,
      "Ġstore": 6332,
      "ĠRel": 6333,
      "ĠDota": 6334,
      "anda": 6335,
      "avia": 6336,
      "Ġsector": 6337,
      "ĠLow": 6338,
      "apers": 6339,
      "ours": 6340,
      "Ġreserve": 6341,
      "Ġreconst": 6342,
      "ĠAlbert": 6343,
      "Ġdisappe": 6344,
      "Ġoutf": 6345,
      "anga": 6346,
      "Ġattached": 6347,
      "Ġ69": 6348,
      "aws": 6349,
      "Ġinterior": 6350,
      "Ġspecifically": 6351,
      "Ġsupposed": 6352,
      "Ġappeal": 6353,
      "Ġmaintain": 6354,
      "Ġcontinuing": 6355,
      "Ġpopulations": 6356,
      "Ġstudied": 6357,
      "Ġdepict": 6358,
      "Ġwins": 6359,
      "Ġvisual": 6360,
      "ĠQedar": 6361,
      "Ġcommunities": 6362,
      "Ġfootage": 6363,
      "Ġhistorians": 6364,
      "Ġinterested": 6365,
      "Ġvalley": 6366,
      "Ġsuperior": 6367,
      "Ġcreator": 6368,
      "Ġelectric": 6369,
      "Ġeconomy": 6370,
      "Ġremainder": 6371,
      "Ġexamples": 6372,
      "Ġfiring": 6373,
      "Ġrecovered": 6374,
      "ĠAlexander": 6375,
      "ĠCastle": 6376,
      "Ġneighbor": 6377,
      "Ġthirty": 6378,
      "ĠIndependent": 6379,
      "Ġsubmarine": 6380,
      "Ġdismissed": 6381,
      "cribed": 6382,
      "fare": 6383,
      "vis": 6384,
      "Ġtal": 6385,
      "Ġaer": 6386,
      "onica": 6387,
      "Ġbal": 6388,
      "ĠAround": 6389,
      "Ġeld": 6390,
      "ote": 6391,
      "ette": 6392,
      "Ġaltar": 6393,
      "ĠDomin": 6394,
      "ĠNether": 6395,
      "ĠLuc": 6396,
      "agle": 6397,
      "ĠEdu": 6398,
      "aked": 6399,
      "ameter": 6400,
      "ĠKir": 6401,
      "pping": 6402,
      "Ġroutes": 6403,
      "ĠHeavy": 6404,
      "oked": 6405,
      "Ġparties": 6406,
      "achus": 6407,
      "Ġsomeone": 6408,
      "ĠMarsh": 6409,
      "Ġinteract": 6410,
      "Ġentering": 6411,
      "Ġ160": 6412,
      "Ġmoder": 6413,
      "Ġ1919": 6414,
      "Ġtries": 6415,
      "Ġbasic": 6416,
      "Ġprotected": 6417,
      "Ġcompetitions": 6418,
      "Ġpatron": 6419,
      "Ġsolid": 6420,
      "Ġpainted": 6421,
      "Ġprograms": 6422,
      "Ġtechnical": 6423,
      "Ġassociation": 6424,
      "Ġimprove": 6425,
      "ooth": 6426,
      "Ġdefended": 6427,
      "Ġtreaty": 6428,
      "Ġaccounts": 6429,
      "Ġassistant": 6430,
      "Ġassistance": 6431,
      "Ġfeeling": 6432,
      "ĠPrem": 6433,
      "Ġscholar": 6434,
      "Ġbattleships": 6435,
      "Ġacquired": 6436,
      "Ġcandidate": 6437,
      "Ġopponents": 6438,
      "ĠAttorney": 6439,
      "Ġchallenge": 6440,
      "ĠBono": 6441,
      "Ġeggs": 6442,
      "ĠHibari": 6443,
      "ĠAdmiral": 6444,
      "ĠFriends": 6445,
      "ĠCrazy": 6446,
      "SB": 6447,
      "ection": 6448,
      "know": 6449,
      "vious": 6450,
      "Ġtable": 6451,
      "Ġocean": 6452,
      "Ġfur": 6453,
      "Ġbul": 6454,
      "Ġbond": 6455,
      "Ġpet": 6456,
      "Ġmart": 6457,
      "ĠAst": 6458,
      "ĠCorn": 6459,
      "Ġgal": 6460,
      "ĠRick": 6461,
      "ĠPerson": 6462,
      "ĠDest": 6463,
      "ĠJac": 6464,
      "ĠJain": 6465,
      "ĠGA": 6466,
      "iston": 6467,
      "iful": 6468,
      "opher": 6469,
      "Ġexception": 6470,
      "abb": 6471,
      "Ġshots": 6472,
      "earch": 6473,
      "Ġupd": 6474,
      "Ġpreced": 6475,
      "Ġ78": 6476,
      "ickets": 6477,
      "Ġaccur": 6478,
      "Ġacknow": 6479,
      "Ġhighlight": 6480,
      "iversary": 6481,
      "ĠForces": 6482,
      "ĠPlot": 6483,
      "Ġanniversary": 6484,
      "Ġclasses": 6485,
      "Ġ1927": 6486,
      "Ġsuffering": 6487,
      "Ġdiscovery": 6488,
      "Ġkingdom": 6489,
      "ĠSingles": 6490,
      "Ġdiscussed": 6491,
      "ĠOde": 6492,
      "ĠBraz": 6493,
      "ĠJerusal": 6494,
      "Ġemerged": 6495,
      "Ġironclad": 6496,
      "ĠLester": 6497,
      "Ġlbw": 6498,
      "ĠRhodesian": 6499,
      "ĠHaiti": 6500,
      "Ġceremony": 6501,
      "ĠIndustry": 6502,
      "ĠAdditionally": 6503,
      "Ġatmosphere": 6504,
      "Ġmushroom": 6505,
      "Ġsynthes": 6506,
      "ĠIguan": 6507,
      "ĠJerusalem": 6508,
      "iary": 6509,
      "hetic": 6510,
      "iner": 6511,
      "aton": 6512,
      "isis": 6513,
      "add": 6514,
      "uls": 6515,
      "ĠWall": 6516,
      "ĠWind": 6517,
      "ĠNick": 6518,
      "ĠJersey": 6519,
      "agu": 6520,
      "Ġsud": 6521,
      "Ġchampion": 6522,
      "Ġplants": 6523,
      "sey": 6524,
      "ĠChan": 6525,
      "imeter": 6526,
      "Ġ68": 6527,
      "ĠUnlike": 6528,
      "Ġknew": 6529,
      "Ġdefences": 6530,
      "ĠMarc": 6531,
      "Ġregional": 6532,
      "Ġflat": 6533,
      "Ġaccused": 6534,
      "Ġpublisher": 6535,
      "Ġaddress": 6536,
      "ĠScience": 6537,
      "Ġ175": 6538,
      "Ġ1977": 6539,
      "aza": 6540,
      "ĠAdams": 6541,
      "Ġrefers": 6542,
      "ĠPrime": 6543,
      "Ġstrongly": 6544,
      "Ġantimony": 6545,
      "Ġdivine": 6546,
      "Ġhousehold": 6547,
      "ucky": 6548,
      "Ġholds": 6549,
      "Ġintensified": 6550,
      "Ġrules": 6551,
      "Ġmissed": 6552,
      "Ġmissions": 6553,
      "ÃŃa": 6554,
      "Ġtribes": 6555,
      "Ġzone": 6556,
      "ĠHotel": 6557,
      "Ġsettled": 6558,
      "ĠHistoric": 6559,
      "Ġportrayed": 6560,
      "Ġrecommended": 6561,
      "Ġinstrument": 6562,
      "Ġsurvivors": 6563,
      "ĠAML": 6564,
      "Ġcitiz": 6565,
      "Ġwedding": 6566,
      "ĠRolling": 6567,
      "ĠChelsea": 6568,
      "gram": 6569,
      "ĪĴ": 6570,
      "intend": 6571,
      "Ġsle": 6572,
      "atus": 6573,
      "itan": 6574,
      "Ġfal": 6575,
      "Ġfair": 6576,
      "isy": 6577,
      "icc": 6578,
      "Ġdating": 6579,
      "ĠCat": 6580,
      "ivals": 6581,
      "ider": 6582,
      "ĠHy": 6583,
      "ĠNap": 6584,
      "ĠJay": 6585,
      "Ġrich": 6586,
      "Ġvan": 6587,
      "Ġchorus": 6588,
      "ĠâĪĴ": 6589,
      "ĠUr": 6590,
      "ĠStation": 6591,
      "ĠStory": 6592,
      "Ġintention": 6593,
      "ube": 6594,
      "assador": 6595,
      "Ġadmitted": 6596,
      "Ġjack": 6597,
      "Ġteeth": 6598,
      "Ġshear": 6599,
      "Ġunderw": 6600,
      "ĠDev": 6601,
      "Ġ112": 6602,
      "Ġdepicted": 6603,
      "Ġdistribution": 6604,
      "Ġcarved": 6605,
      "Ġairport": 6606,
      "Ġgeneration": 6607,
      "ĠPlunk": 6608,
      "ĠTrack": 6609,
      "Ġstands": 6610,
      "ĠOrder": 6611,
      "Ġtwelve": 6612,
      "Ġinvolving": 6613,
      "Ġdetail": 6614,
      "Ġpitch": 6615,
      "ĠSimilar": 6616,
      "Ġseeing": 6617,
      "Ġreduce": 6618,
      "Ġappoint": 6619,
      "Ġ1870": 6620,
      "Ġnomination": 6621,
      "Ġcompletion": 6622,
      "ĠVeronica": 6623,
      "Ġtraveled": 6624,
      "Ġcolonies": 6625,
      "ĠKhÃ¡n": 6626,
      "ĠSenate": 6627,
      "Ġvessel": 6628,
      "Ġinstitutions": 6629,
      "Ġalternative": 6630,
      "Ġarrested": 6631,
      "ĠFantasy": 6632,
      "ĠHornung": 6633,
      "Ġoverseas": 6634,
      "Ġeasily": 6635,
      "Ġastron": 6636,
      "ĠKhÃ¡nh": 6637,
      "Hg": 6638,
      "iro": 6639,
      "sewhere": 6640,
      "Ġtheatre": 6641,
      "Ġsell": 6642,
      "eda": 6643,
      "edom": 6644,
      "orer": 6645,
      "Ġinte": 6646,
      "Ġinland": 6647,
      "ĠinHg": 6648,
      "ingly": 6649,
      "rogen": 6650,
      "Ġhits": 6651,
      "ĠTop": 6652,
      "thy": 6653,
      "ĠHon": 6654,
      "ĠHell": 6655,
      "ĠRif": 6656,
      "Ġalleg": 6657,
      "ĠFame": 6658,
      "ĠFish": 6659,
      "ĠFire": 6660,
      "ĠDar": 6661,
      "Ġexisted": 6662,
      "ĠKansas": 6663,
      "ĠChronic": 6664,
      "Ġserial": 6665,
      "angerous": 6666,
      "Ġcommemor": 6667,
      "Ġsecured": 6668,
      "Ġgameplay": 6669,
      "Ġcharter": 6670,
      "ifications": 6671,
      "Ġgrav": 6672,
      "Ġpreserved": 6673,
      "Ġmonarch": 6674,
      "Ġshowing": 6675,
      "Ġwarm": 6676,
      "Ġ1961": 6677,
      "ĠMaya": 6678,
      "Ġoperating": 6679,
      "Ġdesignation": 6680,
      "Ġobt": 6681,
      "Ġwinner": 6682,
      "Ġadvis": 6683,
      "Ġ1956": 6684,
      "Ġattempting": 6685,
      "ivalent": 6686,
      "Ġcrimin": 6687,
      "Ġeverything": 6688,
      "Ġdivisions": 6689,
      "Ġtechnology": 6690,
      "Ġrevolution": 6691,
      "Ġcloser": 6692,
      "Ġconvin": 6693,
      "offman": 6694,
      "ĠMadonna": 6695,
      "Ġstationed": 6696,
      "Ġfunds": 6697,
      "Ġchapter": 6698,
      "ĠTerrit": 6699,
      "ĠMaeda": 6700,
      "ĠGeorgia": 6701,
      "ASA": 6702,
      "Ġturrets": 6703,
      "ĠSomali": 6704,
      "ĠCritical": 6705,
      "ĠHoly": 6706,
      "Ġinterpret": 6707,
      "Ġspecimens": 6708,
      "Ġsucceeded": 6709,
      "Ġconnection": 6710,
      "Ġrestaurant": 6711,
      "ĠStephen": 6712,
      "ĠBrazil": 6713,
      "hm": 6714,
      "rations": 6715,
      "Ġsun": 6716,
      "Ġow": 6717,
      "organ": 6718,
      "Ġbes": 6719,
      "ĠSound": 6720,
      "ĠCru": 6721,
      "uration": 6722,
      "terbury": 6723,
      "ĠHit": 6724,
      "Ġconte": 6725,
      "Ġproceed": 6726,
      "ĠInt": 6727,
      "Ġorn": 6728,
      "Ġshif": 6729,
      "Ġshore": 6730,
      "ideos": 6731,
      "Ġdispl": 6732,
      "Ġoffers": 6733,
      "ressive": 6734,
      "Ġpregn": 6735,
      "Ġspacing": 6736,
      "Ġspeech": 6737,
      "Ġsoil": 6738,
      "Ġsoft": 6739,
      "Ġmanner": 6740,
      "Ġ121": 6741,
      "Ġ123": 6742,
      "Ġcapacity": 6743,
      "Ġemp": 6744,
      "Ġsigning": 6745,
      "Ġbrig": 6746,
      "Ġdepos": 6747,
      "Ġreturns": 6748,
      "Ġprovince": 6749,
      "Ġpassage": 6750,
      "Ġexpansion": 6751,
      "ĠCanterbury": 6752,
      "Ġcourts": 6753,
      "Ġchanging": 6754,
      "ĠEdd": 6755,
      "Ġfields": 6756,
      "Ġequal": 6757,
      "aska": 6758,
      "Ġprotests": 6759,
      "Ġtreated": 6760,
      "Ġrecognition": 6761,
      "Ġcircum": 6762,
      "Ġmeasures": 6763,
      "ÃŃvar": 6764,
      "Ġseemed": 6765,
      "ĠMediter": 6766,
      "Ġresear": 6767,
      "Ġdiameter": 6768,
      "Ġblocks": 6769,
      "Ġbrothers": 6770,
      "going": 6771,
      "Ġancest": 6772,
      "Ġrarely": 6773,
      "Ġwatershed": 6774,
      "Ġprincipal": 6775,
      "Ġpicked": 6776,
      "Ġninth": 6777,
      "Ġsymbol": 6778,
      "Ġhabitat": 6779,
      "ĠLiu": 6780,
      "ĠJamal": 6781,
      "ĠBolÃŃvar": 6782,
      "Ġfungus": 6783,
      "ĠPeninsula": 6784,
      "Ġisolated": 6785,
      "ĠIsabella": 6786,
      "Ġamphib": 6787,
      "ĠPremier": 6788,
      "ĠIguanodon": 6789,
      "Ġsudden": 6790,
      "ĠMediterranean": 6791,
      "break": 6792,
      "cation": 6793,
      "ecess": 6794,
      "ii": 6795,
      "wise": 6796,
      "Ġurban": 6797,
      "Ġsession": 6798,
      "Ġwants": 6799,
      "Ġcard": 6800,
      "Ġinner": 6801,
      "Ġdie": 6802,
      "ĠBert": 6803,
      "ĠHard": 6804,
      "othes": 6805,
      "ĠPers": 6806,
      "emed": 6807,
      "ĠFlow": 6808,
      "ĠWhere": 6809,
      "agues": 6810,
      "Ġcomic": 6811,
      "Ġprohib": 6812,
      "Ġvision": 6813,
      "Ġexit": 6814,
      "abled": 6815,
      "ĠâĢĳ": 6816,
      "ĠKang": 6817,
      "Ġtrained": 6818,
      "Ġrecalled": 6819,
      "ultane": 6820,
      "Ġupgraded": 6821,
      "Ġ63": 6822,
      "Ġproducts": 6823,
      "Ġacts": 6824,
      "Ġentitled": 6825,
      "Ġsym": 6826,
      "Ġmonuments": 6827,
      "ooking": 6828,
      "Ġimplement": 6829,
      "ĠBeach": 6830,
      "Ġ1958": 6831,
      "ossible": 6832,
      "Ġextrem": 6833,
      "Ġcovers": 6834,
      "Ġdebate": 6835,
      "Ġcharts": 6836,
      "onomy": 6837,
      "Ġpredecess": 6838,
      "Ġseparated": 6839,
      "ĠHarry": 6840,
      "Ġcivilian": 6841,
      "stitution": 6842,
      "ĠResearch": 6843,
      "glades": 6844,
      "Ġpurchase": 6845,
      "ĠSlam": 6846,
      "Ġcontroversial": 6847,
      "Ġshells": 6848,
      "Ġcarrying": 6849,
      "ĠCambridge": 6850,
      "ĠSamuel": 6851,
      "ĠSomalia": 6852,
      "ĠWilde": 6853,
      "Ġpassengers": 6854,
      "ĠSpring": 6855,
      "Ġprotagonist": 6856,
      "ĠRyan": 6857,
      "Ġextremely": 6858,
      "VN": 6859,
      "bishop": 6860,
      "ta": 6861,
      "tty": 6862,
      "ys": 6863,
      "zo": 6864,
      "Ã¶": 6865,
      "Ġic": 6866,
      "Ġign": 6867,
      "rec": 6868,
      "orough": 6869,
      "Ġcold": 6870,
      "Ġfitted": 6871,
      "Ġfacing": 6872,
      "aria": 6873,
      "Ġdin": 6874,
      "ĠCle": 6875,
      "ĠCory": 6876,
      "ĠMemorial": 6877,
      "Ġgather": 6878,
      "olished": 6879,
      "imet": 6880,
      "Ġstadium": 6881,
      "ĠHere": 6882,
      "Ġhear": 6883,
      "ĠRA": 6884,
      "ĠRangers": 6885,
      "ĠProte": 6886,
      "ĠFree": 6887,
      "Ġray": 6888,
      "rior": 6889,
      "Ġpros": 6890,
      "ateur": 6891,
      "Ġkings": 6892,
      "pton": 6893,
      "teenth": 6894,
      "ĠVII": 6895,
      "Ġresources": 6896,
      "Ġreconnaissance": 6897,
      "ĠThird": 6898,
      "Ġpartly": 6899,
      "Ġpartially": 6900,
      "Ġagree": 6901,
      "Ġoverw": 6902,
      "ibl": 6903,
      "anges": 6904,
      "ensus": 6905,
      "Ġspaces": 6906,
      "ĠAnc": 6907,
      "ĠAnton": 6908,
      "ĠAniston": 6909,
      "Ġ91": 6910,
      "ĠMarines": 6911,
      "Ġassumed": 6912,
      "Ġretire": 6913,
      "Ġindicated": 6914,
      "Ġenters": 6915,
      "Ġentry": 6916,
      "Ġbright": 6917,
      "Ġ1962": 6918,
      "Ġcargo": 6919,
      "Ġinstru": 6920,
      "ĠUSS": 6921,
      "Ġ1935": 6922,
      "Ġappearing": 6923,
      "ĠPhill": 6924,
      "Ġdestruction": 6925,
      "attered": 6926,
      "ĠBrook": 6927,
      "Ġcommunic": 6928,
      "Ġreality": 6929,
      "istered": 6930,
      "ĠBarb": 6931,
      "ĠSimon": 6932,
      "ĠCalvert": 6933,
      "Ġconvoy": 6934,
      "Ġengineering": 6935,
      "ĠRussia": 6936,
      "ĠRepublican": 6937,
      "Ġexecuted": 6938,
      "Ġescort": 6939,
      "borough": 6940,
      "Ġmulti": 6941,
      "Ġabsence": 6942,
      "Ġforests": 6943,
      "Ġhundreds": 6944,
      "ĠBradford": 6945,
      "Ġmethods": 6946,
      "Ġagricultural": 6947,
      "Ġparallel": 6948,
      "ĠModern": 6949,
      "Ġinhabitants": 6950,
      "ĠFrancisco": 6951,
      "ĠLennon": 6952,
      "ban": 6953,
      "har": 6954,
      "ipe": 6955,
      "ych": 6956,
      "Ġtail": 6957,
      "Ġsunk": 6958,
      "Ġsailed": 6959,
      "Ġod": 6960,
      "orous": 6961,
      "itals": 6962,
      "Ġfine": 6963,
      "Ġbell": 6964,
      "Ġpage": 6965,
      "ĠTower": 6966,
      "ĠSap": 6967,
      "ĠSonic": 6968,
      "Ġlic": 6969,
      "Ġloy": 6970,
      "Ġeu": 6971,
      "ĠCape": 6972,
      "aments": 6973,
      "ĠMel": 6974,
      "ĠBern": 6975,
      "ĠHug": 6976,
      "ĠRÃ©": 6977,
      "ĠPA": 6978,
      "ĠPine": 6979,
      "ĠFront": 6980,
      "ĠDanny": 6981,
      "osure": 6982,
      "osite": 6983,
      "Ġselect": 6984,
      "ĠLoren": 6985,
      "Ġrugby": 6986,
      "Ġchronic": 6987,
      "ĠKar": 6988,
      "iece": 6989,
      "ĠHearts": 6990,
      "ĠVol": 6991,
      "ĠAli": 6992,
      "Ġimpr": 6993,
      "Ġ67": 6994,
      "Ġ900": 6995,
      "Ġverse": 6996,
      "Ġacid": 6997,
      "Ġdoct": 6998,
      "Ġtransition": 6999,
      "Ġbelt": 7000,
      "Ġdistributed": 7001,
      "Ġcarbon": 7002,
      "Ġ1955": 7003,
      "Ġ1910": 7004,
      "Ġclassic": 7005,
      "Ġvisible": 7006,
      "poration": 7007,
      "Ġreviewer": 7008,
      "Ġtemples": 7009,
      "Ġcovering": 7010,
      "Ġeffectively": 7011,
      "Ġlowest": 7012,
      "Ġframe": 7013,
      "Ġmeetings": 7014,
      "ĠRoberts": 7015,
      "ĠKevin": 7016,
      "ĠGermans": 7017,
      "Ġcollaps": 7018,
      "ĠQueens": 7019,
      "Ġcruiser": 7020,
      "Ġpenalty": 7021,
      "ĠMoz": 7022,
      "Ġfavorite": 7023,
      "Ġensure": 7024,
      "Ġinvestigation": 7025,
      "ĠEverglades": 7026,
      "Ġmountains": 7027,
      "Ġhotel": 7028,
      "Ġemotional": 7029,
      "Ġratings": 7030,
      "ĠMassachus": 7031,
      "ĠAlbums": 7032,
      "Ġacademic": 7033,
      "ĠWeekly": 7034,
      "Ġethn": 7035,
      "Ġunusual": 7036,
      "ĠNetherlands": 7037,
      "ĠEddie": 7038,
      "ĠMassachusetts": 7039,
      "ef": 7040,
      "friend": 7041,
      "gÃ©": 7042,
      "ients": 7043,
      "rast": 7044,
      "yram": 7045,
      "zen": 7046,
      "Ġtheater": 7047,
      "erog": 7048,
      "Ġsam": 7049,
      "Ġwrong": 7050,
      "ati": 7051,
      "atures": 7052,
      "Ġfish": 7053,
      "Ġbones": 7054,
      "Ġpack": 7055,
      "ilton": 7056,
      "Ġnone": 7057,
      "ĠCE": 7058,
      "ĠChen": 7059,
      "amber": 7060,
      "ĠML": 7061,
      "Ġforcing": 7062,
      "Ġstones": 7063,
      "ĠPagan": 7064,
      "ĠDis": 7065,
      "ĠDet": 7066,
      "ĠDNA": 7067,
      "ĠWy": 7068,
      "ĠWin": 7069,
      "ĠWalk": 7070,
      "ĠGully": 7071,
      "Ġvic": 7072,
      "Ġvideos": 7073,
      "illing": 7074,
      "allow": 7075,
      "Ġorchest": 7076,
      "Ġexchange": 7077,
      "abeth": 7078,
      "ĠKat": 7079,
      "ĠKil": 7080,
      "ĠKurt": 7081,
      "Ġteach": 7082,
      "Ġspin": 7083,
      "ternal": 7084,
      "Ġconsol": 7085,
      "Ġgross": 7086,
      "Ġdepartment": 7087,
      "Ġdescribing": 7088,
      "ĠConn": 7089,
      "rapped": 7090,
      "ennis": 7091,
      "ĠBlood": 7092,
      "Ġ1954": 7093,
      "ĠMega": 7094,
      "Ġextension": 7095,
      "ĠAdam": 7096,
      "Ġengines": 7097,
      "Ġbasin": 7098,
      "Ġposted": 7099,
      "Ġaffect": 7100,
      "Ġnovels": 7101,
      "Ġneeds": 7102,
      "Ġprogramme": 7103,
      "ĠPalace": 7104,
      "Ġreveals": 7105,
      "Ġsurrounded": 7106,
      "ĠMaryland": 7107,
      "ĠMontana": 7108,
      "Ġconcerned": 7109,
      "Ġlinked": 7110,
      "ĠDelaware": 7111,
      "Ġspirit": 7112,
      "claimed": 7113,
      "Ġrhyth": 7114,
      "ĠNazi": 7115,
      "ĠSecretary": 7116,
      "Ġcamera": 7117,
      "ĠSkye": 7118,
      "ĠVenus": 7119,
      "Ġexpedition": 7120,
      "ĠRoger": 7121,
      "Ġinspiration": 7122,
      "MA": 7123,
      "RE": 7124,
      "che": 7125,
      "eor": 7126,
      "gers": 7127,
      "ij": 7128,
      "math": 7129,
      "nell": 7130,
      "ses": 7131,
      "ycl": 7132,
      "yles": 7133,
      "orters": 7134,
      "arning": 7135,
      "Ġdock": 7136,
      "lete": 7137,
      "ĠSi": 7138,
      "ĠSports": 7139,
      "Ġlov": 7140,
      "ĠMul": 7141,
      "iders": 7142,
      "ĠRay": 7143,
      "Ġcong": 7144,
      "ĠFel": 7145,
      "avÄģda": 7146,
      "ĠLoc": 7147,
      "apse": 7148,
      "oca": 7149,
      "Ġkits": 7150,
      "ips": 7151,
      "Ġnoting": 7152,
      "Ġlearning": 7153,
      "ogether": 7154,
      "Ġclo": 7155,
      "Ġ58": 7156,
      "Ġdesire": 7157,
      "Ġdisapp": 7158,
      "ĠSeason": 7159,
      "Ġ79": 7160,
      "raltar": 7161,
      "Ġ87": 7162,
      "Ġ89": 7163,
      "Ġrelative": 7164,
      "Ġregime": 7165,
      "Ġformally": 7166,
      "ĠAustrian": 7167,
      "Ġ06": 7168,
      "Ġ07": 7169,
      "ĠShow": 7170,
      "ĠJohnston": 7171,
      "Ġinstalled": 7172,
      "Ġmusicians": 7173,
      "ĠBeauty": 7174,
      "Ġ1932": 7175,
      "Ġexposed": 7176,
      "Ġstorms": 7177,
      "Ġpossession": 7178,
      "Ġmarks": 7179,
      "Ġfranch": 7180,
      "Ġarmored": 7181,
      "Ġdestroyers": 7182,
      "Ġlooked": 7183,
      "Ġreading": 7184,
      "Ġcatch": 7185,
      "Ġdifficulties": 7186,
      "Ġaccompany": 7187,
      "ĠKeamy": 7188,
      "Ġveget": 7189,
      "autiful": 7190,
      "ĠActivision": 7191,
      "Ġthreatened": 7192,
      "Ġtribut": 7193,
      "Ġabsor": 7194,
      "Ġabsol": 7195,
      "Ġsatell": 7196,
      "Ġvoted": 7197,
      "ĠCardinal": 7198,
      "Ġattracted": 7199,
      "ĠFIA": 7200,
      "Ġlegislation": 7201,
      "Ġmemory": 7202,
      "ĠClassic": 7203,
      "Ġpreparation": 7204,
      "ĠGibraltar": 7205,
      "ĠJournal": 7206,
      "ĠBanai": 7207,
      "named": 7208,
      "Ã¤": 7209,
      "Ġtie": 7210,
      "Ġau": 7211,
      "inson": 7212,
      "union": 7213,
      "Ġsan": 7214,
      "Ġwine": 7215,
      "Ġcab": 7216,
      "Ġcreek": 7217,
      "Ġble": 7218,
      "Ġbay": 7219,
      "Ġmunicipal": 7220,
      "icop": 7221,
      "Ġhang": 7222,
      "Ġhope": 7223,
      "Ġnick": 7224,
      "ĠCult": 7225,
      "igation": 7226,
      "Ġstreak": 7227,
      "ĠPoint": 7228,
      "ava": 7229,
      "ĠLords": 7230,
      "ĠLabor": 7231,
      "rien": 7232,
      "ĠEarl": 7233,
      "ewhat": 7234,
      "Ġshop": 7235,
      "ĠKong": 7236,
      "Ġju": 7237,
      "ĠYour": 7238,
      "arked": 7239,
      "Ġ99": 7240,
      "Ġsongwrit": 7241,
      "Ġ122": 7242,
      "Ġestate": 7243,
      "Ġdesigns": 7244,
      "Ġprevented": 7245,
      "ĠFraser": 7246,
      "Ġ1959": 7247,
      "Ġmodified": 7248,
      "Ġ1938": 7249,
      "Ġclassical": 7250,
      "Ġhelicop": 7251,
      "Ġ1929": 7252,
      "ĠMuslim": 7253,
      "Ġtrading": 7254,
      "Ġstarred": 7255,
      "Ġelabor": 7256,
      "Ġdetailed": 7257,
      "Ġwatch": 7258,
      "ombat": 7259,
      "ĠFederal": 7260,
      "Ġrounds": 7261,
      "ĠMaggie": 7262,
      "Ġpredomin": 7263,
      "Ġ1860": 7264,
      "Ġhosted": 7265,
      "Äģnt": 7266,
      "Ġlanguages": 7267,
      "Ġsequel": 7268,
      "criptions": 7269,
      "ĠTyphoon": 7270,
      "Ġsatisf": 7271,
      "scape": 7272,
      "Ġautom": 7273,
      "Ġsuspend": 7274,
      "Ġcoins": 7275,
      "Ġvisitors": 7276,
      "ĠPrior": 7277,
      "ĠPatrick": 7278,
      "ĠPitman": 7279,
      "senal": 7280,
      "Ġwearing": 7281,
      "Ġterminus": 7282,
      "ĠDemocratic": 7283,
      "Ġtactics": 7284,
      "Ġhappened": 7285,
      "Ġcustom": 7286,
      "Ġpicture": 7287,
      "ĠConstruction": 7288,
      "Ġsomewhat": 7289,
      "ĠPlunketts": 7290,
      "aired": 7291,
      "ez": 7292,
      "eke": 7293,
      "fess": 7294,
      "kins": 7295,
      "mod": 7296,
      "night": 7297,
      "rative": 7298,
      "vements": 7299,
      "xts": 7300,
      "Ġille": 7301,
      "ona": 7302,
      "rell": 7303,
      "ori": 7304,
      "Ġfishing": 7305,
      "arp": 7306,
      "Ġmap": 7307,
      "Ġmode": 7308,
      "icide": 7309,
      "icts": 7310,
      "Ġdim": 7311,
      "ĠAston": 7312,
      "Ġstreets": 7313,
      "ĠHospital": 7314,
      "otion": 7315,
      "ĠPict": 7316,
      "Ġconvent": 7317,
      "ĠNet": 7318,
      "ĠNBC": 7319,
      "ĠNintend": 7320,
      "osa": 7321,
      "Ġselection": 7322,
      "ĠLab": 7323,
      "Ġrivers": 7324,
      "Ġshark": 7325,
      "ignment": 7326,
      "Ġrecru": 7327,
      "Ġevil": 7328,
      "Ġrelie": 7329,
      "ĠDeath": 7330,
      "Ġfled": 7331,
      "Ġartwork": 7332,
      "ĠClin": 7333,
      "Ġpointed": 7334,
      "ĠCarter": 7335,
      "ĠFei": 7336,
      "Ġrefuge": 7337,
      "ĠProfess": 7338,
      "Ġwestward": 7339,
      "Ġreviewers": 7340,
      "Ġphr": 7341,
      "Ġvictories": 7342,
      "ĠAmb": 7343,
      "Ġarmour": 7344,
      "encies": 7345,
      "Ġcycle": 7346,
      "ĠPoland": 7347,
      "ĠEliz": 7348,
      "Ġbaseball": 7349,
      "Ġrecognised": 7350,
      "Ġraise": 7351,
      "Ġrelationships": 7352,
      "Ġinformed": 7353,
      "Ġwithdrew": 7354,
      "Ġobjects": 7355,
      "Ġtransportation": 7356,
      "Ġstayed": 7357,
      "Ġindicating": 7358,
      "ĠDonald": 7359,
      "ĠEvery": 7360,
      "Ġessential": 7361,
      "Ġthrone": 7362,
      "Ġmessage": 7363,
      "Ġbehavior": 7364,
      "ĠWriting": 7365,
      "ĠClarkson": 7366,
      "ĠStanley": 7367,
      "Ġoccasions": 7368,
      "ĠLisa": 7369,
      "Ġinitiative": 7370,
      "ĠPhoen": 7371,
      "ĠNintendo": 7372,
      "Brien": 7373,
      "aire": 7374,
      "borne": 7375,
      "oly": 7376,
      "Ġtone": 7377,
      "rel": 7378,
      "Ġfer": 7379,
      "Ġbrick": 7380,
      "Ġmbar": 7381,
      "lease": 7382,
      "ĠTel": 7383,
      "ĠAR": 7384,
      "uri": 7385,
      "ĠBell": 7386,
      "ĠBass": 7387,
      "ĠBang": 7388,
      "thosaurus": 7389,
      "Ġheat": 7390,
      "ĠPatt": 7391,
      "Ġconqu": 7392,
      "ĠNichol": 7393,
      "ĠGoffman": 7394,
      "ĠLess": 7395,
      "uma": 7396,
      "Ġraces": 7397,
      "Ġproport": 7398,
      "apore": 7399,
      "Ġorbit": 7400,
      "Ġexcess": 7401,
      "ockey": 7402,
      "oven": 7403,
      "uez": 7404,
      "Ġclimate": 7405,
      "Ġafterwards": 7406,
      "Ġjum": 7407,
      "ĠReal": 7408,
      "Ġflo": 7409,
      "Ġreleg": 7410,
      "Ġincome": 7411,
      "Ġminister": 7412,
      "Ġ178": 7413,
      "Ġannually": 7414,
      "Ġ1937": 7415,
      "Ġextreme": 7416,
      "Ġrestored": 7417,
      "Ġopposite": 7418,
      "Ġcauses": 7419,
      "Ġbases": 7420,
      "Ġmedieval": 7421,
      "Ġstandards": 7422,
      "Ġexperiment": 7423,
      "Ġmyst": 7424,
      "Ġcriticised": 7425,
      "Ġequivalent": 7426,
      "Ġdetect": 7427,
      "ĠPalmy": 7428,
      "ĠMexican": 7429,
      "Ġmoral": 7430,
      "Ġregularly": 7431,
      "Ġsequences": 7432,
      "ĠSingapore": 7433,
      "Ġkilome": 7434,
      "forced": 7435,
      "Ġtowers": 7436,
      "Ġrailway": 7437,
      "ĠMoore": 7438,
      "Ġdocuments": 7439,
      "ĠJean": 7440,
      "Ġarrangement": 7441,
      "Ġrequested": 7442,
      "Ġbadly": 7443,
      "Ġpursue": 7444,
      "Ġnormally": 7445,
      "Ġpurposes": 7446,
      "Ġapparently": 7447,
      "Ġnarrative": 7448,
      "Ġinstruments": 7449,
      "Ġencouraged": 7450,
      "Ġassassination": 7451,
      "Ġdocumentary": 7452,
      "Ġproposal": 7453,
      "ĠGilbert": 7454,
      "ĠGrammy": 7455,
      "Ġmartial": 7456,
      "Ġacknowled": 7457,
      "Ġobtained": 7458,
      "ĠCorythosaurus": 7459,
      "ĠSaprang": 7460,
      "Ġfranchise": 7461,
      "Ġsatellite": 7462,
      "ao": 7463,
      "ias": 7464,
      "zac": 7465,
      "atropical": 7466,
      "Ġcraft": 7467,
      "Ġfestival": 7468,
      "enous": 7469,
      "Ġbone": 7470,
      "Ġbaby": 7471,
      "Ġdens": 7472,
      "Ġdipl": 7473,
      "ĠTest": 7474,
      "illy": 7475,
      "ĠSquare": 7476,
      "Ġlies": 7477,
      "Ġlists": 7478,
      "ĠCB": 7479,
      "ĠCR": 7480,
      "ĠCome": 7481,
      "urrent": 7482,
      "Ġgone": 7483,
      "Ġash": 7484,
      "utor": 7485,
      "ĠRio": 7486,
      "ĠDie": 7487,
      "Ġdeemed": 7488,
      "Ġrum": 7489,
      "rier": 7490,
      "ĠEric": 7491,
      "ĠElect": 7492,
      "ĠStew": 7493,
      "Ġunlike": 7494,
      "ĠVice": 7495,
      "Ġpartial": 7496,
      "Ġattained": 7497,
      "ĠYan": 7498,
      "Ġremember": 7499,
      "Ġ88": 7500,
      "ĠMarl": 7501,
      "Ġverte": 7502,
      "Ġeleven": 7503,
      "Ġelections": 7504,
      "ekÄģnt": 7505,
      "Ġminimum": 7506,
      "Ġoperate": 7507,
      "Ġinstance": 7508,
      "annah": 7509,
      "Ġimpossible": 7510,
      "Ġsimultane": 7511,
      "Ġ1911": 7512,
      "Ġ1933": 7513,
      "ĠGuy": 7514,
      "Ġslide": 7515,
      "Ġconstruct": 7516,
      "porarily": 7517,
      "Ġlegs": 7518,
      "Ġtemporarily": 7519,
      "Ġdemand": 7520,
      "ĠStef": 7521,
      "Ġdefeating": 7522,
      "ĠMinor": 7523,
      "Ġelse": 7524,
      "Ġaccommod": 7525,
      "Ġrepresenting": 7526,
      "ĠExp": 7527,
      "ĠHamilton": 7528,
      "Ġmotor": 7529,
      "Ġtribute": 7530,
      "Ġmerch": 7531,
      "ĠÃĹ": 7532,
      "ĠMountains": 7533,
      "ĠLawrence": 7534,
      "Ġchalleng": 7535,
      "Ġdramatic": 7536,
      "Ġmoments": 7537,
      "Ġweapon": 7538,
      "oirs": 7539,
      "Ġextratropical": 7540,
      "Ġhunting": 7541,
      "Ġevacuation": 7542,
      "Ġcomposer": 7543,
      "Ġopponent": 7544,
      "Ġchemical": 7545,
      "ĠGuardian": 7546,
      "Ġutil": 7547,
      "Ġromantic": 7548,
      "umption": 7549,
      "Ġcorrect": 7550,
      "ĠJesus": 7551,
      "Ġresistance": 7552,
      "ropriate": 7553,
      "Ġfalse": 7554,
      "Ġoverwhel": 7555,
      "Ġdiplom": 7556,
      "bound": 7557,
      "gas": 7558,
      "gets": 7559,
      "Ġur": 7560,
      "inary": 7561,
      "rees": 7562,
      "Ġske": 7563,
      "Ġsulf": 7564,
      "Ġfold": 7565,
      "Ġbord": 7566,
      "esc": 7567,
      "Ġdivers": 7568,
      "Ġdwar": 7569,
      "leph": 7570,
      "ĠTreat": 7571,
      "Ġready": 7572,
      "ĠAer": 7573,
      "Ġliber": 7574,
      "Ġet": 7575,
      "Ġeasy": 7576,
      "Ġnav": 7577,
      "ĠBi": 7578,
      "ĠBat": 7579,
      "ĠHun": 7580,
      "Ġalien": 7581,
      "ĠNaval": 7582,
      "Ġrates": 7583,
      "ĠOwen": 7584,
      "Ġshut": 7585,
      "ĠKombat": 7586,
      "ĠChannel": 7587,
      "Ġintense": 7588,
      "Ġresumed": 7589,
      "Ġaged": 7590,
      "Ġjazz": 7591,
      "Ġoutbreak": 7592,
      "ĠAnzac": 7593,
      "Ġinteraction": 7594,
      "Ġmovements": 7595,
      "Ġforming": 7596,
      "Ġactual": 7597,
      "Ġammun": 7598,
      "oba": 7599,
      "ajev": 7600,
      "Ġshipping": 7601,
      "Ġpoll": 7602,
      "Ġinfrast": 7603,
      "Ġobst": 7604,
      "Ġanyone": 7605,
      "Ġinscriptions": 7606,
      "Ġdriving": 7607,
      "Ġ1921": 7608,
      "Ġperiods": 7609,
      "ĠOrgan": 7610,
      "Ġtwin": 7611,
      "Ġarmament": 7612,
      "Ġwatching": 7613,
      "Ġgenre": 7614,
      "Ġskull": 7615,
      "Ġinterests": 7616,
      "Ġaudiences": 7617,
      "Ġthinking": 7618,
      "chers": 7619,
      "ĠMedia": 7620,
      "Ġdiag": 7621,
      "Ġpoorly": 7622,
      "Ġdegrees": 7623,
      "Ġjudge": 7624,
      "ĠStrand": 7625,
      "Ġhoped": 7626,
      "ĠMiller": 7627,
      "Ġvoiced": 7628,
      "ĠOslo": 7629,
      "Ġwarships": 7630,
      "ĠLegacy": 7631,
      "Ġelevation": 7632,
      "Ġfixed": 7633,
      "ĠArgentina": 7634,
      "Ġdrums": 7635,
      "Ġexclusively": 7636,
      "ĠSarajev": 7637,
      "Ġdecorated": 7638,
      "ĠMortal": 7639,
      "ĠInitially": 7640,
      "ĠEducation": 7641,
      "Ġconvinced": 7642,
      "ĠTerritory": 7643,
      "Ġcontext": 7644,
      "Ġcircumstances": 7645,
      "ĠLorenzo": 7646,
      "ekend": 7647,
      "ĠElizabeth": 7648,
      "Ġdwarf": 7649,
      "Ġammunition": 7650,
      "ĠSarajevo": 7651,
      "aug": 7652,
      "bur": 7653,
      "dal": 7654,
      "dess": 7655,
      "jillo": 7656,
      "mel": 7657,
      "och": 7658,
      "pes": 7659,
      "Ġsisters": 7660,
      "itated": 7661,
      "Ġfram": 7662,
      "Ġbat": 7663,
      "Ġpure": 7664,
      "Ġpyram": 7665,
      "icit": 7666,
      "Ġdog": 7667,
      "Ġhat": 7668,
      "ĠTrib": 7669,
      "Ġrepr": 7670,
      "ĠSav": 7671,
      "ĠSher": 7672,
      "acent": 7673,
      "ĠThen": 7674,
      "Ġonline": 7675,
      "ĠBron": 7676,
      "ĠHor": 7677,
      "ĠHob": 7678,
      "uses": 7679,
      "ĠFound": 7680,
      "ĠNL": 7681,
      "ĠJenn": 7682,
      "ĠEvent": 7683,
      "Ġvac": 7684,
      "ĠInc": 7685,
      "Ġplain": 7686,
      "ĠâĢľ": 7687,
      "Ġyoun": 7688,
      "ogen": 7689,
      "Ġdesert": 7690,
      "Ġoffense": 7691,
      "enses": 7692,
      "ĠComb": 7693,
      "Ġsubst": 7694,
      "ĠAustria": 7695,
      "Ġ08": 7696,
      "Ġcrest": 7697,
      "Ġterror": 7698,
      "Ġowner": 7699,
      "ullen": 7700,
      "Ġcounties": 7701,
      "inking": 7702,
      "Ġconsiders": 7703,
      "Ġ1912": 7704,
      "Ġ1934": 7705,
      "Ġextens": 7706,
      "Ġdriven": 7707,
      "Ġ1928": 7708,
      "Ġdifferences": 7709,
      "ĠGeoff": 7710,
      "Ġengage": 7711,
      "Ġcrisis": 7712,
      "Ġdemands": 7713,
      "Ġrealized": 7714,
      "Ġinfluential": 7715,
      "pecies": 7716,
      "Ġelsewhere": 7717,
      "Ġannounce": 7718,
      "Ġlimit": 7719,
      "Ġdivor": 7720,
      "Ġliked": 7721,
      "Ġmixture": 7722,
      "Ġidentity": 7723,
      "Ġrepresentative": 7724,
      "ĠJews": 7725,
      "Ġcollapse": 7726,
      "Ġburned": 7727,
      "Ġdrawing": 7728,
      "ĠKorea": 7729,
      "Ġinjured": 7730,
      "ĠArabic": 7731,
      "ĠMalays": 7732,
      "ĠLawton": 7733,
      "Ġopportunities": 7734,
      "ĠGallery": 7735,
      "ĠGarc": 7736,
      "ĠOriginally": 7737,
      "ĠBuilding": 7738,
      "Ġdelayed": 7739,
      "ĠTrujillo": 7740,
      "Ġcrops": 7741,
      "Ġconspiracy": 7742,
      "Ġdownload": 7743,
      "Ġmoderate": 7744,
      "Ġcitizens": 7745,
      "ĠMozamb": 7746,
      "ĠClinton": 7747,
      "Ġyoungest": 7748,
      "bra": 7749,
      "dney": 7750,
      "hi": 7751,
      "rates": 7752,
      "rants": 7753,
      "wich": 7754,
      "Ã¨": 7755,
      "Ġtailed": 7756,
      "onia": 7757,
      "Ġsons": 7758,
      "Ġsiege": 7759,
      "Ġcul": 7760,
      "Ġfant": 7761,
      "Ġmis": 7762,
      "Ġmut": 7763,
      "leged": 7764,
      "ĠTig": 7765,
      "ĠAuth": 7766,
      "ĠSa": 7767,
      "Ġlap": 7768,
      "Ġlibrary": 7769,
      "Ġbearing": 7770,
      "ĠMu": 7771,
      "Ġgarrison": 7772,
      "ĠISB": 7773,
      "Ġstood": 7774,
      "ĠHud": 7775,
      "ĠHaving": 7776,
      "using": 7777,
      "usad": 7778,
      "otes": 7779,
      "ĠRace": 7780,
      "Ġalleged": 7781,
      "Ġconclusion": 7782,
      "ĠDur": 7783,
      "ĠWimb": 7784,
      "ĠWrestling": 7785,
      "ĠJoy": 7786,
      "ĠLamb": 7787,
      "aga": 7788,
      "ategy": 7789,
      "Ġorb": 7790,
      "Ġexha": 7791,
      "ruz": 7792,
      "Ġresigned": 7793,
      "Ġjury": 7794,
      "Ġdisaster": 7795,
      "Ġotherwise": 7796,
      "Ġoutp": 7797,
      "ĠYank": 7798,
      "Ġspur": 7799,
      "Ġ74": 7800,
      "Ġfeed": 7801,
      "Ġearn": 7802,
      "mann": 7803,
      "ĠDean": 7804,
      "ĠBranch": 7805,
      "Ġ165": 7806,
      "Ġ166": 7807,
      "ledon": 7808,
      "Ġdescribe": 7809,
      "Ġowners": 7810,
      "Ġnorthward": 7811,
      "Ġextent": 7812,
      "Ġ140": 7813,
      "Ġwilling": 7814,
      "ĠHergÃ©": 7815,
      "Ġ1925": 7816,
      "Ġ1926": 7817,
      "Ġclaiming": 7818,
      "Ġinitiated": 7819,
      "Ġtemporary": 7820,
      "Ġsuggesting": 7821,
      "Ġbands": 7822,
      "Ġcompete": 7823,
      "ĠMinistry": 7824,
      "Ġfactors": 7825,
      "ĠAbb": 7826,
      "ĠCorporation": 7827,
      "ĠSupreme": 7828,
      "avalry": 7829,
      "ĠSwiss": 7830,
      "Ġengineers": 7831,
      "Ġachieve": 7832,
      "Ġcivilians": 7833,
      "Ġbiographer": 7834,
      "Ġfeelings": 7835,
      "Ġvote": 7836,
      "Ġbringing": 7837,
      "Ġsoutheastern": 7838,
      "Ġdraf": 7839,
      "Ġdepending": 7840,
      "Ġoption": 7841,
      "Ġconcentrated": 7842,
      "ĠConfeder": 7843,
      "ĠDefence": 7844,
      "Ġdeparture": 7845,
      "Ġcompounds": 7846,
      "ĠDoctor": 7847,
      "Ġranging": 7848,
      "Ġjunction": 7849,
      "ĠNevertheless": 7850,
      "Ġbatsman": 7851,
      "Ġpreferred": 7852,
      "Ġconcerts": 7853,
      "ĠProtest": 7854,
      "ĠCampbell": 7855,
      "Ġcriminal": 7856,
      "Ġeuropium": 7857,
      "ĠKilmer": 7858,
      "ĠISBN": 7859,
      "ĠWimbledon": 7860,
      "ĠYankovic": 7861,
      "LI": 7862,
      "Pa": 7863,
      "rant": 7864,
      "vant": 7865,
      "Ã¼": 7866,
      "Ġtight": 7867,
      "Ġtiss": 7868,
      "inet": 7869,
      "inals": 7870,
      "Ġsight": 7871,
      "Ġsessions": 7872,
      "Ġsaved": 7873,
      "Ġcaves": 7874,
      "Ġinaug": 7875,
      "inge": 7876,
      "inger": 7877,
      "Ġhappy": 7878,
      "ilation": 7879,
      "ĠCop": 7880,
      "acle": 7881,
      "Ġgets": 7882,
      "ĠBaker": 7883,
      "ithic": 7884,
      "ĠRest": 7885,
      "ĠPass": 7886,
      "ĠFair": 7887,
      "ĠDak": 7888,
      "ĠJr": 7889,
      "umin": 7890,
      "Ġritual": 7891,
      "Ġplane": 7892,
      "ables": 7893,
      "ĠStock": 7894,
      "elli": 7895,
      "ishment": 7896,
      "Ġclock": 7897,
      "Ġherd": 7898,
      "Ġagents": 7899,
      "Ġimpl": 7900,
      "Ġformat": 7901,
      "Ġwritings": 7902,
      "Ġamateur": 7903,
      "Ġcook": 7904,
      "Ġ09": 7905,
      "Ġpoly": 7906,
      "athers": 7907,
      "Ġbridges": 7908,
      "Ġinstall": 7909,
      "Ġlandings": 7910,
      "Ġgenerated": 7911,
      "Ġstrategy": 7912,
      "raph": 7913,
      "Ġ1957": 7914,
      "Ġmodels": 7915,
      "ĠPlan": 7916,
      "Ġ1931": 7917,
      "rows": 7918,
      "Ġrestrict": 7919,
      "Ġorganised": 7920,
      "Ġmarry": 7921,
      "Ġnortheastern": 7922,
      "arring": 7923,
      "itarian": 7924,
      "Ġlawy": 7925,
      "Ġ1909": 7926,
      "Ġsurvive": 7927,
      "Ġtravelled": 7928,
      "Ġcheck": 7929,
      "Ġruler": 7930,
      "Ġcrews": 7931,
      "Ġdefenders": 7932,
      "Ġhyp": 7933,
      "Ġengineer": 7934,
      "Ġelectronic": 7935,
      "Ġrenew": 7936,
      "ĠKoreans": 7937,
      "Ġburial": 7938,
      "ĠRichardson": 7939,
      "ĠCampaign": 7940,
      "Ġinnov": 7941,
      "itzer": 7942,
      "Ġprepare": 7943,
      "Ġunderstand": 7944,
      "Ġphotograph": 7945,
      "ĠNorway": 7946,
      "ĠHawaii": 7947,
      "Ġincorporated": 7948,
      "Ġdoubt": 7949,
      "ĠRailway": 7950,
      "ĠPalestine": 7951,
      "Ġstarling": 7952,
      "Ġrifle": 7953,
      "ĠNorman": 7954,
      "ĠMathews": 7955,
      "ĠAthletic": 7956,
      "Ġdialogue": 7957,
      "Ġreconstruction": 7958,
      "ĠCathedral": 7959,
      "Ġdoctr": 7960,
      "Ġethnic": 7961,
      "Ġcongreg": 7962,
      "Ġsuspended": 7963,
      "ekÄģntavÄģda": 7964,
      "iour": 7965,
      "ka": 7966,
      "mouth": 7967,
      "yo": 7968,
      "Ġtack": 7969,
      "unes": 7970,
      "Ġciting": 7971,
      "Ġblow": 7972,
      "Ġpine": 7973,
      "Ġpric": 7974,
      "ingale": 7975,
      "Ġment": 7976,
      "ician": 7977,
      "Ġhall": 7978,
      "ĠTro": 7979,
      "ilty": 7980,
      "ĠSuch": 7981,
      "omura": 7982,
      "ĠCategory": 7983,
      "amm": 7984,
      "ĠMong": 7985,
      "ĠMah": 7986,
      "ĠBos": 7987,
      "Ġstyles": 7988,
      "utz": 7989,
      "otic": 7990,
      "ĠRem": 7991,
      "ĠPot": 7992,
      "ĠPap": 7993,
      "emia": 7994,
      "ĠFern": 7995,
      "ĠDiv": 7996,
      "ĠWomen": 7997,
      "osis": 7998,
      "ĠGate": 7999,
      "ĠLanc": 8000,
      "Ġcomments": 8001,
      "ĠOur": 8002,
      "peare": 8003,
      "Ġsure": 8004,
      "ateau": 8005,
      "uda": 8006,
      "ĠâĢĿ": 8007,
      "Ġnotably": 8008,
      "ĠKit": 8009,
      "ĠKim": 8010,
      "Ġunion": 8011,
      "raham": 8012,
      "anyon": 8013,
      "ĠAlong": 8014,
      "Ġ84": 8015,
      "Ġ86": 8016,
      "ĠComple": 8017,
      "Ġcharged": 8018,
      "ificial": 8019,
      "Ġpoison": 8020,
      "Ġteamm": 8021,
      "ĠShakes": 8022,
      "Ġobvious": 8023,
      "ĠShel": 8024,
      "Ġreprodu": 8025,
      "Ġgenerals": 8026,
      "Ġguilty": 8027,
      "Ġconsidering": 8028,
      "Ġexpensive": 8029,
      "ĠManagement": 8030,
      "ĠAdminist": 8031,
      "ĠTracy": 8032,
      "Ġ1923": 8033,
      "Ġtriple": 8034,
      "Ġmargin": 8035,
      "Ġrepresents": 8036,
      "ĠPeters": 8037,
      "Ġinfluences": 8038,
      "Ġarmoured": 8039,
      "Ġaffil": 8040,
      "Ġgrounds": 8041,
      "Ġ1905": 8042,
      "ĠPolice": 8043,
      "ĠSimpson": 8044,
      "Ġgoddess": 8045,
      "Ġinteresting": 8046,
      "ĠMonument": 8047,
      "ĠBerlin": 8048,
      "Ġpractices": 8049,
      "Ġrebels": 8050,
      "Ġbombard": 8051,
      "Ġlayer": 8052,
      "ĠVictorian": 8053,
      "ĠMrs": 8054,
      "Ġexperiences": 8055,
      "ĠJustice": 8056,
      "Ġprincip": 8057,
      "ĠBCE": 8058,
      "Ġspiritual": 8059,
      "Ġexcavations": 8060,
      "Ġstruggle": 8061,
      "Ġpounder": 8062,
      "Ġadults": 8063,
      "Ġdemonstrated": 8064,
      "ĠHuman": 8065,
      "Ġcomparison": 8066,
      "Ġpupils": 8067,
      "Ġprompted": 8068,
      "Ġencountered": 8069,
      "Ġadjacent": 8070,
      "Ġstrategic": 8071,
      "Ġassembled": 8072,
      "ĠJurchen": 8073,
      "Ġreinforcements": 8074,
      "ĠMorrison": 8075,
      "Ġjackr": 8076,
      "ĠEventually": 8077,
      "ĠHudson": 8078,
      "ĠShakespeare": 8079,
      "OC": 8080,
      "burg": 8081,
      "how": 8082,
      "jamin": 8083,
      "sp": 8084,
      "heme": 8085,
      "Ġsq": 8086,
      "Ġwel": 8087,
      "itia": 8088,
      "Ġfert": 8089,
      "Ġbed": 8090,
      "Ġdies": 8091,
      "Ġhuge": 8092,
      "lets": 8093,
      "ĠAA": 8094,
      "ĠSb": 8095,
      "ĠSant": 8096,
      "ĠSoon": 8097,
      "Ġlose": 8098,
      "ĠMk": 8099,
      "Ġgard": 8100,
      "ĠBh": 8101,
      "ĠBark": 8102,
      "uscript": 8103,
      "ĠRugby": 8104,
      "emies": 8105,
      "ĠDyn": 8106,
      "ĠWright": 8107,
      "Ġsees": 8108,
      "ĠGre": 8109,
      "ĠLower": 8110,
      "ophy": 8111,
      "sex": 8112,
      "Ġexists": 8113,
      "ĠUpp": 8114,
      "ĠStal": 8115,
      "ĠChampion": 8116,
      "Ġclust": 8117,
      "onder": 8118,
      "Ġplayoff": 8119,
      "ricted": 8120,
      "Ġattrib": 8121,
      "weet": 8122,
      "Ġspores": 8123,
      "Ġ92": 8124,
      "Ġprerog": 8125,
      "Ġflu": 8126,
      "Ġsurpr": 8127,
      "Ġ05": 8128,
      "Ġmainland": 8129,
      "Ġsmooth": 8130,
      "ernon": 8131,
      "ĠUSD": 8132,
      "ĠWho": 8133,
      "Ġmetre": 8134,
      "Ġoffices": 8135,
      "Ġguerr": 8136,
      "ĠBlu": 8137,
      "Ġdirectors": 8138,
      "ĠCanal": 8139,
      "Ġdrain": 8140,
      "Ġestablishing": 8141,
      "Ġdifference": 8142,
      "Ġbreaking": 8143,
      "Ġformerly": 8144,
      "Ġcommunication": 8145,
      "ĠDesign": 8146,
      "ĠDavis": 8147,
      "Ġprofit": 8148,
      "ĠPhilip": 8149,
      "ĠRecord": 8150,
      "Ġhighways": 8151,
      "Ġcondem": 8152,
      "Ġfuner": 8153,
      "Ġ1850": 8154,
      "Ġruling": 8155,
      "Ġargues": 8156,
      "Ġtests": 8157,
      "atinum": 8158,
      "Ġclearly": 8159,
      "Ġburning": 8160,
      "Ġcopy": 8161,
      "Ġsubjects": 8162,
      "Ġmaterials": 8163,
      "Ġbiography": 8164,
      "Ġdominant": 8165,
      "ĠBoys": 8166,
      "Ġemerg": 8167,
      "Ġtargets": 8168,
      "ĠBenjamin": 8169,
      "ĠEnterprise": 8170,
      "Ġthousand": 8171,
      "Ġsubspecies": 8172,
      "ĠCommunist": 8173,
      "Ġsuitable": 8174,
      "Ġjournalist": 8175,
      "Ġsegment": 8176,
      "Ġstriking": 8177,
      "ĠNCAA": 8178,
      "ĠColeman": 8179,
      "ĠCambodia": 8180,
      "Ġstrengthened": 8181,
      "ĠWatson": 8182,
      "Ġglobal": 8183,
      "ĠBelgium": 8184,
      "Ġpredecessor": 8185,
      "ĠRÃ©union": 8186,
      "ĠQueensland": 8187,
      "ĠUpper": 8188,
      "after": 8189,
      "oard": 8190,
      "ris": 8191,
      "vention": 8192,
      "yard": 8193,
      "Åį": 8194,
      "hered": 8195,
      "inations": 8196,
      "eratops": 8197,
      "Ġsaves": 8198,
      "Ġcemetery": 8199,
      "Ġban": 8200,
      "Ġbanned": 8201,
      "esi": 8202,
      "Ġinning": 8203,
      "Ġdream": 8204,
      "Ġdangerous": 8205,
      "Ġhull": 8206,
      "Ġhills": 8207,
      "Ġlover": 8208,
      "Ġnations": 8209,
      "ĠCec": 8210,
      "eline": 8211,
      "Ġbeautiful": 8212,
      "urday": 8213,
      "ĠMuch": 8214,
      "Ġgall": 8215,
      "ĠBed": 8216,
      "ĠBudd": 8217,
      "Ġstable": 8218,
      "Ġconsequ": 8219,
      "ĠFall": 8220,
      "ĠWard": 8221,
      "ersed": 8222,
      "Ġdeleg": 8223,
      "Ġrated": 8224,
      "Ġrib": 8225,
      "Ġvul": 8226,
      "illed": 8227,
      "pty": 8228,
      "ureau": 8229,
      "Ġclimb": 8230,
      "Ġusage": 8231,
      "Ġscattered": 8232,
      "Ġoutl": 8233,
      "ĠUntil": 8234,
      "Ġmanuscript": 8235,
      "Ġquant": 8236,
      "Ġamino": 8237,
      "Ġcoaching": 8238,
      "Ġ02": 8239,
      "ĠLead": 8240,
      "ĠWarren": 8241,
      "Ġ113": 8242,
      "Ġdepicts": 8243,
      "Ġgenera": 8244,
      "Ġconstant": 8245,
      "Ġvariation": 8246,
      "Ġapproved": 8247,
      "Ġconflic": 8248,
      "ĠRoth": 8249,
      "ĠGrade": 8250,
      "Ġmedium": 8251,
      "Ġtrouble": 8252,
      "Ġstatistics": 8253,
      "Ġparish": 8254,
      "ĠBarry": 8255,
      "Ġsteep": 8256,
      "Ġlooks": 8257,
      "Ġpraise": 8258,
      "Ġreaders": 8259,
      "Ġfifty": 8260,
      "Ġ1861": 8261,
      "Ġfalls": 8262,
      "ĠSydney": 8263,
      "Ġdefending": 8264,
      "Ġwider": 8265,
      "Ġoccupation": 8266,
      "Ġadopt": 8267,
      "Ġdisplayed": 8268,
      "Ġplatoon": 8269,
      "Ġschedule": 8270,
      "Ġcelebrated": 8271,
      "Ġwithdrawal": 8272,
      "ĠFormula": 8273,
      "iques": 8274,
      "Ġinterpre": 8275,
      "Ġcolumns": 8276,
      "Ġdelivery": 8277,
      "ĠSilver": 8278,
      "Ġbehaviour": 8279,
      "Ġholiday": 8280,
      "Ġorganisation": 8281,
      "otype": 8282,
      "Ġpremiere": 8283,
      "ĠCubs": 8284,
      "Ġchairman": 8285,
      "ĠSaturday": 8286,
      "Ġresidential": 8287,
      "Ġsubstantial": 8288,
      "Ġbulk": 8289,
      "Ġbrigades": 8290,
      "Ġcollapsed": 8291,
      "Ġrhythm": 8292,
      "ĠLabour": 8293,
      "ĠTreaty": 8294,
      "ĠGarcÃŃa": 8295,
      "CC": 8296,
      "DS": 8297,
      "TW": 8298,
      "life": 8299,
      "sych": 8300,
      "tropical": 8301,
      "heera": 8302,
      "inje": 8303,
      "Ġsale": 8304,
      "Ġwrest": 8305,
      "Ġcart": 8306,
      "Ġhip": 8307,
      "ĠAP": 8308,
      "ĠAz": 8309,
      "ilst": 8310,
      "ĠCelt": 8311,
      "amount": 8312,
      "urse": 8313,
      "ĠMic": 8314,
      "ĠMain": 8315,
      "Ġgust": 8316,
      "Ġgra": 8317,
      "ĠBenn": 8318,
      "ĠHou": 8319,
      "ĠHugh": 8320,
      "ĠHarrison": 8321,
      "verse": 8322,
      "ĠRos": 8323,
      "ĠRaj": 8324,
      "ĠDick": 8325,
      "ĠWisc": 8326,
      "ĠJMA": 8327,
      "ĠJTW": 8328,
      "ĠGary": 8329,
      "ĠLith": 8330,
      "ĠLang": 8331,
      "ĠLink": 8332,
      "Ġrig": 8333,
      "Ġrising": 8334,
      "Ġprove": 8335,
      "Ġsuicide": 8336,
      "aka": 8337,
      "aste": 8338,
      "ĠStop": 8339,
      "Ġnotice": 8340,
      "Ġleuk": 8341,
      "Ġtra": 8342,
      "rawn": 8343,
      "Ġrooms": 8344,
      "Ġpartner": 8345,
      "Ġdisagre": 8346,
      "ricts": 8347,
      "Ġenh": 8348,
      "Ġprefect": 8349,
      "rene": 8350,
      "ĠSee": 8351,
      "ĠUnivers": 8352,
      "Ġpeaking": 8353,
      "Ġproductions": 8354,
      "Ġcharity": 8355,
      "onsin": 8356,
      "Ġnoisy": 8357,
      "Ġincom": 8358,
      "Ġmusc": 8359,
      "Ġ125": 8360,
      "Ġseverely": 8361,
      "atherine": 8362,
      "Ġoperates": 8363,
      "Ġterrain": 8364,
      "Ġdistricts": 8365,
      "Ġreceives": 8366,
      "Ġdiscip": 8367,
      "iamond": 8368,
      "Ġinscription": 8369,
      "Ġpublications": 8370,
      "ĠTechn": 8371,
      "Ġrestricted": 8372,
      "Ġportrait": 8373,
      "Ġarrive": 8374,
      "arris": 8375,
      "Ġeveryone": 8376,
      "ĠWeb": 8377,
      "Ġcontrols": 8378,
      "Ġradiation": 8379,
      "Ġ1901": 8380,
      "Ġsounds": 8381,
      "Ġerr": 8382,
      "ĠAtlanta": 8383,
      "Ġtesting": 8384,
      "Ġcreative": 8385,
      "Ġpersu": 8386,
      "Ġperspective": 8387,
      "Ġnominations": 8388,
      "Ġinjuries": 8389,
      "Ġharbour": 8390,
      "Ġpotentially": 8391,
      "Ġfavorable": 8392,
      "Ġadapt": 8393,
      "ĠOverall": 8394,
      "Ġdetermine": 8395,
      "ĠInterstate": 8396,
      "Ġtalking": 8397,
      "Ġunderstanding": 8398,
      "Ġthrowing": 8399,
      "Ġinternal": 8400,
      "Ġemphasis": 8401,
      "Ġremarked": 8402,
      "Ġdefinition": 8403,
      "Ġadvertising": 8404,
      "Ġseeking": 8405,
      "Ġgraphics": 8406,
      "Ġmagnitude": 8407,
      "ĠKrak": 8408,
      "Ġdistinguished": 8409,
      "Ġfatal": 8410,
      "ĠRifles": 8411,
      "ĠHitler": 8412,
      "Ġretirement": 8413,
      "Ġinfrastructure": 8414,
      "ĠOrganization": 8415,
      "ĠWisconsin": 8416,
      "ĠJTWC": 8417,
      "burn": 8418,
      "boy": 8419,
      "sch": 8420,
      "Å¡": 8421,
      "Ê»": 8422,
      "Ġturb": 8423,
      "Ġtenth": 8424,
      "het": 8425,
      "Ġaw": 8426,
      "Ġaster": 8427,
      "Ġsad": 8428,
      "aten": 8429,
      "oral": 8430,
      "orial": 8431,
      "Ġcry": 8432,
      "Ġcars": 8433,
      "Ġbind": 8434,
      "Ġbarr": 8435,
      "Ġtoured": 8436,
      "roit": 8437,
      "ĠhPa": 8438,
      "ĠTok": 8439,
      "ĠTai": 8440,
      "Ġthrew": 8441,
      "ĠSis": 8442,
      "ĠSweet": 8443,
      "ammar": 8444,
      "Ġbear": 8445,
      "Ġbears": 8446,
      "ĠMand": 8447,
      "ĠMack": 8448,
      "ĠMoon": 8449,
      "Ġgiant": 8450,
      "oli": 8451,
      "ĠBureau": 8452,
      "idd": 8453,
      "Ġstarring": 8454,
      "otal": 8455,
      "Ġalive": 8456,
      "ĠDom": 8457,
      "ĠWing": 8458,
      "ĠNow": 8459,
      "ĠNear": 8460,
      "Ġanch": 8461,
      "Ġansw": 8462,
      "Ġdeity": 8463,
      "ĠGwen": 8464,
      "Ġriding": 8465,
      "atech": 8466,
      "ĠUt": 8467,
      "Ġtrapped": 8468,
      "ĠVi": 8469,
      "Ġresign": 8470,
      "ryce": 8471,
      "ultan": 8472,
      "Ġevident": 8473,
      "Ġspoke": 8474,
      "ĠReform": 8475,
      "Ġearning": 8476,
      "Ġ83": 8477,
      "Ġconsc": 8478,
      "Ġcancer": 8479,
      "Ġprint": 8480,
      "Ġreleases": 8481,
      "Ġapprec": 8482,
      "Ġbuy": 8483,
      "Ġsupporters": 8484,
      "Ġcoordin": 8485,
      "Ġsurg": 8486,
      "Ġenth": 8487,
      "Ġ105": 8488,
      "Ġgrave": 8489,
      "Ġoriginated": 8490,
      "fully": 8491,
      "Ġwarfare": 8492,
      "Ġcarries": 8493,
      "Ġadvancing": 8494,
      "ĠAllah": 8495,
      "Ġpromin": 8496,
      "Ġexposure": 8497,
      "Ġcharacterized": 8498,
      "Ġclassification": 8499,
      "ĠChristopher": 8500,
      "Ġrestoration": 8501,
      "ĠGuide": 8502,
      "Ġapproval": 8503,
      "Ġpossess": 8504,
      "Ġreflected": 8505,
      "Ġvisiting": 8506,
      "Ġ1000": 8507,
      "Ġlisten": 8508,
      "Ġlisting": 8509,
      "ĠFlight": 8510,
      "ĠPerform": 8511,
      "shore": 8512,
      "ĠNext": 8513,
      "ĠNebr": 8514,
      "Ġdoesn": 8515,
      "Ġtechniques": 8516,
      "Ġvalues": 8517,
      "Ġrocks": 8518,
      "Ġrevol": 8519,
      "Ġswim": 8520,
      "Ġsuperv": 8521,
      "Ġmeasured": 8522,
      "Ġobjective": 8523,
      "Ġproperties": 8524,
      "Ġrailroad": 8525,
      "ĠWilson": 8526,
      "Ġvotes": 8527,
      "Ġadaptation": 8528,
      "ĠIsraeli": 8529,
      "Ġamounts": 8530,
      "Ġmaintaining": 8531,
      "Ġcleared": 8532,
      "Ġvehicle": 8533,
      "Ġexcavation": 8534,
      "Ġprisoners": 8535,
      "ĠMatthew": 8536,
      "Ġdistinctive": 8537,
      "iveness": 8538,
      "Ġobservations": 8539,
      "Ġcorner": 8540,
      "ĠRhodesia": 8541,
      "Ġenvironmental": 8542,
      "Ġconversion": 8543,
      "ĠSwedish": 8544,
      "Ġaimed": 8545,
      "Ġpulled": 8546,
      "ĠGirls": 8547,
      "Ġrebuilt": 8548,
      "Ġelder": 8549,
      "Ġastronom": 8550,
      "Ġempire": 8551,
      "ĠDetroit": 8552,
      "Ġkitsune": 8553,
      "Ġillegal": 8554,
      "Ġextensively": 8555,
      "ĠBarker": 8556,
      "Ġasteroid": 8557,
      "ĠNebraska": 8558,
      "han": 8559,
      "hang": 8560,
      "join": 8561,
      "mont": 8562,
      "rating": 8563,
      "uart": 8564,
      "western": 8565,
      "yria": 8566,
      "áĥ": 8567,
      "Ġáĥ": 8568,
      "Ġtrough": 8569,
      "inery": 8570,
      "Ġsample": 8571,
      "orious": 8572,
      "orrow": 8573,
      "Ġcup": 8574,
      "Ġfil": 8575,
      "Ġfate": 8576,
      "Ġfoss": 8577,
      "isation": 8578,
      "Ġbom": 8579,
      "Ġpace": 8580,
      "Ġpale": 8581,
      "Ġmicro": 8582,
      "rols": 8583,
      "Ġhidden": 8584,
      "ĠTam": 8585,
      "Ġlake": 8586,
      "ĠCP": 8587,
      "elly": 8588,
      "acruz": 8589,
      "Ġbeating": 8590,
      "urance": 8591,
      "olay": 8592,
      "ĠBible": 8593,
      "ĠBah": 8594,
      "imal": 8595,
      "Ġstock": 8596,
      "ĠHamp": 8597,
      "ĠPul": 8598,
      "ĠPower": 8599,
      "ĠDA": 8600,
      "ĠDave": 8601,
      "ĠDark": 8602,
      "ĠWolf": 8603,
      "ĠNon": 8604,
      "Ġanth": 8605,
      "osl": 8606,
      "ĠLy": 8607,
      "ĠLost": 8608,
      "Ġracing": 8609,
      "ĠEs": 8610,
      "ĠIng": 8611,
      "udo": 8612,
      "ĠStuart": 8613,
      "Ġrouting": 8614,
      "ffield": 8615,
      "Ġrecre": 8616,
      "Ġrecur": 8617,
      "pled": 8618,
      "Ġpartn": 8619,
      "Ġtexts": 8620,
      "Ġweigh": 8621,
      "Ġspan": 8622,
      "amps": 8623,
      "Ġcenters": 8624,
      "Ġfeathers": 8625,
      "ĠAsian": 8626,
      "Ġconsult": 8627,
      "inder": 8628,
      "Ġcanc": 8629,
      "Ġprime": 8630,
      "Ġrecordings": 8631,
      "Ġamid": 8632,
      "Ġgrown": 8633,
      "Ġcooper": 8634,
      "Ġsurge": 8635,
      "Ġdecay": 8636,
      "Ġmonitor": 8637,
      "ĠSheffield": 8638,
      "Ġadvice": 8639,
      "ĠPlat": 8640,
      "ĠChristians": 8641,
      "Ġhelping": 8642,
      "Ġkills": 8643,
      "Ġ1924": 8644,
      "ĠProgram": 8645,
      "Ġpersonality": 8646,
      "Ġtrials": 8647,
      "Ã©t": 8648,
      "ĠGray": 8649,
      "ĠMcM": 8650,
      "Ġpropag": 8651,
      "Ġsituated": 8652,
      "Ġanthem": 8653,
      "ĠCentre": 8654,
      "Ġpatrols": 8655,
      "Ġstructural": 8656,
      "ĠParaly": 8657,
      "Ġarmies": 8658,
      "Ġfriendly": 8659,
      "Ġcoup": 8660,
      "Ġranking": 8661,
      "Ġfallen": 8662,
      "Ġasks": 8663,
      "ĠChampionships": 8664,
      "Ġreveal": 8665,
      "Ġcyclones": 8666,
      "Ġdevast": 8667,
      "ĠBusiness": 8668,
      "ĠAgain": 8669,
      "Ġcruisers": 8670,
      "ĠVeracruz": 8671,
      "Ġharm": 8672,
      "Ġsusp": 8673,
      "Ġspacecraft": 8674,
      "ĠHowe": 8675,
      "ĠFIFA": 8676,
      "Ġarchitecture": 8677,
      "ĠJaneiro": 8678,
      "ĠColumbus": 8679,
      "ĠErnest": 8680,
      "ĠFurthermore": 8681,
      "Ġceremon": 8682,
      "Ġpremiered": 8683,
      "Ġtheatrical": 8684,
      "Ġpanel": 8685,
      "Ġadventure": 8686,
      "ĠPersian": 8687,
      "Ġcommunications": 8688,
      "Ġimprison": 8689,
      "eorological": 8690,
      "Ġelaborate": 8691,
      "Ġconventional": 8692,
      "ĠNetwork": 8693,
      "ĠPhoenix": 8694,
      "Ġpyramid": 8695,
      "ĠFoundation": 8696,
      "ĠMozambique": 8697,
      "ĠDakota": 8698,
      "Ġprerogative": 8699,
      "ĠParalymp": 8700,
      "IA": 8701,
      "aud": 8702,
      "cru": 8703,
      "coming": 8704,
      "eper": 8705,
      "fl": 8706,
      "hist": 8707,
      "pus": 8708,
      "tav": 8709,
      "zi": 8710,
      "ĠÎ": 8711,
      "Ġsoul": 8712,
      "Ġwings": 8713,
      "Ġcous": 8714,
      "Ġbon": 8715,
      "Ġbod": 8716,
      "Ġinclusion": 8717,
      "Ġpion": 8718,
      "Ġpsych": 8719,
      "Ġmask": 8720,
      "Ġdict": 8721,
      "iling": 8722,
      "ĠSans": 8723,
      "ĠSull": 8724,
      "Ġlanes": 8725,
      "omtav": 8726,
      "ĠCab": 8727,
      "ĠCob": 8728,
      "eless": 8729,
      "acles": 8730,
      "Ġongoing": 8731,
      "ĠMidge": 8732,
      "Ġgend": 8733,
      "ivan": 8734,
      "olen": 8735,
      "aya": 8736,
      "Ġbypass": 8737,
      "ĠRain": 8738,
      "ĠPryce": 8739,
      "Ġalph": 8740,
      "ĠDig": 8741,
      "ĠWander": 8742,
      "andoba": 8743,
      "ĠNad": 8744,
      "ĠNiel": 8745,
      "ĠOsc": 8746,
      "ĠEy": 8747,
      "Ġvent": 8748,
      "illas": 8749,
      "oples": 8750,
      "Ġcontribution": 8751,
      "ogram": 8752,
      "ubb": 8753,
      "Ġadm": 8754,
      "Ġresidence": 8755,
      "ĠThus": 8756,
      "Ġscheme": 8757,
      "Ġenemies": 8758,
      "Ġevolved": 8759,
      "Ġweekend": 8760,
      "ĠAnne": 8761,
      "ĠAsomtav": 8762,
      "Ġretain": 8763,
      "Ġsubmitted": 8764,
      "rophy": 8765,
      "obile": 8766,
      "Ġcompleting": 8767,
      "Ġartificial": 8768,
      "Ġwarning": 8769,
      "Ġdesigner": 8770,
      "Ġmusician": 8771,
      "Ġuseful": 8772,
      "ĠAllen": 8773,
      "yline": 8774,
      "Ġbelieving": 8775,
      "Ġslopes": 8776,
      "Ġsentences": 8777,
      "Ġengagement": 8778,
      "Ġstrongest": 8779,
      "Ġexpert": 8780,
      "ĠWithout": 8781,
      "Ġreferring": 8782,
      "Ġdeliber": 8783,
      "Ġtooth": 8784,
      "ĠXe": 8785,
      "Ġsky": 8786,
      "ĠMagn": 8787,
      "Ġhostile": 8788,
      "Ã¡r": 8789,
      "Ġdeterior": 8790,
      "ĠRocky": 8791,
      "Ġremoval": 8792,
      "enesis": 8793,
      "ĠPlayer": 8794,
      "Ġuncertain": 8795,
      "Ġ1830": 8796,
      "ĠSocial": 8797,
      "Ġcontroller": 8798,
      "Ġbombing": 8799,
      "ĠKhandoba": 8800,
      "rupted": 8801,
      "ĠTurks": 8802,
      "Ġcredit": 8803,
      "Ġcredits": 8804,
      "Ġboundary": 8805,
      "ĠHeadquarters": 8806,
      "Ġturret": 8807,
      "Ġ766": 8808,
      "ĠLouisiana": 8809,
      "Ġevacuated": 8810,
      "Ġsafe": 8811,
      "Ġinstitution": 8812,
      "ĠIndependence": 8813,
      "Ġwindows": 8814,
      "Ġspecimen": 8815,
      "ĠUlt": 8816,
      "Ġhydrogen": 8817,
      "ĠBaseball": 8818,
      "ĠMurray": 8819,
      "ĠCaes": 8820,
      "ĠHungarian": 8821,
      "Ġneighborhood": 8822,
      "ĠDominican": 8823,
      "ĠRicky": 8824,
      "Ġphrase": 8825,
      "Ġkilometers": 8826,
      "Ġsimultaneously": 8827,
      "ĠStefani": 8828,
      "Ġculmin": 8829,
      "ĠAuthor": 8830,
      "Ġconflicts": 8831,
      "ĠSullivan": 8832,
      "ĠWanderers": 8833,
      "ĠOscar": 8834,
      "ĠAsomtavruli": 8835,
      "OK": 8836,
      "SA": 8837,
      "uv": 8838,
      "wan": 8839,
      "ygen": 8840,
      "á»": 8841,
      "Ġtub": 8842,
      "Ġcave": 8843,
      "ashed": 8844,
      "Ġmines": 8845,
      "Ġmental": 8846,
      "Ġmanga": 8847,
      "ĠTogether": 8848,
      "ĠActor": 8849,
      "Ġlat": 8850,
      "Ġnurse": 8851,
      "ĠCam": 8852,
      "eloc": 8853,
      "Ġwasn": 8854,
      "Ġbeats": 8855,
      "Ġbeauty": 8856,
      "ĠMot": 8857,
      "ĠBab": 8858,
      "ĠHave": 8859,
      "ĠHans": 8860,
      "ĠPier": 8861,
      "ĠFurt": 8862,
      "ĠDC": 8863,
      "ĠDram": 8864,
      "estyle": 8865,
      "Ġsect": 8866,
      "ĠJif": 8867,
      "ĠLover": 8868,
      "ĠEagle": 8869,
      "Ġprosec": 8870,
      "ewise": 8871,
      "Ġplacing": 8872,
      "Ġplatinum": 8873,
      "iped": 8874,
      "Ġtru": 8875,
      "Ġtrick": 8876,
      "Ġtruck": 8877,
      "Ġunlik": 8878,
      "Ġclin": 8879,
      "ĠVe": 8880,
      "ĠAlb": 8881,
      "Ġimperial": 8882,
      "ĠYellow": 8883,
      "underst": 8884,
      "ĠAsh": 8885,
      "Ġconservation": 8886,
      "icket": 8887,
      "ĠMarg": 8888,
      "ĠMars": 8889,
      "Ġassisted": 8890,
      "Ġsubstitute": 8891,
      "ologies": 8892,
      "Ġnumbered": 8893,
      "Ġ03": 8894,
      "Ġpoets": 8895,
      "ĠScully": 8896,
      "erto": 8897,
      "ieties": 8898,
      "ĠSholay": 8899,
      "Ġrunners": 8900,
      "Ġobl": 8901,
      "Ġrepair": 8902,
      "Ġairline": 8903,
      "Ġadvoc": 8904,
      "ĠFran": 8905,
      "Ġimpression": 8906,
      "Ġimpressed": 8907,
      "ĠCommons": 8908,
      "Ġdams": 8909,
      "Ġexpression": 8910,
      "Ġapproaching": 8911,
      "ĠTrust": 8912,
      "Ġmarch": 8913,
      "Ġchildhood": 8914,
      "Ġhanded": 8915,
      "urricanes": 8916,
      "Ġexplains": 8917,
      "onto": 8918,
      "Ġcrash": 8919,
      "ĠGraves": 8920,
      "aurus": 8921,
      "Ġjoining": 8922,
      "Ġsolar": 8923,
      "ĠAnglo": 8924,
      "Ġ1908": 8925,
      "Ġprofile": 8926,
      "Ġputting": 8927,
      "Ġchess": 8928,
      "Ġvillages": 8929,
      "Ġclosest": 8930,
      "Ġraising": 8931,
      "Ġelectron": 8932,
      "Ġcosts": 8933,
      "Ġfundament": 8934,
      "Ġrenov": 8935,
      "Ġfacility": 8936,
      "Ġviolent": 8937,
      "ĠValve": 8938,
      "Ġcertainly": 8939,
      "ĠAgency": 8940,
      "Ġdispat": 8941,
      "Ġdispute": 8942,
      "Ġdrove": 8943,
      "ĠToronto": 8944,
      "Ġbowl": 8945,
      "Ġbattleship": 8946,
      "Ġsettlements": 8947,
      "Ġreinforced": 8948,
      "Ġbiggest": 8949,
      "Ġboys": 8950,
      "ĠFrancis": 8951,
      "ĠCritics": 8952,
      "Ġpowered": 8953,
      "Ġtouchdowns": 8954,
      "Ġinhab": 8955,
      "Ġninet": 8956,
      "Ġchallenged": 8957,
      "Ġscientific": 8958,
      "Ġmelody": 8959,
      "Ġsucceed": 8960,
      "Ġwaiting": 8961,
      "Ġspending": 8962,
      "Ġaltered": 8963,
      "Ġimagery": 8964,
      "Ġmolecules": 8965,
      "Ġoxygen": 8966,
      "ĠBurns": 8967,
      "ĠJonathan": 8968,
      "Ġtunnel": 8969,
      "Ġchoose": 8970,
      "Ġneutral": 8971,
      "Ġfrigates": 8972,
      "ĠNHL": 8973,
      "Ġbenefit": 8974,
      "Ġcomponent": 8975,
      "Ġdrug": 8976,
      "ĠVillage": 8977,
      "ĠKirk": 8978,
      "ĠHeavyweight": 8979,
      "Ġunderwent": 8980,
      "Ġdinosaur": 8981,
      "Ġmystery": 8982,
      "ĠExpress": 8983,
      "Ġdiagn": 8984,
      "ĠProtestant": 8985,
      "ĠFernand": 8986,
      "ĠFurtado": 8987,
      "ĠJifna": 8988,
      "Ġunlikely": 8989,
      "AC": 8990,
      "NL": 8991,
      "SC": 8992,
      "aun": 8993,
      "cour": 8994,
      "dles": 8995,
      "oes": 8996,
      "power": 8997,
      "ract": 8998,
      "vati": 8999,
      "heim": 9000,
      "Ġaro": 9001,
      "real": 9002,
      "reck": 9003,
      "Ġsed": 9004,
      "Ġcake": 9005,
      "Ġboss": 9006,
      "Ġinse": 9007,
      "Ġpages": 9008,
      "Ġpistol": 9009,
      "Ġhook": 9010,
      "ĠTon": 9011,
      "ĠTree": 9012,
      "ĠTNA": 9013,
      "Ġrevers": 9014,
      "oux": 9015,
      "enty": 9016,
      "ĠSout": 9017,
      "ĠSnow": 9018,
      "ĠSora": 9019,
      "Ġnavy": 9020,
      "adheera": 9021,
      "acre": 9022,
      "Ġonwards": 9023,
      "ĠMother": 9024,
      "ĠMÃ¡r": 9025,
      "ĠImp": 9026,
      "ivated": 9027,
      "olithic": 9028,
      "ĠBulls": 9029,
      "tered": 9030,
      "irates": 9031,
      "Ġstrict": 9032,
      "Ġstores": 9033,
      "ĠHong": 9034,
      "ĠHope": 9035,
      "uty": 9036,
      "otte": 9037,
      "ĠRoc": 9038,
      "ĠPow": 9039,
      "aints": 9040,
      "ĠanekÄģntavÄģda": 9041,
      "Ġride": 9042,
      "ifies": 9043,
      "iform": 9044,
      "Ġchamber": 9045,
      "abil": 9046,
      "ĠUnd": 9047,
      "iang": 9048,
      "ears": 9049,
      "Ġwheel": 9050,
      "Ġintent": 9051,
      "Ġroots": 9052,
      "Ġaboard": 9053,
      "Ġago": 9054,
      "landers": 9055,
      "Ġdisrupt": 9056,
      "Ġupset": 9057,
      "Ġencl": 9058,
      "Ġenforce": 9059,
      "kees": 9060,
      "ensions": 9061,
      "ĠYo": 9062,
      "ĠRelease": 9063,
      "ilda": 9064,
      "Ġpeoples": 9065,
      "Ġassembly": 9066,
      "Ġthereafter": 9067,
      "Ġepic": 9068,
      "Ġtransmission": 9069,
      "Ġartistic": 9070,
      "Ġgovernments": 9071,
      "eping": 9072,
      "ĠBeth": 9073,
      "ahl": 9074,
      "ĠAdvent": 9075,
      "ĠGuine": 9076,
      "Ġconfront": 9077,
      "Ġarriving": 9078,
      "Ġdriver": 9079,
      "Ġcolleagues": 9080,
      "Ġphone": 9081,
      "Ġfrust": 9082,
      "Ġcompeted": 9083,
      "quez": 9084,
      "ĠParks": 9085,
      "ĠParvati": 9086,
      "Ġpitching": 9087,
      "Ġideal": 9088,
      "Ġskills": 9089,
      "ĠMagadheera": 9090,
      "Ġvalid": 9091,
      "Ġreducing": 9092,
      "Ġpredators": 9093,
      "Ġfifteen": 9094,
      "Ġrevised": 9095,
      "Ġsupern": 9096,
      "ĠKeith": 9097,
      "Ġclosing": 9098,
      "Ġclosure": 9099,
      "Ġrespective": 9100,
      "Ġemployees": 9101,
      "ĠOfficial": 9102,
      "ĠEmmy": 9103,
      "Ġmerely": 9104,
      "Ġdonated": 9105,
      "Ġhousing": 9106,
      "Ġdiscussion": 9107,
      "Ġgrey": 9108,
      "Ġkeeping": 9109,
      "Ġintersects": 9110,
      "Ġboundaries": 9111,
      "ASP": 9112,
      "Ġsecretary": 9113,
      "ĠCharlotte": 9114,
      "Ġtasked": 9115,
      "Ġmounts": 9116,
      "Ġdeparted": 9117,
      "ĠKentucky": 9118,
      "ĠDerry": 9119,
      "ĠEccl": 9120,
      "Ġsacri": 9121,
      "Ġvirtually": 9122,
      "ĠProvince": 9123,
      "Ġphilosophy": 9124,
      "ĠChapel": 9125,
      "Ġwealthy": 9126,
      "ropolitan": 9127,
      "ĠTransportation": 9128,
      "Ġbalance": 9129,
      "ĠJacob": 9130,
      "Ġaccurate": 9131,
[...]
